<unk>	0
<s>	0
</s>	0
<pad>	0
<0x00>	0
<0x01>	0
<0x02>	0
<0x03>	0
<0x04>	0
<0x05>	0
<0x06>	0
<0x07>	0
<0x08>	0
<0x09>	0
<0x0A>	0
<0x0B>	0
<0x0C>	0
<0x0D>	0
<0x0E>	0
<0x0F>	0
<0x10>	0
<0x11>	0
<0x12>	0
<0x13>	0
<0x14>	0
<0x15>	0
<0x16>	0
<0x17>	0
<0x18>	0
<0x19>	0
<0x1A>	0
<0x1B>	0
<0x1C>	0
<0x1D>	0
<0x1E>	0
<0x1F>	0
<0x20>	0
<0x21>	0
<0x22>	0
<0x23>	0
<0x24>	0
<0x25>	0
<0x26>	0
<0x27>	0
<0x28>	0
<0x29>	0
<0x2A>	0
<0x2B>	0
<0x2C>	0
<0x2D>	0
<0x2E>	0
<0x2F>	0
<0x30>	0
<0x31>	0
<0x32>	0
<0x33>	0
<0x34>	0
<0x35>	0
<0x36>	0
<0x37>	0
<0x38>	0
<0x39>	0
<0x3A>	0
<0x3B>	0
<0x3C>	0
<0x3D>	0
<0x3E>	0
<0x3F>	0
<0x40>	0
<0x41>	0
<0x42>	0
<0x43>	0
<0x44>	0
<0x45>	0
<0x46>	0
<0x47>	0
<0x48>	0
<0x49>	0
<0x4A>	0
<0x4B>	0
<0x4C>	0
<0x4D>	0
<0x4E>	0
<0x4F>	0
<0x50>	0
<0x51>	0
<0x52>	0
<0x53>	0
<0x54>	0
<0x55>	0
<0x56>	0
<0x57>	0
<0x58>	0
<0x59>	0
<0x5A>	0
<0x5B>	0
<0x5C>	0
<0x5D>	0
<0x5E>	0
<0x5F>	0
<0x60>	0
<0x61>	0
<0x62>	0
<0x63>	0
<0x64>	0
<0x65>	0
<0x66>	0
<0x67>	0
<0x68>	0
<0x69>	0
<0x6A>	0
<0x6B>	0
<0x6C>	0
<0x6D>	0
<0x6E>	0
<0x6F>	0
<0x70>	0
<0x71>	0
<0x72>	0
<0x73>	0
<0x74>	0
<0x75>	0
<0x76>	0
<0x77>	0
<0x78>	0
<0x79>	0
<0x7A>	0
<0x7B>	0
<0x7C>	0
<0x7D>	0
<0x7E>	0
<0x7F>	0
<0x80>	0
<0x81>	0
<0x82>	0
<0x83>	0
<0x84>	0
<0x85>	0
<0x86>	0
<0x87>	0
<0x88>	0
<0x89>	0
<0x8A>	0
<0x8B>	0
<0x8C>	0
<0x8D>	0
<0x8E>	0
<0x8F>	0
<0x90>	0
<0x91>	0
<0x92>	0
<0x93>	0
<0x94>	0
<0x95>	0
<0x96>	0
<0x97>	0
<0x98>	0
<0x99>	0
<0x9A>	0
<0x9B>	0
<0x9C>	0
<0x9D>	0
<0x9E>	0
<0x9F>	0
<0xA0>	0
<0xA1>	0
<0xA2>	0
<0xA3>	0
<0xA4>	0
<0xA5>	0
<0xA6>	0
<0xA7>	0
<0xA8>	0
<0xA9>	0
<0xAA>	0
<0xAB>	0
<0xAC>	0
<0xAD>	0
<0xAE>	0
<0xAF>	0
<0xB0>	0
<0xB1>	0
<0xB2>	0
<0xB3>	0
<0xB4>	0
<0xB5>	0
<0xB6>	0
<0xB7>	0
<0xB8>	0
<0xB9>	0
<0xBA>	0
<0xBB>	0
<0xBC>	0
<0xBD>	0
<0xBE>	0
<0xBF>	0
<0xC0>	0
<0xC1>	0
<0xC2>	0
<0xC3>	0
<0xC4>	0
<0xC5>	0
<0xC6>	0
<0xC7>	0
<0xC8>	0
<0xC9>	0
<0xCA>	0
<0xCB>	0
<0xCC>	0
<0xCD>	0
<0xCE>	0
<0xCF>	0
<0xD0>	0
<0xD1>	0
<0xD2>	0
<0xD3>	0
<0xD4>	0
<0xD5>	0
<0xD6>	0
<0xD7>	0
<0xD8>	0
<0xD9>	0
<0xDA>	0
<0xDB>	0
<0xDC>	0
<0xDD>	0
<0xDE>	0
<0xDF>	0
<0xE0>	0
<0xE1>	0
<0xE2>	0
<0xE3>	0
<0xE4>	0
<0xE5>	0
<0xE6>	0
<0xE7>	0
<0xE8>	0
<0xE9>	0
<0xEA>	0
<0xEB>	0
<0xEC>	0
<0xED>	0
<0xEE>	0
<0xEF>	0
<0xF0>	0
<0xF1>	0
<0xF2>	0
<0xF3>	0
<0xF4>	0
<0xF5>	0
<0xF6>	0
<0xF7>	0
<0xF8>	0
<0xF9>	0
<0xFA>	0
<0xFB>	0
<0xFC>	0
<0xFD>	0
<0xFE>	0
<0xFF>	0
▁र	-4.35765
▁.	-4.37077
▁ਰ	-4.38424
▁,	-4.41576
▁க	-4.54175
▁।	-4.63928
▁क	-4.83567
▁ਸ	-4.88073
▁ਕ	-4.93771
▁ம்	-4.94062
▁न	-5.02222
▁स	-5.05112
▁	-5.05246
▁ਨ	-5.06132
▁த	-5.08591
▁க்	-5.10757
▁ல்	-5.10836
▁ன்	-5.11715
▁து	-5.12893
▁ர்	-5.14583
▁ਲ	-5.14872
▁த்	-5.22576
▁ப	-5.24042
▁के	-5.25746
▁வ	-5.25767
▁प	-5.28015
▁র	-5.28123
▁தி	-5.36148
▁ਆ	-5.38501
▁ப்	-5.4895
▁அ	-5.50225
▁ਦੇ	-5.50276
▁ल	-5.52914
▁ਤ	-5.52935
▁ட்	-5.53448
▁ਅ	-5.53491
▁ட	-5.53707
▁त	-5.54528
▁கு	-5.56006
▁ने	-5.56553
▁म	-5.57023
▁का	-5.57833
▁ள்	-5.59751
▁ரு	-5.60888
▁ਹ	-5.61948
▁ਇ	-5.65286
▁ए	-5.65367
▁ह	-5.65628
▁இ	-5.67092
▁-	-5.67436
▁ந்	-5.68392
▁ய	-5.68411
▁में	-5.69833
▁டு	-5.70717
▁अ	-5.73243
▁ਮ	-5.74991
▁ਪ	-5.75124
▁है	-5.75683
▁ਤੇ	-5.76415
▁ਚ	-5.76863
▁a	-5.81145
▁ਹੈ	-5.81164
▁ன	-5.81514
▁ர	-5.82361
▁ਦੀ	-5.82655
▁e	-5.82676
▁ग	-5.83056
▁की	-5.84818
▁ब	-5.86025
▁ਦਾ	-5.86791
▁வி	-5.87746
▁ਈ	-5.88457
▁से	-5.88964
▁या	-5.89717
▁ದ	-5.90778
▁'	-5.91746
▁ம	-5.92378
▁व	-5.92926
▁य	-5.93922
▁கி	-5.9831
▁ক	-5.9851
▁ற்	-5.99575
▁டி	-5.9987
▁ন	-6.01168
▁ज	-6.01991
▁ਨੂੰ	-6.02635
▁को	-6.02801
▁कि	-6.03382
▁ਗ	-6.03468
▁आ	-6.03506
▁i	-6.0383
▁எ	-6.04536
▁ਉ	-6.04702
▁ਦ	-6.05433
▁0	-6.06176
▁ਬ	-6.07424
▁1	-6.0879
▁ங்	-6.08967
▁इ	-6.09083
▁उ	-6.13854
▁n	-6.15051
▁ना	-6.15265
▁ರ	-6.15413
▁ਕਿ	-6.15514
▁द	-6.16281
▁2	-6.16776
▁ਨਾ	-6.17248
▁o	-6.17403
▁ता	-6.17859
▁று	-6.18298
▁ਣ	-6.19261
▁t	-6.21957
▁ற	-6.22211
▁ವ	-6.23086
▁ண்	-6.23229
▁रा	-6.25628
▁ਟ	-6.26226
▁ਰੀ	-6.2649
▁ಗ	-6.2743
▁ரி	-6.30228
▁ல	-6.30247
▁औ	-6.30612
▁ਵਾ	-6.31715
▁r	-6.32165
▁ਵਿ	-6.32567
ಂ	-6.33464
▁கா	-6.34263
▁மா	-6.34505
▁சி	-6.35867
▁s	-6.36365
▁யி	-6.36699
▁ள	-6.37027
▁ਰਾ	-6.37245
▁वा	-6.3739
▁ச	-6.37486
▁ਕਾ	-6.37921
▁ਜ	-6.38476
▁ਸ਼	-6.38721
▁ਆਂ	-6.39309
▁ਵ	-6.42114
▁தா	-6.42204
▁ನ	-6.44191
▁న	-6.44273
▁मा	-6.4451
▁सा	-6.44532
▁ని	-6.44664
▁ਤਾ	-6.44748
▁)	-6.45889
▁(	-6.47094
▁உ	-6.47122
▁மு	-6.47173
ం	-6.47336
▁जा	-6.47724
▁பி	-6.48408
▁ਸਾ	-6.496
▁"	-6.50022
▁ಯ	-6.51187
▁ই	-6.51682
▁लि	-6.54054
▁ల	-6.55034
▁श	-6.5534
▁பா	-6.55674
▁ਹੋ	-6.55679
▁ई	-6.55895
▁ਹਾ	-6.56243
▁யா	-6.56252
▁वि	-6.56661
▁স	-6.57193
▁ব	-6.58356
▁லை	-6.58683
▁ಕ	-6.58759
▁ले	-6.5888
▁ला	-6.59269
▁అ	-6.5954
▁ளி	-6.60222
▁ম	-6.61288
▁এ	-6.62697
▁ट	-6.6319
▁हा	-6.6325
▁ஆ	-6.63433
▁ਨੇ	-6.63542
▁আ	-6.63695
▁ந	-6.64158
▁री	-6.65209
▁ಅ	-6.65578
▁ਕੀ	-6.65637
▁हो	-6.65642
▁ਜਾ	-6.6685
▁ਲਾ	-6.67101
▁பு	-6.67711
▁ರು	-6.6785
▁ਤੀ	-6.67975
▁प्र	-6.68706
▁ল	-6.69019
▁ਖ	-6.69798
▁l	-6.70351
▁ಮ	-6.70462
▁ੜ	-6.70668
▁செ	-6.71714
▁ಸ	-6.72722
▁हैं	-6.73418
▁క	-6.74011
▁ਵਿੱ	-6.74016
▁बा	-6.74136
▁नि	-6.75954
▁றி	-6.76642
▁வா	-6.77033
▁ਮਾ	-6.77241
▁য়	-6.77242
▁হ	-6.78381
▁రు	-6.78789
▁भी	-6.7909
▁ತ	-6.79351
▁ய்	-6.79919
▁প	-6.8157
▁వ	-6.82491
▁च	-6.82625
▁போ	-6.83172
▁ਸੀ	-6.84929
▁ত	-6.86034
▁h	-6.86997
▁ರಿ	-6.8721
▁दि	-6.88002
▁లు	-6.88322
▁త	-6.88735
▁ச்	-6.90239
▁நி	-6.90289
▁ದು	-6.90549
▁வு	-6.90717
▁ਹੀ	-6.90935
▁ਰੇ	-6.91271
▁ते	-6.91291
▁ಲ್ಲಿ	-6.92104
▁ਹਿ	-6.92146
▁5	-6.92622
▁ਪ੍	-6.93467
▁ही	-6.93593
▁दे	-6.93883
▁रि	-6.94466
▁ਬਾ	-6.94826
▁ಗಿ	-6.94896
▁3	-6.96327
▁ਕੇ	-6.96634
▁রে	-6.96641
▁ది	-6.97244
▁మ	-6.97653
▁u	-6.99042
▁ర	-6.99308
▁ரா	-7.00276
▁রা	-7.00859
▁d	-7.009
▁না	-7.00939
▁டை	-7.01234
▁கொ	-7.01741
▁ಳ	-7.01891
▁தை	-7.02396
▁ளை	-7.02452
▁नी	-7.02828
▁ਡ	-7.0411
▁ਏ	-7.0436
▁भा	-7.04985
▁ও	-7.05037
▁ಮಾ	-7.05128
▁ਵੀ	-7.05138
▁ਰਿ	-7.05408
▁पा	-7.05565
▁য়ে	-7.05635
▁ను	-7.05643
▁ప	-7.06056
▁ਤੋਂ	-7.06336
▁ಬ	-7.06405
▁ति	-7.06425
▁ನ್ನು	-7.06685
▁ਲੀ	-7.0669
▁सी	-7.07325
▁কে	-7.08028
▁வே	-7.08138
▁ती	-7.09482
▁ಗೆ	-7.09619
▁ಸಿ	-7.09726
▁নি	-7.09797
▁লে	-7.09887
▁কা	-7.10274
▁ஸ்	-7.10411
▁বা	-7.10738
▁లో	-7.11188
▁ण	-7.11436
▁ண	-7.11683
▁c	-7.12005
▁కు	-7.12252
▁মা	-7.12377
▁ਲੇ	-7.13236
▁m	-7.13705
▁ਹਾਂ	-7.14125
▁ಡಿ	-7.14284
▁4	-7.1489
▁யு	-7.15311
▁ಆ	-7.15426
▁অ	-7.15646
▁గా	-7.15796
▁ದೆ	-7.16078
▁ख	-7.16414
▁னை	-7.17147
▁তা	-7.17615
▁மி	-7.1796
▁सं	-7.18031
▁ವಾ	-7.18113
▁ಪ	-7.18322
▁ਪਾ	-7.18326
▁லி	-7.18463
▁மை	-7.19379
▁9	-7.19406
▁गा	-7.19529
▁రి	-7.20083
▁ਜ਼	-7.20246
▁ಇ	-7.2062
▁லா	-7.20751
▁मि	-7.20957
▁ವಿ	-7.20969
▁?	-7.21273
▁ஒ	-7.21553
▁তে	-7.21892
▁கை	-7.21922
▁हु	-7.22366
▁பெ	-7.22539
▁रे	-7.22631
▁னா	-7.2294
▁ರೆ	-7.23477
▁நா	-7.23924
▁নে	-7.25705
▁हीं	-7.2598
▁দে	-7.26563
▁ਇੱ	-7.26789
▁বি	-7.27205
▁ਜਿ	-7.27388
▁ளு	-7.28064
▁ਰੋ	-7.28215
▁ਨੀ	-7.28528
▁ద	-7.28814
▁சா	-7.29122
▁ਧ	-7.29303
▁ನಿ	-7.29821
▁दा	-7.3018
▁ਣਾ	-7.30597
▁चा	-7.30837
▁जि	-7.31238
▁ழ	-7.31372
▁জ	-7.31644
▁था	-7.32247
▁వి	-7.32255
▁!	-7.32902
▁ਘ	-7.33656
▁ली	-7.34968
▁বে	-7.35607
▁थ	-7.3561
▁ಲ	-7.35787
▁ਭ	-7.35887
▁லு	-7.35975
▁ಕಾ	-7.36155
▁னி	-7.36582
▁றை	-7.36677
▁ਸਿ	-7.36833
▁வை	-7.37596
▁ड	-7.38058
▁6	-7.38064
▁য়া	-7.38129
▁சு	-7.38302
▁కా	-7.38597
▁ছে	-7.39232
▁ਭਾ	-7.39397
▁8	-7.39585
▁ఆ	-7.39775
▁స	-7.40526
▁య	-7.40673
▁ਚਾ	-7.40832
▁ਵੇ	-7.40954
▁7	-7.41846
▁தே	-7.43206
▁చే	-7.44339
▁p	-7.44461
▁ਗਿ	-7.44995
▁ரை	-7.45126
▁ದಿ	-7.46094
▁g	-7.46157
▁డు	-7.47067
▁y	-7.47072
▁ಳಿ	-7.47111
▁రా	-7.47137
▁ಹ	-7.47367
ं	-7.47496
▁ਰੂ	-7.47726
▁டா	-7.47899
▁ਗਾ	-7.48483
▁রি	-7.48969
▁ਦਿ	-7.48982
▁লা	-7.48986
▁ਨਿ	-7.49058
▁मु	-7.49104
▁ತಿ	-7.49109
▁ము	-7.49114
▁మా	-7.49158
▁ਕੋ	-7.4923
▁ವು	-7.49231
▁ਸੰ	-7.49391
▁ਵੱ	-7.49708
▁ணி	-7.51213
▁వా	-7.51869
▁তি	-7.52597
▁:	-7.5286
▁ਟੀ	-7.53554
▁ಡ	-7.54119
▁रो	-7.54456
▁উ	-7.54655
▁ప్ర	-7.55915
▁ਨ੍	-7.57698
▁தொ	-7.57972
▁পা	-7.58107
▁ਫ	-7.58512
▁भ	-7.58989
▁हि	-7.59518
▁கூ	-7.59966
▁ਲਿ	-7.6009
▁ਜੀ	-7.60723
▁शा	-7.60821
▁দ	-7.61268
▁ਹੀਂ	-7.61625
▁ರಾ	-7.61652
▁শ	-7.62767
▁ਲੋ	-7.62786
▁रू	-7.62804
▁గ	-7.63285
▁ध	-7.64952
▁ਸੇ	-7.6508
▁ਮਿ	-7.65122
▁ਜੋ	-7.65441
▁றா	-7.65512
▁வெ	-7.65519
▁প্র	-7.65851
▁ਹੁ	-7.66114
▁மே	-7.66353
▁पु	-7.66385
▁फ	-7.66854
▁হা	-7.67156
▁ये	-7.68053
੍	-7.68066
▁ਤਾਂ	-7.6807
▁সা	-7.68227
▁ਮੀ	-7.68359
▁तो	-7.68502
▁చి	-7.68655
▁जी	-7.6923
▁लो	-7.69299
▁मे	-7.69829
▁ளா	-7.70104
▁కి	-7.70437
▁ਜਾਂ	-7.7093
▁धि	-7.7096
▁దు	-7.71034
▁ਣੇ	-7.7111
▁డి	-7.71248
▁ਤੁ	-7.71328
▁दी	-7.71537
▁னு	-7.71583
▁গ	-7.71595
▁সে	-7.71611
▁यो	-7.72536
▁ਹੇ	-7.72643
▁कु	-7.72809
▁ಪ್ರ	-7.73996
▁यों	-7.74378
▁ಸು	-7.74515
▁யை	-7.75137
▁జ	-7.75259
▁ਡੀ	-7.76182
▁দি	-7.76275
▁ਣੀ	-7.76539
▁सि	-7.77207
▁ਦਿੱ	-7.77317
▁पू	-7.77335
▁ਸ਼ਾ	-7.78007
▁धा	-7.78219
▁ஏ	-7.7841
▁ನಾ	-7.78845
▁ਰਾਂ	-7.78987
▁ਧਾ	-7.79033
▁ਗੁ	-7.79073
▁ਨਾਂ	-7.79079
▁ਮੁ	-7.79722
▁b	-7.80167
▁सु	-7.80279
▁S	-7.80372
▁ਸਿੰ	-7.80527
▁సి	-7.80573
▁నా	-7.80628
▁ड़	-7.8092
▁ਐ	-7.81182
▁ಯಾ	-7.82015
▁ಡು	-7.82481
▁ழு	-7.82685
▁ಎ	-7.83082
▁वे	-7.8337
▁ಜ	-7.83775
▁ಳು	-7.84136
▁A	-7.84323
▁డ	-7.84439
▁ನೆ	-7.8473
▁ర్	-7.85241
▁खा	-7.85568
▁टी	-7.85653
▁ਕੁ	-7.85767
▁টি	-7.85813
▁தெ	-7.86259
▁w	-7.86431
▁हे	-7.8652
▁న్నా	-7.86666
▁जो	-7.86762
▁கோ	-7.86991
▁ழ்	-7.87084
▁शि	-7.87161
▁ಣ	-7.8753
▁ਜੇ	-7.87598
▁ਸੁ	-7.87744
▁v	-7.87812
▁ಎಂ	-7.87987
▁ఇ	-7.88959
▁ಕೆ	-7.89014
▁छ	-7.89334
ੁੱ	-7.89421
▁k	-7.8951
▁f	-7.89514
▁పా	-7.90015
▁ಲ್ಲ	-7.90401
▁ভা	-7.9049
▁பொ	-7.90538
▁లి	-7.91424
▁ਹੁੰ	-7.9144
▁பே	-7.91548
▁ழி	-7.91846
▁கே	-7.92292
▁ట	-7.93437
▁ತೆ	-7.93505
▁ತ್ತು	-7.93769
▁ਗੀ	-7.94966
▁ತ್ತ	-7.95304
▁पी	-7.95751
▁యి	-7.95855
▁ఎ	-7.9592
▁ಲಿ	-7.9595
▁त्र	-7.96307
▁गी	-7.96339
▁ਤਿ	-7.97952
▁ਮੰ	-7.98058
▁చ	-7.98214
▁ਮੇ	-7.98306
▁న్న	-7.98528
▁T	-7.98614
▁ಹಾ	-7.9876
▁জা	-7.98772
▁मं	-7.99067
▁ಶ	-7.99093
▁న్	-8.00664
▁గు	-8.00958
▁ಈ	-8.0109
▁నే	-8.01175
▁नु	-8.01773
▁ਪੰ	-8.02341
▁डि	-8.02594
▁ಗು	-8.02841
▁गे	-8.0315
▁কি	-8.03219
▁ಸಂ	-8.03477
▁ਲਾਂ	-8.036
▁టి	-8.03815
▁తో	-8.03881
▁মি	-8.04171
▁बी	-8.04231
▁సం	-8.04421
▁नों	-8.04929
▁मी	-8.05748
▁ದ್ದ	-8.06615
▁क्ष	-8.06636
▁C	-8.06707
▁फि	-8.06806
▁తి	-8.07518
▁ष	-8.07625
▁;	-8.08024
▁दो	-8.0819
▁ਕਾਂ	-8.08681
▁লি	-8.08688
▁ਅੰ	-8.08797
▁ਝ	-8.08843
▁P	-8.08926
▁ಲಾ	-8.09019
▁நீ	-8.09044
▁টা	-8.09219
▁డా	-8.09647
▁చా	-8.09713
▁খ	-8.09783
▁ਕੰ	-8.10204
▁ਪੁ	-8.10208
▁ਖਿ	-8.10286
▁ँ	-8.10588
ిం	-8.10965
▁घ	-8.11697
▁ਗੇ	-8.12003
▁ਡਾ	-8.12682
▁సు	-8.12744
▁ఈ	-8.12756
▁ಲು	-8.13199
▁ਬੀ	-8.13226
▁வீ	-8.1384
▁రం	-8.14444
▁ণ	-8.14451
▁ஜ	-8.14596
▁ತ್ತಿ	-8.14631
▁ਬਿ	-8.15108
▁ਰੱ	-8.15237
▁ট	-8.15455
▁ಡೆ	-8.1551
▁ಸಾ	-8.16053
▁ದೇ	-8.16111
▁बि	-8.16547
▁रु	-8.1725
▁I	-8.1729
▁ದಾ	-8.17638
▁ਓ	-8.17787
▁চ	-8.17869
▁యా	-8.1812
▁ਖਾ	-8.18589
▁ਬੰ	-8.1938
▁॥	-8.19519
▁తు	-8.19877
▁ರ್	-8.20088
▁ਡੇ	-8.20612
▁ਥ	-8.20647
▁ನು	-8.20868
▁M	-8.20999
▁ਟਾ	-8.21587
▁బ	-8.21693
▁மூ	-8.22196
▁ಟ	-8.22291
▁ಕು	-8.22381
▁ಒ	-8.22591
▁சே	-8.22611
▁ఉ	-8.23258
▁ਦੁ	-8.23315
▁ದ್ದಾ	-8.23363
▁దా	-8.23526
▁যা	-8.23777
▁ಉ	-8.2404
▁ಹಿ	-8.24774
▁ছি	-8.2481
▁থা	-8.24934
▁ਪੀ	-8.25083
▁ਅੱ	-8.2535
▁ணை	-8.25543
▁కో	-8.25543
▁মে	-8.26194
▁ਵਾਂ	-8.27164
▁थी	-8.27276
▁ಮು	-8.27353
▁ਖੇ	-8.28227
▁ਪੂ	-8.28235
▁ਉਂ	-8.28723
▁ओं	-8.29021
▁ਪਿ	-8.29393
▁ನ್	-8.29565
▁ನೀ	-8.30058
▁ऐ	-8.30344
▁శా	-8.32161
▁లే	-8.32328
▁ವೆ	-8.32348
▁மீ	-8.32432
▁ನ್ನ	-8.32984
▁ਸੀਂ	-8.33208
▁थे	-8.33436
▁స్తు	-8.33651
▁ਲੱ	-8.33908
▁సా	-8.34087
▁ਲੈ	-8.34512
▁र्य	-8.34636
▁ਦੋ	-8.35126
▁ಕ್ಕೆ	-8.36537
▁మం	-8.37082
▁ಕೊ	-8.37393
▁स्था	-8.37455
▁లా	-8.37684
▁दू	-8.37784
▁ਫ਼	-8.37851
▁யே	-8.38146
▁ਥੇ	-8.38152
▁খা	-8.3831
▁দা	-8.384
▁ਥਾ	-8.38417
▁पि	-8.38852
▁D	-8.38891
▁रों	-8.38948
▁పు	-8.39479
▁प्रा	-8.39775
▁పో	-8.39934
▁ల్	-8.40048
▁शु	-8.40197
▁వు	-8.40199
▁తా	-8.40357
▁व्य	-8.41245
▁टे	-8.41395
▁R	-8.41492
▁N	-8.41686
▁बे	-8.41838
▁ठ	-8.42191
▁ಬಿ	-8.4236
▁ಚಿ	-8.42466
▁इं	-8.42754
▁ಬೇ	-8.42814
▁ओ	-8.4327
▁B	-8.43341
▁ਮੈ	-8.4375
▁ਧੀ	-8.44455
▁ষ	-8.44907
▁वी	-8.45023
▁యు	-8.45356
▁न्हों	-8.45708
▁ਧਿ	-8.45859
▁শে	-8.45955
▁రో	-8.46082
▁ਮੈਂ	-8.46373
▁న్ని	-8.46575
▁ਜ਼ਾ	-8.46604
▁ಲೆ	-8.46786
▁गु	-8.47222
▁ਉੱ	-8.4778
▁ಭಾ	-8.47956
▁ਪੈ	-8.48253
▁চা	-8.48908
▁ਬੇ	-8.48922
▁লো	-8.49666
▁चु	-8.50115
▁స్	-8.50501
▁சை	-8.5056
▁ਦੂ	-8.50779
▁ణ	-8.50807
▁దే	-8.50953
▁मो	-8.50957
▁ತ್ರ	-8.51099
▁ಯು	-8.51326
▁తె	-8.51458
▁வ்	-8.51651
▁ਤੱ	-8.51682
▁/	-8.51696
▁থে	-8.51696
▁ਸੋ	-8.51715
▁சொ	-8.51791
▁ஃ	-8.51956
▁জে	-8.52024
ே	-8.52053
▁ਲੋਂ	-8.52118
▁ਸਿੱ	-8.5283
▁ఉం	-8.52884
▁ਸੂ	-8.5328
▁चि	-8.53324
▁১	-8.53679
▁সি	-8.53705
▁बं	-8.53938
▁सू	-8.53992
▁যে	-8.5401
▁यु	-8.54031
▁వే	-8.541
▁ಪಾ	-8.54227
▁ಕ್ಷ	-8.5426
▁ಸ್	-8.54411
▁सो	-8.5456
▁ਫਿ	-8.54568
▁শি	-8.54569
▁ਯੋ	-8.5486
▁ಗಾ	-8.54877
▁ష	-8.54889
▁ಲ್	-8.5501
▁अं	-8.55239
▁ಯಿ	-8.55466
▁E	-8.55506
▁హ	-8.55857
▁ਹੱ	-8.56037
▁टा	-8.563
▁కొ	-8.56856
▁தோ	-8.56986
▁ਵੇਂ	-8.5738
▁एं	-8.57625
▁स्ट	-8.57841
▁গে	-8.57859
▁ਰੰ	-8.57867
▁ஞ்	-8.58068
▁ਊ	-8.58173
▁చె	-8.58226
▁रें	-8.58277
▁ತು	-8.58347
▁ਨੁ	-8.58709
▁কো	-8.58796
▁गों	-8.58945
▁యం	-8.59097
▁ரோ	-8.59116
▁మి	-8.59652
▁ਮੌ	-8.59863
▁तु	-8.60098
▁కే	-8.60215
▁ड़ा	-8.60247
▁ਟੇ	-8.60355
▁स्त	-8.60478
▁బా	-8.6096
▁ਇੰ	-8.61049
▁ఏ	-8.61205
▁खि	-8.61675
▁ಕಿ	-8.61685
▁त्री	-8.62184
▁जे	-8.62433
▁தீ	-8.62438
▁ਠ	-8.62689
▁हां	-8.63255
▁ধ	-8.63289
▁ತಾ	-8.63354
▁ਦੱ	-8.63754
▁భా	-8.64169
▁గి	-8.64812
▁न्य	-8.64971
▁ਪੱ	-8.65078
▁क्षा	-8.65367
▁ಮ್ಮ	-8.65583
▁ड़ी	-8.66042
▁పె	-8.66207
▁யோ	-8.66388
▁डा	-8.66418
▁నీ	-8.66594
▁রু	-8.66754
▁నం	-8.66945
▁ਮੋ	-8.67015
▁ਮਾਂ	-8.67038
▁ಹು	-8.67306
▁दु	-8.67333
▁பூ	-8.67347
▁ಚ	-8.67728
▁ಳೆ	-8.67883
▁కూ	-8.67925
▁द्वा	-8.68004
▁ಭ	-8.68142
▁ਕੱ	-8.6862
▁ఒ	-8.69281
▁ಹೆ	-8.69473
▁பை	-8.69591
▁ਟਿ	-8.69697
▁మీ	-8.69989
▁পু	-8.70497
▁ਗੱ	-8.70829
▁ਸ਼ੀ	-8.70972
▁ਮੁੱ	-8.71153
ে	-8.71651
▁ರೂ	-8.7203
ੰ	-8.72215
▁ন্য	-8.72365
▁क्त	-8.72482
▁মু	-8.7249
▁ਚੇ	-8.72537
▁ਹਿੰ	-8.72622
▁ಹೊ	-8.73185
▁ಟಿ	-8.73205
▁डी	-8.73438
▁ಬೆ	-8.73669
▁নু	-8.73729
▁ஷ்	-8.7419
▁कों	-8.74207
▁పి	-8.74415
▁ಧ	-8.74984
▁ಹೇ	-8.75027
▁ਃ	-8.75094
▁ध्य	-8.75118
▁ట్	-8.7523
▁भि	-8.75304
▁ಜಿ	-8.75375
▁టు	-8.75412
▁చు	-8.75489
▁తీ	-8.7559
▁ಧಿ	-8.75744
▁২	-8.75753
▁र्ट	-8.76026
▁ভি	-8.76099
▁হি	-8.761
▁శ	-8.76225
▁र्व	-8.76883
▁शे	-8.76904
▁ਖ਼	-8.77055
▁L	-8.77065
▁र्म	-8.7727
▁ਬੱ	-8.77345
▁द्र	-8.77369
▁క్క	-8.77424
▁पे	-8.77499
▁শা	-8.77499
▁क्ति	-8.77693
▁ধা	-8.78643
▁বং	-8.78744
▁ची	-8.79031
▁मौ	-8.7908
▁ऑ	-8.79145
▁দু	-8.79211
▁ಪಿ	-8.79396
▁लों	-8.79547
▁డం	-8.8023
▁ಮಿ	-8.80469
▁மெ	-8.8049
▁ਜ਼ਿ	-8.80826
▁ਡਿ	-8.81036
▁ಬಾ	-8.81481
▁सिं	-8.81547
▁భ	-8.81601
▁ழை	-8.81834
▁ਛ	-8.81877
▁वं	-8.82163
▁ਪੇ	-8.82179
ी	-8.82262
▁मै	-8.82345
▁ਪੋ	-8.82423
▁ਦੌ	-8.82502
▁ड़े	-8.82782
▁H	-8.83124
▁ढ़	-8.83275
▁फा	-8.83659
▁ਦੋਂ	-8.83879
▁पो	-8.83955
▁রো	-8.83975
▁ਸ਼ੁ	-8.84113
▁ਰੁ	-8.84138
▁गि	-8.84225
ਾ	-8.85432
▁G	-8.85635
▁ন্ত	-8.85799
▁ಗೂ	-8.86028
▁ஓ	-8.8614
▁ಷ	-8.86475
▁यू	-8.86494
▁తం	-8.86725
▁क्र	-8.86754
▁রী	-8.86963
▁स्थि	-8.86964
▁ஷ	-8.87298
▁০	-8.87321
সং	-8.87418
▁ਚੀ	-8.87449
▁ਚਿ	-8.87496
▁క్ష	-8.87524
▁తే	-8.8802
▁ਸ਼ਿ	-8.8827
▁ਗ੍	-8.88295
▁ਫਾ	-8.88396
▁त्त	-8.88676
▁গু	-8.88873
▁स्व	-8.88902
▁ವೇ	-8.88979
▁शी	-8.89287
▁न्हें	-8.89511
▁जै	-8.8961
▁ਤੌ	-8.89735
▁ਕੈ	-8.90057
▁పై	-8.90203
▁ਰੈ	-8.90212
▁সু	-8.90257
▁बो	-8.90401
ಿಂ	-8.90739
▁ড়া	-8.90941
▁ਯਾ	-8.91134
▁రిం	-8.91215
▁ಮೂ	-8.91391
▁গা	-8.91432
▁कै	-8.91492
▁ரூ	-8.9153
▁\	-8.91592
▁दौ	-8.91784
▁ದ್ದು	-8.91873
▁ফ	-8.91982
▁बु	-8.92027
▁टि	-8.92187
▁ரே	-8.92265
▁ਯੂ	-8.92309
▁O	-8.9236
ং	-8.92375
▁ব্য	-8.92602
▁ভ	-8.92681
▁ಕೊಂ	-8.93017
▁ಅಂ	-8.93348
▁లం	-8.93397
▁ಣೆ	-8.93559
▁তো	-8.93655
▁ছ	-8.93847
▁स्वा	-8.93932
▁१	-8.94056
▁லே	-8.94429
▁ಮೇ	-8.94492
▁ਯ	-8.94703
▁కుం	-8.94775
▁ಖ	-8.95108
▁०	-8.95156
▁শু	-8.95313
▁ஊ	-8.95346
▁টে	-8.95386
▁ಟ್	-8.95387
▁गो	-8.95531
▁खे	-8.95695
▁फी	-8.96017
▁టీ	-8.9619
▁హా	-8.96595
▁चे	-8.96724
▁নো	-8.96775
▁F	-8.96857
▁మే	-8.9719
▁சூ	-8.97218
▁र्ण	-8.97371
▁डे	-8.97424
▁రీ	-8.97807
▁मैं	-8.97943
▁ధ	-8.98286
▁ਚੰ	-8.98545
▁क्षे	-8.98685
▁ರೋ	-8.99094
▁द्ध	-8.99166
▁ড়	-8.99218
▁খে	-8.99238
▁ਖੀ	-8.99312
▁कृ	-8.99447
▁జా	-8.9946
▁णा	-8.99726
▁ಶಿ	-8.99821
▁మై	-8.9992
▁बै	-9.00612
▁ਲੰ	-9.00815
▁K	-9.01143
▁ਮੱ	-9.0135
▁জি	-9.01357
▁পে	-9.01592
▁ರಂ	-9.01832
▁కం	-9.01984
▁ਸ਼ੇ	-9.02168
▁మె	-9.02367
▁సీ	-9.02481
ੀ	-9.02829
▁र्थ	-9.02886
▁नो	-9.02994
াঁ	-9.03061
▁ज्य	-9.03211
▁क्या	-9.03361
▁भू	-9.03409
ੇ	-9.03606
▁য	-9.0367
▁स्ता	-9.0368
▁ਟੋ	-9.03775
▁ਬੋ	-9.03866
▁ల్లో	-9.03887
▁ਰ੍	-9.04004
▁ప్పు	-9.04203
▁धी	-9.04566
்	-9.04672
▁ప్ప	-9.04687
▁టా	-9.04701
▁ಪು	-9.04785
▁मू	-9.04898
▁ঘ	-9.04979
▁নী	-9.05262
▁क्स	-9.05387
▁వె	-9.05518
▁மோ	-9.05722
▁ಯೋ	-9.05867
ਿੱ	-9.06021
▁ਮੇਂ	-9.06124
▁ஜி	-9.06179
▁லீ	-9.06521
▁రె	-9.06752
▁प्त	-9.06753
▁ಣಿ	-9.07275
▁न्न	-9.07314
▁চি	-9.07339
▁ನೇ	-9.07425
▁ज्ञा	-9.07507
▁ఎం	-9.07686
▁र्ड	-9.07774
ೊಂ	-9.07816
▁ஐ	-9.07823
▁তু	-9.0796
ਿੰ	-9.08345
▁कं	-9.08454
▁ਥਿ	-9.08561
▁जु	-9.08612
▁वै	-9.09799
▁ఇం	-9.10356
▁சீ	-9.10373
▁मां	-9.10769
▁ক্ষ	-9.10791
▁ਸੱ	-9.11191
▁ಕೇ	-9.11235
▁र्ष	-9.1189
▁V	-9.11961
▁खु	-9.12084
▁ਜ਼ੀ	-9.12117
▁ధి	-9.12141
▁जू	-9.1229
▁ਸੈ	-9.13006
▁त्व	-9.13022
▁ಚಾ	-9.13123
▁ತ್ತಾ	-9.1351
▁ਜੂ	-9.13587
▁టే	-9.13631
▁ल्म	-9.13872
▁থ	-9.14202
▁బు	-9.14415
▁ড়ি	-9.14927
▁रं	-9.14928
▁క్	-9.15035
▁স্থা	-9.15164
▁|	-9.15988
▁ధా	-9.16511
▁ਗੋ	-9.16991
▁পি	-9.17199
▁कां	-9.17362
▁ਚੋ	-9.1742
▁ਕੂ	-9.17472
▁र्मा	-9.17733
▁ಜಾ	-9.17945
▁ਨੋ	-9.18244
▁వం	-9.18385
▁ਖੋ	-9.18528
▁ಟ್ಟಿ	-9.18692
▁దీ	-9.18787
▁চে	-9.19135
▁श्व	-9.19163
▁क्रि	-9.19382
▁சோ	-9.19774
▁पै	-9.20041
▁বু	-9.20271
▁ನಂ	-9.20313
▁ಏ	-9.2042
▁ष्ट्र	-9.20723
▁னே	-9.2073
▁ಹೋ	-9.20935
▁र्श	-9.20948
▁त्रा	-9.21006
▁ప్రా	-9.21323
ఁ	-9.21359
▁கெ	-9.21699
▁ज़	-9.21706
▁ग्र	-9.21741
▁क्ट	-9.21755
ੱ	-9.21933
▁హి	-9.21966
▁ਬੁ	-9.22074
▁డ్	-9.22088
ుం	-9.22157
▁ੀ	-9.22246
▁j	-9.22435
▁कें	-9.22612
▁தூ	-9.22947
▁कॉ	-9.23066
▁हुं	-9.23232
▁ಮಂ	-9.23349
▁ஈ	-9.23417
ा	-9.23497
▁ಸೇ	-9.23505
▁రూ	-9.23522
▁वो	-9.23535
▁ਚੋਂ	-9.23629
▁వీ	-9.23685
▁ಧಾ	-9.23886
▁झ	-9.24037
▁நோ	-9.24117
▁ಕೋ	-9.24194
▁ರೀ	-9.2421
▁ಶಾ	-9.24318
▁ಧ್ಯ	-9.24666
▁ग्रे	-9.24709
▁ਘੱ	-9.25055
▁ಕ್	-9.25124
▁ਫੈ	-9.25786
▁ख्य	-9.25949
▁श्य	-9.25962
▁యో	-9.26136
▁ਖੁ	-9.26233
▁நெ	-9.26377
ெ	-9.26673
▁గ్	-9.26701
▁ணு	-9.26854
▁U	-9.26987
▁ರ್ಯ	-9.2716
▁पं	-9.27204
▁প্রা	-9.27609
▁छा	-9.28119
▁ਬੈ	-9.28219
▁ಮೆ	-9.28454
▁छो	-9.28732
▁పం	-9.28942
▁వై	-9.29071
▁மொ	-9.29107
▁ಟ್ಟ	-9.29169
▁যো	-9.29387
▁ਮੂ	-9.29439
▁श्री	-9.29598
▁क्यों	-9.29679
▁ನೋ	-9.29857
▁ಥ	-9.29909
▁జి	-9.3016
▁జీ	-9.30218
▁W	-9.30282
▁र्स	-9.30394
▁ग्रा	-9.30873
▁ಬ್ಬ	-9.30938
▁ড়ে	-9.30986
▁వ్య	-9.31063
▁स्प	-9.31336
▁லோ	-9.31639
▁ವ್ಯ	-9.31743
▁ਜਿੱ	-9.31824
▁ত্র	-9.3191
▁త్ర	-9.32159
▁పీ	-9.32392
▁त्य	-9.32461
▁र्ग	-9.32514
▁ఖ	-9.3262
▁చ్చి	-9.33081
▁ಭಿ	-9.33185
▁ਕ੍	-9.33298
▁ర్య	-9.33585
▁ದ್ರ	-9.33708
▁ष्ट	-9.33747
▁ట్లు	-9.33794
া	-9.34227
▁ਵੈ	-9.34289
▁ట్టి	-9.34518
▁কু	-9.34863
▁र्ज	-9.34957
▁ಮೊ	-9.34971
▁ਥੀ	-9.35
▁జు	-9.35269
▁கீ	-9.35331
▁ದಿಂ	-9.35511
▁ల్ల	-9.35552
▁ਢ	-9.36059
▁ತ್ಯ	-9.3616
ों	-9.36316
▁z	-9.36336
▁ਬੂ	-9.3643
▁ਕੌ	-9.36447
▁ऊ	-9.36617
▁ਸਾਂ	-9.36765
▁शो	-9.36869
▁రే	-9.3692
▁ণে	-9.36959
▁फो	-9.37404
े	-9.37418
▁ಕ್ಕ	-9.37472
▁মো	-9.37659
▁ठा	-9.37744
▁ੇ	-9.3797
▁లీ	-9.38043
▁ரீ	-9.38291
▁స్తా	-9.38313
▁டே	-9.38399
▁ক্ত	-9.39113
▁ద్ద	-9.39193
▁పే	-9.39846
▁ਗੂ	-9.40044
ৎ	-9.40101
ਾਂ	-9.40412
▁చూ	-9.40712
▁ल्ली	-9.41066
▁ట్టు	-9.4131
▁ਟੈ	-9.41487
▁ணா	-9.41894
▁न्त	-9.41933
▁ਜੁ	-9.42075
▁றே	-9.42277
▁ಲೇ	-9.42321
▁ਪਿੰ	-9.42509
▁ಗೊ	-9.42656
▁ਜੰ	-9.43466
▁ছা	-9.43735
ెం	-9.4382
▁गां	-9.43948
▁త్త	-9.44238
▁ঙ্গে	-9.44389
▁ਐੱ	-9.4448
ैं	-9.44543
▁ডি	-9.44647
▁তী	-9.4476
▁२	-9.4484
▁మొ	-9.45167
▁ਟ੍	-9.45311
▁ਵੰ	-9.45339
ী	-9.45359
▁ਫੀ	-9.45404
▁यं	-9.45426
▁ध्या	-9.45486
▁గం	-9.46046
▁ख्या	-9.46248
▁x	-9.4635
▁ন্তু	-9.46527
▁डॉ	-9.47002
▁ধ্যে	-9.47047
▁গি	-9.47146
▁டெ	-9.47376
▁৩	-9.47476
▁సే	-9.47506
▁ಡ್	-9.47599
▁ਔ	-9.4766
▁হে	-9.47703
▁ಕೂ	-9.47997
▁यां	-9.48135
▁तै	-9.48275
▁ছু	-9.48546
▁ਦਿੰ	-9.48636
▁త్రి	-9.48978
▁మో	-9.49005
▁నె	-9.4904
ರಿಂ	-9.49091
▁யூ	-9.49149
▁ਜੈ	-9.49211
▁৫	-9.49579
▁పూ	-9.49714
▁ਸ਼ਾਂ	-9.49796
▁ক্তি	-9.49822
▁त्म	-9.49944
▁ਪੁੱ	-9.50039
▁स्थ्य	-9.50072
▁र्क	-9.50134
▁ಜೆ	-9.503
▁ढ़ा	-9.50333
▁బం	-9.5034
▁ਛਾ	-9.50466
ि	-9.50522
▁त्या	-9.50659
▁ਟਾਂ	-9.50807
▁চ্ছে	-9.50901
▁ਲੂ	-9.50989
▁ಸೆ	-9.51059
▁ਚੱ	-9.51085
▁మూ	-9.51745
▁ವಂ	-9.51908
▁కీ	-9.52154
▁ದಂ	-9.52329
▁श्र	-9.52572
▁ಳ್ಳ	-9.52715
▁प्रे	-9.52852
▁ਹਿੱ	-9.52888
▁লী	-9.52987
▁फै	-9.5306
▁భి	-9.53427
▁ন্ন	-9.53599
▁ಷ್ಟ	-9.53946
▁டோ	-9.54115
▁র্থ	-9.54125
▁ఓ	-9.54297
ਿ	-9.54311
▁ফি	-9.54447
▁ಬು	-9.5472
▁व्या	-9.54861
▁ਸ੍	-9.549
▁ரெ	-9.55056
▁శం	-9.55079
▁वृ	-9.55117
▁ਛੋ	-9.55199
▁क्षि	-9.55419
▁ದ್ಧ	-9.55787
▁যু	-9.55807
▁यी	-9.5589
▁ಸೂ	-9.55906
▁ज्या	-9.56385
▁ద్ర	-9.56466
▁हों	-9.56559
▁ಗ್ಗೆ	-9.5668
▁दें	-9.56725
▁ক্ষা	-9.56783
▁ਖਾਂ	-9.57462
▁ಗ್	-9.57506
▁लं	-9.57597
▁৪	-9.57718
▁बू	-9.57934
▁तं	-9.58095
▁ਫੋ	-9.58144
▁ಕ್ರ	-9.58393
▁लें	-9.58657
▁చిం	-9.58854
▁र्या	-9.58967
▁றோ	-9.58974
▁त्रि	-9.59052
▁प्रो	-9.59363
▁ஜா	-9.59382
▁भे	-9.59496
▁ন্দ	-9.59612
▁ರ್ಷ	-9.59628
▁ধি	-9.59649
▁ਨੌ	-9.59794
▁टो	-9.60158
▁ಪೂ	-9.61213
▁স্ব	-9.61234
▁ਬ੍	-9.6141
▁तों	-9.61555
▁ਵੀਂ	-9.61661
▁ಪ್ರಾ	-9.61812
▁ತ್	-9.61908
▁फे	-9.6196
▁ಯೇ	-9.62097
▁ಲ್ಲಾ	-9.62753
▁యిం	-9.63239
▁ದ್ಯ	-9.63242
▁झे	-9.63268
▁ళ	-9.63556
৯	-9.63811
▁न्द्र	-9.63959
ें	-9.64381
▁క్ర	-9.64662
▁चौ	-9.64799
▁र्टी	-9.65178
▁ਨੰ	-9.65544
▁ತ್ರಿ	-9.65687
▁డే	-9.65758
▁=	-9.66164
▁ಟ್ಟು	-9.66325
▁ਭੂ	-9.66435
▁ਰਿੰ	-9.66566
▁স্ত	-9.66742
▁ಘ	-9.67106
▁టుం	-9.67206
▁ড	-9.67727
▁ణా	-9.67962
▁భు	-9.67999
▁ਲੈਂ	-9.68021
▁బి	-9.6824
▁ధ్య	-9.68392
▁র্য	-9.68393
▁গ্র	-9.68531
▁క్కు	-9.68574
▁ফে	-9.68727
▁ਤੂ	-9.69443
▁ಷ್ಟು	-9.69623
▁త్	-9.69719
▁ಐ	-9.69756
▁न्द	-9.7017
▁ਣਿ	-9.70823
▁झा	-9.71019
▁षा	-9.71106
▁ణం	-9.71191
▁र्त	-9.71273
▁ਭਿ	-9.71325
▁लॉ	-9.71605
▁ਗਾਂ	-9.71755
▁కె	-9.71824
▁ব্যা	-9.7183
▁మ్	-9.71908
▁गं	-9.71967
▁ಡಾ	-9.71989
▁र्च	-9.72056
▁੧	-9.72247
▁ளே	-9.72446
▁स्वी	-9.72573
▁ರ್ವ	-9.72652
▁ਠੀ	-9.72723
▁శి	-9.72748
▁জী	-9.72844
▁ಲೀ	-9.72893
▁దం	-9.72919
▁ਕੇਂ	-9.7319
▁ಕ್ತಿ	-9.73373
▁सै	-9.73565
▁வோ	-9.73571
▁ਭੇ	-9.73608
▁ஜ்	-9.7397
▁ಕ್ತ	-9.7435
▁बॉ	-9.74464
▁J	-9.74687
▁ழா	-9.74752
▁आं	-9.74758
▁ਟਿੰ	-9.74803
▁न्या	-9.74838
▁%	-9.75033
▁ক্ষে	-9.75036
▁ఫ	-9.75142
▁द्या	-9.75584
ಃ	-9.75762
र	-9.75952
▁ਧੇ	-9.76041
▁लां	-9.76075
▁వ్యా	-9.76101
▁लू	-9.76125
▁ਤਿੰ	-9.76264
▁லூ	-9.76441
▁ਤੋ	-9.76507
▁णी	-9.76729
▁शों	-9.76793
▁खो	-9.76819
▁ਣਾਂ	-9.77398
▁ಳ್ಳು	-9.77617
▁ਭੀ	-9.77623
▁ర్వ	-9.77681
▁సె	-9.77747
▁हू	-9.7783
▁ਮ੍	-9.7789
▁ਧੂ	-9.7795
▁ਛੱ	-9.78052
▁ਨੈ	-9.78181
▁গো	-9.78237
▁*	-9.78245
▁त्रों	-9.78359
▁ರೇ	-9.78364
▁भो	-9.78446
▁त्	-9.78463
▁ਛੇ	-9.78781
ੈੱ	-9.79238
▁ఐ	-9.80173
▁৮	-9.80283
▁ಜ್ಯ	-9.80496
▁ట్ట	-9.80532
▁చ్చు	-9.80542
▁ತೀ	-9.80546
▁थि	-9.80602
▁মী	-9.80624
▁ವೈ	-9.80674
▁ಪ್ಪ	-9.80724
▁পূ	-9.80902
▁বো	-9.81151
▁घा	-9.81233
ঃ	-9.81497
▁नौ	-9.81507
▁னோ	-9.81812
▁ర్తి	-9.81828
▁ਹੂ	-9.81972
ೀ	-9.82053
▁नं	-9.82114
▁ట్ల	-9.82188
▁ಳೂ	-9.82251
▁ਚੁ	-9.82711
▁Y	-9.82896
▁ಜೀ	-9.83142
▁ಟೆ	-9.83321
▁ಸ್ಪ	-9.83452
ষে	-9.83578
▁ठी	-9.83653
▁స్థా	-9.83952
▁৬	-9.8397
▁३	-9.84027
▁৭	-9.84108
▁दों	-9.84257
▁ದೂ	-9.84497
▁ষ্ট	-9.84522
▁षि	-9.84533
▁দী	-9.8476
▁பீ	-9.84775
▁বী	-9.8496
▁డీ	-9.8501
▁म्ब	-9.851
▁श्चि	-9.85484
▁স্বা	-9.85504
▁ಸ್ವ	-9.85572
▁ਘਾ	-9.85679
▁मों	-9.85754
ੈਂ	-9.85811
▁ళ్ల	-9.85963
▁நு	-9.86089
▁কৃ	-9.86171
▁ਗੰ	-9.86289
ঁ	-9.86364
▁ಸೋ	-9.8643
▁মূ	-9.8644
▁ಕೃ	-9.8683
▁ਦਾਂ	-9.86832
▁ঠ	-9.8696
▁ਠਾ	-9.87615
▁ত্ব	-9.87824
▁శ్రీ	-9.87988
▁జే	-9.88076
▁ಯೂ	-9.8812
▁स्य	-9.88322
▁ণা	-9.8851
▁च्छा	-9.88541
▁हिं	-9.88658
▁யெ	-9.88774
▁ष्टि	-9.88988
▁घो	-9.88996
▁ಮೀ	-9.89016
▁டீ	-9.89019
▁ਵਿੰ	-9.89352
▁ঠি	-9.89432
▁ಶ್ವ	-9.89517
▁র্ম	-9.89534
▁[	-9.89543
▁पां	-9.89594
▁ನ್ನೂ	-9.89658
▁न्	-9.89799
▁শ্ব	-9.89895
▁మ్మ	-9.90009
▁६	-9.90605
▁ভে	-9.90672
▁நூ	-9.90833
▁సూ	-9.90867
▁చం	-9.90948
▁ক্র	-9.91064
▁ਝਾ	-9.91111
▁గో	-9.91119
▁খু	-9.91119
▁ਫੇ	-9.91136
▁खी	-9.91274
▁ದೊ	-9.91288
▁ਠੇ	-9.91291
ೂ	-9.91328
▁]	-9.91554
▁ম্প	-9.91762
▁ಚ್ಚಿ	-9.91941
▁రై	-9.91964
ೇ	-9.92074
▁టిం	-9.92542
▁जां	-9.92693
▁ਥਾਂ	-9.92987
▁বৃ	-9.93194
▁ਜੋਂ	-9.9358
▁త్రం	-9.93657
▁ಚ್ಚು	-9.9391
్యూ	-9.93949
▁ಶ್	-9.93956
ਂ	-9.94072
▁లె	-9.94209
▁ਫ਼ੀ	-9.944
▁త్వం	-9.94524
▁ದ್ದೇ	-9.94695
्यों	-9.94705
▁ರ್ಕಾ	-9.94725
▁दृ	-9.94753
▁হু	-9.94846
▁థ	-9.95323
▁క్తి	-9.95331
▁ల్లా	-9.95366
▁स्टा	-9.95372
ః	-9.95608
▁బీ	-9.95695
▁డ్డి	-9.95702
ি	-9.9608
▁ਵੋ	-9.96175
▁त्ति	-9.9633
▁ৰ	-9.9652
▁ডা	-9.96549
▁नू	-9.96597
▁मृ	-9.96776
▁ধ্য	-9.96993
▁ঙ্গ	-9.97104
▁খি	-9.97418
▁द्य	-9.97433
▁లై	-9.97435
▁র্ণ	-9.97474
▁ಟು	-9.97576
▁ত্য	-9.97868
▁ल्या	-9.97903
▁ত্ত	-9.9798
▁শী	-9.98173
.	-9.98288
▁ಗ್ರಾ	-9.98345
▁ಫ	-9.9845
▁ర్శ	-9.9862
▁ਤੰ	-9.98742
▁ವೃ	-9.98784
াং	-9.98867
▁ಣಾ	-9.99113
▁ফা	-9.99132
▁ਜਿੰ	-9.99371
ਰ	-9.99706
▁ஹ	-9.99793
▁ಕೈ	-9.99887
▁लु	-9.99954
▁గ్ర	-9.99965
▁स्तु	-10.0024
▁ल्प	-10.0025
▁ডে	-10.0076
▁बैं	-10.0077
▁ಶೇ	-10.0083
▁ಶ್ರೀ	-10.0086
▁జ్	-10.0099
▁ஞ	-10.0102
▁४	-10.0127
▁द्धि	-10.0136
▁स्टे	-10.0153
▁కృ	-10.0155
ொ	-10.0175
ುಂ	-10.0179
▁न्यू	-10.0184
▁దో	-10.0185
▁स्कू	-10.0195
▁स्या	-10.0198
▁ਲੁ	-10.0202
▁য়ো	-10.0209
▁र्दे	-10.0215
▁ಹೀ	-10.0216
▁सां	-10.0235
▁ಸ್ಥ	-10.0249
▁ধু	-10.0266
▁ಸ್ಥಾ	-10.0267
▁ద్	-10.0275
▁ర్టీ	-10.0285
,	-10.0286
▁ಪ್	-10.0288
▁ರ್ಗ	-10.0311
▁ਭੋ	-10.0319
▁গ্রা	-10.0331
▁ਜ਼ਿੰ	-10.034
▁ਹੌ	-10.0347
▁ड़ि	-10.0357
▁పొ	-10.0362
▁త్య	-10.0374
▁स्क	-10.0385
▁णि	-10.0392
▁வொ	-10.0403
▁ا	-10.0405
▁ष्य	-10.0416
▁ನ್ಯ	-10.043
▁र्फ	-10.0446
▁గే	-10.0465
▁కొం	-10.0484
▁तौ	-10.0486
▁బో	-10.0487
ಾಂ	-10.0487
▁সী	-10.0493
▁प्ता	-10.0515
▁ಲೂ	-10.052
▁রূ	-10.0534
▁ਡੋ	-10.0537
▁ధిం	-10.056
▁ಗ್ರ	-10.057
▁ర్త	-10.0572
▁णों	-10.0575
▁ਗੈ	-10.0578
▁उं	-10.0598
▁हूं	-10.0613
▁ಓ	-10.0618
▁ಗೋ	-10.0624
▁स्थ	-10.0628
▁कौ	-10.0631
▁ஹா	-10.0631
▁ప్	-10.0662
▁ర్ల	-10.0677
▁ম্ব	-10.0683
▁५	-10.0707
▁ल्ले	-10.0716
▁न्तु	-10.0746
▁ಕ್ಷಿ	-10.0748
▁ਰੁੱ	-10.0769
▁ਜ਼ੋ	-10.0779
▁టూ	-10.0809
▁ర్మ	-10.0819
▁త్స	-10.0847
▁యొ	-10.0859
▁ఖ్య	-10.0886
▁দ্ধ	-10.0895
▁ग्री	-10.0906
▁ஷா	-10.0911
▁ರೈ	-10.0914
▁स्ते	-10.0922
▁জু	-10.0935
▁ಖ್ಯ	-10.0955
▁னெ	-10.0955
▁ರ್ಥಿ	-10.0956
▁ಣ್ಣ	-10.0956
▁ಳಾ	-10.096
▁ਮੁੰ	-10.0961
▁ಯಂ	-10.0975
▁স্তা	-10.0977
▁ष्ठ	-10.098
▁जों	-10.0984
▁ತ್ವ	-10.0999
▁ম্যা	-10.1005
▁ஸ	-10.1059
▁धु	-10.1086
▁ದೀ	-10.1105
▁লু	-10.1107
▁म्मी	-10.1112
▁ਾ	-10.1131
▁ర్వా	-10.1138
▁ল্লা	-10.1153
▁र्मि	-10.1166
▁స్థ	-10.1175
▁ಗೊಂ	-10.1209
▁ಸ್ಥೆ	-10.1253
▁కాం	-10.1264
▁న్స్	-10.1276
▁ಮೋ	-10.1286
▁ಪೊ	-10.1288
▁త్వ	-10.1295
▁ಲೋ	-10.1301
ੁੰ	-10.1332
▁ತೋ	-10.1344
▁ಕ್ರಿ	-10.1366
▁యే	-10.1373
▁ন্ধ	-10.1383
▁ನೂ	-10.1383
▁कू	-10.1398
▁ర్లు	-10.1409
▁ష్	-10.1414
▁सौ	-10.1419
▁ష్ట్ర	-10.1422
▁चो	-10.1425
▁ల్లి	-10.1442
▁छे	-10.1452
▁र्ता	-10.1457
▁సో	-10.1469
▁चं	-10.1479
▁কী	-10.1483
▁స్త	-10.1487
▁ত্রে	-10.1527
க	-10.1546
▁ਡਾਂ	-10.1546
▁ಮ್	-10.1548
▁र्थि	-10.1626
▁ত্যা	-10.1637
▁वें	-10.1639
▁तः	-10.1641
▁ਯੁ	-10.1641
▁నో	-10.1655
▁गें	-10.1671
▁च्च	-10.1698
▁ಟಾ	-10.17
▁জ্ঞা	-10.1786
▁ರ್ಣ	-10.1818
▁#	-10.182
ೃ	-10.1837
▁ஷி	-10.1861
▁ಕ್ಕಿ	-10.1869
▁ರ್ಥ	-10.1881
▁ದ್ದಿ	-10.1902
▁र्ति	-10.1904
▁টু	-10.1905
▁ل	-10.1907
▁ন্ট	-10.1921
▁भु	-10.1923
▁द्धा	-10.1924
▁ग्य	-10.1926
▁ਜ਼ਾਂ	-10.1929
▁র্ত	-10.195
▁ಖಾ	-10.1964
▁ट्स	-10.1974
▁ತ್ತೆ	-10.1976
▁ஞா	-10.1981
▁ర్యా	-10.1982
▁ಜೊ	-10.2003
▁స్ప	-10.2031
▁ਚੌ	-10.2051
▁সো	-10.206
▁শো	-10.2076
▁डो	-10.2082
▁त्ता	-10.2093
▁হো	-10.2106
▁ਸੈਂ	-10.2129
▁ಲ್ಲೆ	-10.2131
▁ল্প	-10.2136
▁जें	-10.2158
▁ਤ੍	-10.2199
▁ঠে	-10.2205
▁ਐਂ	-10.2225
▁ಚ್ಚ	-10.2237
▁షా	-10.2253
▁తూ	-10.2275
▁లిం	-10.2277
▁खं	-10.2287
▁স্	-10.2298
▁धे	-10.2311
▁পো	-10.2332
▁হী	-10.2345
▁స్వ	-10.2352
▁టం	-10.2372
▁ద్వా	-10.2393
▁ঠা	-10.2401
▁ਖ਼ਾ	-10.242
▁ధు	-10.2427
▁லெ	-10.2442
▁ದ್ಯಾ	-10.2504
▁ಸ್ವಾ	-10.2516
▁क्श	-10.2521
।	-10.2521
▁র্ব	-10.2522
▁म्प	-10.2534
▁ਭੁ	-10.2538
▁ಕೀ	-10.254
▁ट्रे	-10.2576
▁ಯೆ	-10.2576
▁স্থি	-10.2583
▁ਮਿੰ	-10.2597
▁ನ್ಯಾ	-10.2625
లాం	-10.2642
टिं	-10.2647
ம்	-10.2658
▁ವೀ	-10.2663
▁ধী	-10.2673
▁फ़	-10.269
▁ణి	-10.2702
▁ಲ್ಪ	-10.271
▁র্বা	-10.2713
▁ష్ట	-10.2732
▁ਪਿੱ	-10.2749
▁ಶು	-10.277
▁ਜ਼ੇ	-10.2777
▁స్తూ	-10.2787
▁ఘ	-10.2792
▁च्चों	-10.2795
▁र्चा	-10.2801
▁टू	-10.2822
▁చ్చా	-10.286
▁ర్ణ	-10.2864
▁हें	-10.2886
▁সূ	-10.2893
▁ल्स	-10.29
▁गै	-10.2902
ॉ	-10.2903
▁టె	-10.2904
▁ਸੌ	-10.2916
▁फ्ता	-10.2934
▁র্শ	-10.2946
▁गौ	-10.295
▁ಚು	-10.2976
ృ	-10.2979
▁ষ্টি	-10.2982
ੌਂ	-10.2986
▁মৃ	-10.2988
▁హీ	-10.3024
▁त्पा	-10.3042
▁੨	-10.3049
▁স্ট	-10.306
▁ವ್ಯಾ	-10.308
▁८	-10.3106
▁ஸி	-10.3115
▁ಡ್ಡ	-10.3118
▁నూ	-10.3122
▁శ్వ	-10.3129
▁त्सा	-10.313
▁X	-10.3145
▁య్య	-10.3145
▁पृ	-10.3157
▁द्दे	-10.3159
▁च्चे	-10.3162
▁ন্দ্র	-10.3162
▁స్తే	-10.3166
▁त्मा	-10.317
▁ন্যা	-10.3188
▁ప్పా	-10.3208
▁ಸ್ತ	-10.321
▁ರ್ಮ	-10.3233
▁త్తు	-10.3247
▁गू	-10.3258
▁ढ	-10.3262
▁గ్రా	-10.3263
্টা	-10.3263
▁ಳ್ಳಿ	-10.3266
▁ण्ड	-10.3289
▁ளோ	-10.3305
▁७	-10.3338
▁ਬੈਂ	-10.3352
▁ভো	-10.3404
▁ದ್	-10.3407
▁न्म	-10.341
ू	-10.343
▁ਨਿੱ	-10.345
▁ట్లా	-10.3456
▁ತ್ತೇ	-10.3466
▁ಷಿ	-10.3473
▁ਥੋ	-10.3477
▁तें	-10.3483
▁ঞ্জ	-10.352
▁प्रि	-10.3522
▁గొ	-10.3542
▁फॉ	-10.3544
▁थो	-10.3546
▁వృ	-10.3548
▁స్తోం	-10.3563
▁స్థి	-10.3585
▁ಜು	-10.3598
▁ணீ	-10.3604
▁ਹੰ	-10.3606
ూ	-10.3612
▁ষ্ঠা	-10.3628
▁खू	-10.3629
▁शं	-10.3634
▁শ্র	-10.3639
▁চু	-10.364
▁`	-10.3644
▁ఫ్	-10.3647
▁ಗ್ಯ	-10.3658
▁ਰੋਂ	-10.3664
▁टों	-10.3668
▁वों	-10.3669
▁ভূ	-10.369
▁ਸ਼ੋ	-10.3694
▁तृ	-10.3706
▁ক্রি	-10.3719
▁స్య	-10.3721
▁ন্ত্রী	-10.3723
▁+	-10.373
▁జె	-10.3743
▁स्	-10.3763
▁ತ್ಮ	-10.3779
▁ಮೈ	-10.3792
▁ಚೆ	-10.3803
▁ਖੰ	-10.381
▁ವೂ	-10.3841
▁భూ	-10.3867
▁ਪੈਂ	-10.3869
▁তৃ	-10.3869
▁म्म	-10.3925
▁ಸ್ಥಿ	-10.3927
▁శు	-10.3949
▁త్తి	-10.3957
क	-10.3957
q	-10.3959
▁ద్ధ	-10.3971
▁వెం	-10.4
▁ਮਿੱ	-10.4005
▁చ్చ	-10.4011
▁न्ध	-10.4029
▁స్ట్	-10.4036
▁शां	-10.4061
▁लिं	-10.407
▁ఫి	-10.4094
▁वु	-10.4097
▁खें	-10.4097
▁थीं	-10.4101
▁ట్టా	-10.4123
▁দ্ধা	-10.4135
▁డె	-10.4159
೧	-10.4164
▁క్ట	-10.4167
▁క్రి	-10.4181
▁ಜ್	-10.4203
▁প্ত	-10.4204
▁ਥੋਂ	-10.4211
▁ন্ত্র	-10.4219
ీ	-10.4225
▁ਫ਼ਾ	-10.4232
▁त्प	-10.4246
▁ಬೀ	-10.4255
▁श्वा	-10.4259
▁ऋ	-10.4262
▁ಕ್ಕೂ	-10.4266
ొం	-10.4268
▁প্রে	-10.4271
▁लौ	-10.4299
▁ಸ್ಯ	-10.4317
க்	-10.4328
▁र्भ	-10.4333
ல்	-10.4335
▁య్యా	-10.4336
▁म्	-10.4363
▁ಕ್ಕಾ	-10.4363
▁ज़ा	-10.4382
▁हं	-10.4411
ன்	-10.4423
▁హై	-10.4426
▁ड़ों	-10.4427
▁డై	-10.4435
▁ಜ್ಞಾ	-10.4436
▁ಫ್	-10.446
▁प्ला	-10.4464
▁ಕ್ಷೆ	-10.4466
▁ಖೆ	-10.4467
▁ஹி	-10.4475
▁ರ್ಶ	-10.4484
▁ਪੌ	-10.4493
▁ಬ್ಯಾ	-10.451
▁ਸੁੱ	-10.4525
▁బె	-10.4528
▁న్ను	-10.4529
▁द्यो	-10.4534
▁ਟੂ	-10.4535
து	-10.4541
▁অ্যা	-10.4551
▁र्वा	-10.4563
▁ब्र	-10.4574
▁టో	-10.4582
▁నిం	-10.4613
▁ণ্ড	-10.4621
▁ফু	-10.4632
▁ಸ್ತು	-10.4633
▁ನ್ನೆ	-10.4638
▁ಲ್ಲೇ	-10.4642
▁यि	-10.4663
▁चै	-10.4667
▁ద్య	-10.4688
ர்	-10.471
▁ద్యా	-10.4737
▁९	-10.4766
▁ल्ड	-10.4782
▁ಗ್ರೆ	-10.4785
▁ర్మా	-10.4792
▁र्न	-10.4803
▁च्छी	-10.4825
▁ಗೌ	-10.4826
▁किं	-10.4833
▁ਘੰ	-10.4836
▁খ্যা	-10.4869
▁సై	-10.4877
▁ஸா	-10.4912
▁য়ী	-10.4916
▁र्द	-10.4918
ਸ	-10.4936
ੂੰ	-10.4951
▁स्ट्रे	-10.4954
▁ప్పి	-10.4957
▁ಶೀ	-10.4966
▁೦	-10.497
▁ਸ਼ੂ	-10.4974
▁স্থ	-10.4978
▁ಭೂ	-10.4987
▁प्री	-10.4987
▁ल्कि	-10.4988
▁नें	-10.4999
▁ಭೆ	-10.5005
▁స్వా	-10.5013
▁త్రా	-10.5019
▁र्र	-10.503
▁श्च	-10.5042
▁ষ্টা	-10.5062
▁ਗ਼	-10.5079
▁ब्ध	-10.509
▁र्ती	-10.5126
▁ठे	-10.5182
▁ঞ্চ	-10.5195
▁తొ	-10.5199
▁ठि	-10.52
▁ఖా	-10.5225
▁ತ್ರೆ	-10.5231
▁బ్ర	-10.5278
▁ਫੌ	-10.5293
▁ಗೇ	-10.5294
▁पॉ	-10.5296
▁म्मे	-10.5297
▁ಬೈ	-10.531
▁থি	-10.5318
▁ਫੁੱ	-10.5337
▁ರ್ಮಾ	-10.5341
▁स्सा	-10.5345
ু	-10.535
▁ट्रो	-10.5355
▁प्या	-10.5356
▁ల్సి	-10.5367
िं	-10.5382
▁र्टि	-10.5386
▁দ্ধে	-10.5393
के	-10.5421
ு	-10.5427
▁ಭ್ಯ	-10.544
▁स्त्र	-10.5456
▁স্য	-10.5476
▁ਚੈ	-10.5493
ਕ	-10.5506
्री	-10.5508
த்	-10.551
▁বৈ	-10.551
▁ब्द	-10.5511
▁ರ್ತಿ	-10.5513
▁స్ట	-10.5514
▁ਧੁ	-10.5522
▁ದ್ಧಿ	-10.5533
▁स्का	-10.5544
▁স্প	-10.555
▁ರ್ಭ	-10.5554
▁వ్వ	-10.5559
▁গী	-10.5571
▁ਬਿੰ	-10.5575
▁చ్చే	-10.5576
▁वीं	-10.5589
▁র্যা	-10.5598
▁੩	-10.5604
▁ণী	-10.5617
स	-10.5623
▁చ్	-10.5634
▁घु	-10.566
▁ভু	-10.5667
▁क्क	-10.5687
▁श्रा	-10.5688
▁ঝ	-10.5719
▁मॉ	-10.5723
▁ಪೋ	-10.5746
▁ਤੂੰ	-10.576
▁ক্যা	-10.5796
▁ਫ਼ਿ	-10.5797
▁ಯೊ	-10.5797
न	-10.5805
ੇਂ	-10.5823
▁स्कृ	-10.5862
▁దూ	-10.5873
ु	-10.5879
▁জো	-10.5887
▁ರ್ನಾ	-10.5913
▁ন্ড	-10.5919
▁म्मा	-10.5922
▁ਸੁੰ	-10.5975
▁र्षों	-10.5986
▁ਜੱ	-10.5991
▁ళ్లు	-10.6008
▁శీ	-10.601
▁ਤੈ	-10.6011
▁ಟ್ಟೆ	-10.6031
▁జం	-10.604
▁గ్గ	-10.6054
▁ರ್ತ	-10.6064
▁ಯ್ಯ	-10.6065
▁బ్యా	-10.6071
▁త్మ	-10.6078
▁ளூ	-10.6091
▁ম্পা	-10.6095
▁ਨਿੰ	-10.6098
▁ವ್	-10.6113
▁म्र	-10.6141
▁ਖੂ	-10.6164
▁ట్లో	-10.6179
▁टै	-10.6187
▁ద్ధి	-10.6192
▁त्नी	-10.6194
▁ঢ	-10.6195
▁ক্ষি	-10.6202
▁ಪ್ಪಿ	-10.6208
▁क्रे	-10.621
▁డో	-10.6221
▁వ్	-10.6245
▁बां	-10.6267
▁শ্য	-10.627
▁ನ್ನಾ	-10.6296
ி	-10.631
▁ಠ	-10.6335
▁ರ್ಟ್	-10.6338
▁ప్రే	-10.6339
▁प्ले	-10.6346
▁ರೊ	-10.6351
▁ಬ್	-10.6378
▁ஜோ	-10.6394
▁షి	-10.6429
▁ल्द	-10.6434
▁र्धा	-10.6436
▁ਪਾਂ	-10.6448
▁गृ	-10.648
▁ಸ್ಟ್	-10.6522
्यू	-10.6523
ने	-10.6531
▁চো	-10.6533
▁ದೃ	-10.6533
▁ಚ್	-10.6557
▁ఫో	-10.6571
▁హం	-10.6579
▁ईं	-10.6617
▁ਰੌ	-10.6619
▁ధం	-10.6625
▁శ్	-10.6635
▁దృ	-10.6635
▁ఆం	-10.664
▁ਡੈ	-10.6659
▁तू	-10.6662
▁ब्रा	-10.6663
▁ਧੰ	-10.6672
▁శ్ర	-10.6684
का	-10.6684
▁ष्ण	-10.6691
▁ঘা	-10.6716
▁హు	-10.6726
▁ತೇ	-10.6738
ਨ	-10.6742
▁ষা	-10.6748
▁ಸೀ	-10.676
▁ತೊ	-10.6761
▁चिं	-10.6766
▁প্রি	-10.6772
▁धो	-10.6785
▁ह्म	-10.6785
▁ब्रि	-10.6813
▁स्ती	-10.6818
▁त्ये	-10.6838
▁ਭੁੱ	-10.6846
தி	-10.6867
▁हॉ	-10.6881
▁ज्ञ	-10.6882
▁ళ్లి	-10.6886
▁ম্ভ	-10.6896
▁ஜூ	-10.6905
▁హె	-10.6908
▁म्भ	-10.6913
▁ಷ್ಟ್ರ	-10.6922
▁क्सी	-10.6935
▁চ্ছ	-10.6938
▁त्स	-10.6944
▁দ্যা	-10.695
▁ਬਾਂ	-10.6951
▁ত্তি	-10.6954
▁ঐ	-10.6965
த	-10.6988
▁యూ	-10.7007
▁র্	-10.7045
▁ಸ್ತಿ	-10.705
▁ಸ್ಯೆ	-10.7058
▁विं	-10.706
▁प्रै	-10.7064
▁দূ	-10.7093
▁స్టా	-10.7097
▁ਢਾ	-10.7115
▁स्पे	-10.714
▁బ్	-10.7146
▁ಷ್ಟಿ	-10.7162
▁ल्ला	-10.7191
▁रै	-10.7193
▁त्का	-10.7209
▁তৈ	-10.7211
▁ন্	-10.7222
দে	-10.7223
ো	-10.7239
▁੪	-10.7239
▁फू	-10.7255
র	-10.7258
▁੫	-10.7273
▁ಟೀ	-10.7292
▁•	-10.7306
▁श्न	-10.7321
▁ਘੋ	-10.7322
▁జూ	-10.7323
▁ن	-10.7329
▁ర్చు	-10.733
ੁ	-10.733
▁खों	-10.735
▁र्था	-10.7384
▁ಫೋ	-10.7412
▁ಸಿಂ	-10.7438
▁नै	-10.7441
में	-10.7462
▁দ্র	-10.7466
▁য়ি	-10.7469
▁ರ್ಮಿ	-10.7478
▁त्ती	-10.7486
▁ತ್ಯಾ	-10.7516
▁ర్ప	-10.7529
▁र्सि	-10.7545
▁क्ता	-10.7551
▁ঘো	-10.7563
▁ಕ್ಯಾ	-10.7568
▁सों	-10.7593
▁ర్భ	-10.7595
ਲ	-10.7616
▁ਟੈਂ	-10.7627
टॉ	-10.7632
▁ದ್ದೆ	-10.764
▁शै	-10.7682
▁দৃ	-10.7686
▁ಶೋ	-10.7729
▁ಷ್ಯ	-10.7748
್ಯೂ	-10.7761
▁फु	-10.7783
▁ष्क	-10.779
▁ణు	-10.7802
▁&	-10.7826
▁शू	-10.7832
▁র্তা	-10.7838
ే	-10.7845
▁र्जी	-10.7848
▁య్	-10.7864
ुं	-10.7869
▁ণি	-10.7888
లో	-10.7902
▁م	-10.7915
▁ಶ್ರ	-10.7917
▁Z	-10.7921
▁ত্যু	-10.7937
▁క్షి	-10.7938
▁न्स	-10.7941
▁క్స్	-10.7969
▁ਗੋਂ	-10.797
▁स्टो	-10.7974
▁च्छे	-10.8
▁ష్టం	-10.8004
▁स्टि	-10.8011
▁দো	-10.8033
▁গ্রে	-10.8035
▁ਖ਼ਿ	-10.8036
▁చో	-10.8044
▁ర్పా	-10.8064
▁ষ্ট্র	-10.807
▁टें	-10.8071
▁শ্চি	-10.8097
▁छु	-10.8099
▁ర్స్	-10.813
▁ళి	-10.8132
ப்	-10.8147
▁ஜே	-10.8151
▁क्ष्य	-10.8155
▁র্ক	-10.8157
की	-10.8161
▁টো	-10.8193
▁ঘু	-10.8197
▁ন্তা	-10.8215
▁ಲಂ	-10.8217
प	-10.8218
▁ష్టి	-10.822
▁ಸೌ	-10.8242
▁জ্ঞ	-10.8252
ਦੇ	-10.828
▁वॉ	-10.8287
▁స్టు	-10.8287
▁ಲೈ	-10.8303
▁ਛੀ	-10.8309
ಿ	-10.8309
▁ల్లు	-10.8312
▁स्मा	-10.8325
▁న్యా	-10.8334
▁শ্বা	-10.8345
▁ర్థ	-10.8358
▁و	-10.8359
▁ত্ম	-10.8365
ै	-10.838
▁ਝੀ	-10.8388
▁ಸ್ತಾ	-10.8392
ో	-10.84
ா	-10.8415
▁ছো	-10.8419
▁ర్థి	-10.8427
▁র্ষ	-10.8436
▁স্যা	-10.8445
▁ঙ্ক	-10.8447
▁ਸ਼ੈ	-10.8455
▁ধ্যা	-10.8457
▁ణ్	-10.8458
▁ਕੈਂ	-10.8464
ಾ	-10.8466
▁लै	-10.8479
▁স্ক	-10.8502
▁ਜ਼ੁ	-10.8509
▁ਭੱ	-10.8513
▁रिं	-10.8513
▁ఫీ	-10.8518
▁யொ	-10.8525
ப	-10.8533
▁ಜೋ	-10.8534
▁ஜீ	-10.8544
▁ಚಂ	-10.8554
▁ट्टी	-10.8556
▁ಭೇ	-10.8574
▁ర్చి	-10.8579
▁త్యే	-10.8589
▁ಪ್ರಿ	-10.8593
▁గూ	-10.8597
ட்	-10.8597
▁धू	-10.86
తోం	-10.8611
▁म्हा	-10.8613
కిం	-10.8621
▁पौ	-10.8633
▁హో	-10.8634
▁ਢੇ	-10.8638
▁ल्य	-10.8662
ৌ	-10.8664
▁ফো	-10.8667
▁గీ	-10.8671
▁ਭੈ	-10.8675
▁ম্ম	-10.8692
▁ಮ್ಮೆ	-10.8694
▁ನ್ನಿ	-10.8704
வ	-10.8706
▁খো	-10.8723
▁గ్రె	-10.875
▁स्ति	-10.8753
▁छि	-10.8761
▁ర్గా	-10.8769
▁గె	-10.8798
▁ਲੌ	-10.8802
▁डें	-10.8805
▁ರ್ಧ	-10.8806
▁యె	-10.8819
▁र्मी	-10.8823
▁త్తం	-10.883
▁ي	-10.8837
▁డ్డా	-10.884
கு	-10.8853
▁स्त्री	-10.8863
▁న్య	-10.8865
या	-10.8875
▁யீ	-10.8906
▁দ্বি	-10.892
▁ਛਿ	-10.8941
▁ত্রা	-10.8946
▁ਧੋ	-10.8971
▁क्लि	-10.8973
ா்	-10.8993
▁ಯ್ಕೆ	-10.8998
▁ਸ਼ੱ	-10.8999
▁మ్మె	-10.9026
▁র্ট	-10.9027
▁ಗೀ	-10.9036
▁ర్డు	-10.9037
▁ਊਂ	-10.9061
▁जिं	-10.9062
▁র্কে	-10.9098
্রে	-10.9099
▁ਘੇ	-10.9118
▁क्षी	-10.9121
▁ল্যা	-10.9124
▁দ্বা	-10.9135
ೋ	-10.9154
ां	-10.9162
ੋ	-10.9174
▁ਠਾਂ	-10.9178
▁ದ್ರೆ	-10.9209
▁றீ	-10.9213
▁यें	-10.9214
▁శే	-10.9223
▁ನ್ನೇ	-10.9223
ள்	-10.9228
▁ಫಿ	-10.9235
▁শ্রী	-10.9247
▁দ্ধি	-10.9247
▁೨	-10.925
▁द्वि	-10.9255
▁प्प	-10.926
▁జ్ఞా	-10.93
ौं	-10.9307
्रां	-10.9313
▁फं	-10.9317
▁न्दी	-10.9325
ृ	-10.9329
ரு	-10.9341
ो	-10.9341
▁स्को	-10.9363
▁दं	-10.9367
చై	-10.9374
▁ಪೆ	-10.94
▁ਠੰ	-10.9417
▁ల్ప	-10.9428
▁ಲ್ಯ	-10.9443
्मी	-10.9452
▁ਨੀਂ	-10.946
▁త్యా	-10.9461
▁ਲ਼	-10.9483
▁द्रा	-10.9488
▁ਮੂੰ	-10.9501
▁র্ড	-10.9503
▁ক্স	-10.951
▁न्ति	-10.951
▁ரொ	-10.9518
▁ళ్ళ	-10.952
▁ন্স	-10.9525
▁ক্রা	-10.9547
▁ਝੇ	-10.9554
▁ನ್ಸ್	-10.9559
▁న్నీ	-10.9567
ು	-10.9582
▁णे	-10.9585
▁ర్టు	-10.9591
▁ਕਿੱ	-10.9611
▁ঙ্গা	-10.9621
ना	-10.9622
▁టై	-10.9634
▁ਨੂ	-10.9644
▁ళా	-10.9678
▁ಸ್ತೆ	-10.9688
ు	-10.9721
▁स्म	-10.9722
▁డ్డ	-10.9724
▁ಸ್ಸಿ	-10.9731
त	-10.9733
▁ఫా	-10.974
▁ਛੁ	-10.9745
▁ಸೈ	-10.9746
▁నై	-10.9748
▁নৈ	-10.9751
▁পৃ	-10.9755
ుఁ	-10.9762
▁ತೂ	-10.9763
▁ঝে	-10.9787
▁ಪೇ	-10.9803
্রু	-10.9826
▁మాం	-10.9831
▁ड्रा	-10.9834
▁ব্র	-10.9836
▁चू	-10.9844
▁ত্রী	-10.9855
▁व्र	-10.9883
▁స్సు	-10.9904
▁ష్ణ	-10.9914
▁ஜை	-10.9918
▁ರ್ಜಿ	-10.9919
▁र्वे	-10.9965
▁ব্দ	-10.9968
▁త్ప	-10.9979
ਆ	-10.998
▁च्चा	-10.9986
▁वां	-11
ঈ	-11.0002
▁ర్మి	-11.0009
▁র্জ	-11.0027
▁ल्ट	-11.004
▁ধে	-11.0041
▁ल्ल	-11.0048
▁ಹೈ	-11.0048
▁ర్చ	-11.0057
▁ढा	-11.0068
▁ద్దు	-11.0071
▁ন্ধু	-11.0072
▁னீ	-11.0073
▁ಊ	-11.0075
▁ਫ਼ੈ	-11.008
▁न्ना	-11.0084
▁కై	-11.0088
▁ಣು	-11.009
ந்	-11.0092
▁ಷ್ಣ	-11.0107
▁हृ	-11.0128
▁ಚೇ	-11.018
▁ਸ਼ੰ	-11.0194
▁త్వా	-11.0197
▁ணெ	-11.0199
▁ಟೋ	-11.0208
▁স্তু	-11.0212
▁ದೋ	-11.0216
ূ	-11.0221
▁వ్ర	-11.0224
▁త్రు	-11.0226
▁ల్స్	-11.0228
▁দ্য	-11.0249
▁ঝা	-11.0288
్యో	-11.0294
▁ਜ਼ੂ	-11.0298
▁स्ट्री	-11.0302
▁ஹ்	-11.0315
டு	-11.0324
▁గ్య	-11.0338
▁র্মী	-11.0348
▁ಪ್ರೀ	-11.0351
▁भ्र	-11.0359
▁বাঁ	-11.0374
▁ఊ	-11.0382
▁ಪ್ಪು	-11.0387
▁ত্রি	-11.0394
▁ਟੁ	-11.0396
▁ट्र	-11.0398
▁ಖ್ಯೆ	-11.0403
▁ತ್ನಿ	-11.0406
▁ভী	-11.0408
▁ల్గొ	-11.0418
▁ਢੀ	-11.0434
▁চ্ছি	-11.045
▁ತ್ನ	-11.0451
▁ಬ್ರ	-11.0461
▁క్కి	-11.0471
▁र्ना	-11.0506
▁ಷ್ಟೇ	-11.051
ಗೆ	-11.0511
▁ಡೇ	-11.0514
▁ஹெ	-11.0525
▁ਝੂ	-11.0536
▁क्रा	-11.0543
▁क्ला	-11.0548
▁স্টে	-11.0565
▁ਹੈਂ	-11.0568
▁బ్బం	-11.0593
▁फ्री	-11.06
▁ন্তি	-11.0609
▁హ్మ	-11.0619
▁च्छ	-11.0633
▁जॉ	-11.064
▁र्जा	-11.064
▁छू	-11.0645
▁ਣੂ	-11.0646
म	-11.0648
▁జో	-11.0656
▁গ্য	-11.068
▁ಕ್ಸ್	-11.0685
▁దై	-11.0687
▁டூ	-11.0687
▁భ్యు	-11.069
▁ಚ್ಚಾ	-11.0692
ल	-11.0698
▁ర్పు	-11.0701
है	-11.0703
▁ಡೀ	-11.0739
▁ಧು	-11.0764
▁র্ঘ	-11.0771
▁ख़	-11.0772
▁ర్గ	-11.0814
▁బై	-11.0818
▁మ్ము	-11.0819
▁੬	-11.0822
▁দ্দ	-11.0825
ूं	-11.0832
▁র্মা	-11.0833
▁క్త	-11.0836
▁న్ల	-11.084
▁ਦੰ	-11.0849
▁ਡੂ	-11.0873
▁ल्दी	-11.0875
ਤੇ	-11.0894
▁భం	-11.0895
▁ਡਿੰ	-11.0905
▁_	-11.0906
▁ਗੁੰ	-11.0917
▁र्नि	-11.0935
▁ప్రి	-11.0936
▁న్లో	-11.0963
▁வூ	-11.0971
▁श्कि	-11.0984
্যে	-11.0986
▁క్తు	-11.0987
▁ಣ್ಣು	-11.0988
▁చీ	-11.099
▁ಯ್	-11.0992
▁क्री	-11.0993
▁फ्ट	-11.1001
▁ధీ	-11.1009
▁క్షు	-11.1021
▁ಫಾ	-11.1028
▁భ్య	-11.105
▁Q	-11.106
▁హే	-11.1068
▁চ্চ	-11.1071
▁త్యం	-11.1117
▁ಲ್ಲು	-11.112
▁దె	-11.1123
▁থ্য	-11.1136
▁ਖਿੱ	-11.1148
அ	-11.1152
▁ಷ್ಠ	-11.1174
▁त्त्व	-11.1181
▁ధ్యా	-11.1186
▁ట్స్	-11.1191
▁সাং	-11.1199
▁థా	-11.1205
▁ಹೂ	-11.1213
▁ಧ್ಯಾ	-11.1216
▁ఠ	-11.1236
▁ट्रै	-11.1275
▁क्रो	-11.1276
▁ন্তে	-11.1292
▁ट्यू	-11.1294
▁న్లు	-11.1296
▁ढ़ी	-11.1309
▁ढ़े	-11.1311
▁ಶೆ	-11.1339
▁त्यु	-11.1344
ਹੈ	-11.1369
्ट्रे	-11.1374
▁ಡೋ	-11.1379
▁णु	-11.1397
▁ర్ట్	-11.1405
▁ర్శి	-11.1421
ਤ	-11.1423
▁জ্য	-11.1426
▁ষি	-11.1428
ः	-11.1431
▁మ్యా	-11.1438
▁ন্দা	-11.144
▁సౌ	-11.144
▁నొ	-11.1448
▁স্তি	-11.1451
▁ஷே	-11.1452
▁ষ্ঠ	-11.1461
▁চী	-11.147
ਅ	-11.1479
గా	-11.1479
▁क्	-11.1496
ட	-11.15
▁ರ್ಪ	-11.1504
▁र्वि	-11.1504
▁সৃ	-11.1516
ਦੀ	-11.1518
▁ग्लै	-11.1527
▁क्टि	-11.1535
▁ಪ್ರೇ	-11.1561
▁टु	-11.157
▁੯	-11.1578
▁ಣ್ಯ	-11.1591
▁ন্দু	-11.1608
▁क़	-11.1612
से	-11.1612
▁धों	-11.1617
▁ಶ್ಯ	-11.1619
▁ర్థు	-11.163
▁ब्रे	-11.1638
▁ద్రా	-11.1654
▁ర్కొ	-11.1675
▁ਫ਼ੌ	-11.1684
্দি	-11.1693
▁ল্য	-11.1709
▁प्ति	-11.1713
▁भ्या	-11.1716
▁ر	-11.1721
▁ल्क	-11.1723
ొ	-11.1733
य	-11.1735
▁వో	-11.174
▁ন্ম	-11.1749
▁ऊं	-11.1751
▁ಸ್ತ್ರ	-11.1797
▁ज्यो	-11.1825
ತೃ	-11.1851
▁ರ್ಕ	-11.1865
▁ज़ि	-11.1871
্যা	-11.1875
▁র্তি	-11.188
▁੦	-11.1892
▁ರ್ನ	-11.1894
▁ন্না	-11.1905
▁ర్లో	-11.1913
▁स्से	-11.1917
▁క్తం	-11.1919
್ಷೇ	-11.192
ਦਾ	-11.1932
▁म्स	-11.1933
▁र्ध	-11.1992
▁स्टी	-11.1997
வி	-11.2028
ꞌ	-11.2043
रा	-11.205
▁ರ್ಯಾ	-11.2064
▁স্থ্য	-11.2078
▁ಹ್ಮ	-11.2087
▁ਠਿ	-11.2096
▁नॉ	-11.2103
▁੭	-11.2107
▁খ্য	-11.2123
▁न्व	-11.213
▁ద్రం	-11.2139
▁ಘೋ	-11.214
▁దొ	-11.2145
▁फैं	-11.215
ह	-11.2166
▁క్యా	-11.218
కు	-11.2189
▁ల్లీ	-11.2194
▁डु	-11.2199
ੀਂ	-11.222
▁क्टू	-11.2231
▁ट्वि	-11.2254
▁नः	-11.2287
▁னொ	-11.23
्तों	-11.2312
▁ల్యే	-11.2318
▁ಚೀ	-11.2323
ਹ	-11.2325
ਨੂੰ	-11.2339
▁੮	-11.2349
▁ه	-11.2392
▁म्न	-11.2394
▁స్టే	-11.2408
▁ঝি	-11.2416
▁थों	-11.2421
▁ಗ್ಗ	-11.2423
▁ర్ష	-11.2431
▁ਖੱ	-11.2445
▁र्यों	-11.2447
▁প্তা	-11.2461
▁జై	-11.2462
्वी	-11.2463
▁ಷೆ	-11.2467
▁ಬೋ	-11.247
को	-11.249
▁ధ్ర	-11.2527
▁ਗੌ	-11.2532
▁ष्टा	-11.2548
▁ಭೀ	-11.2583
▁डू	-11.2597
▁ম্প্র	-11.2601
▁షు	-11.2607
▁ਛੁੱ	-11.2608
▁ಳ್ಳೆ	-11.2638
▁డ్డు	-11.2651
री	-11.2655
ೈ	-11.2657
ਇ	-11.2659
ੋਂ	-11.2661
ए	-11.2667
▁ರ್ಡ್	-11.2681
্টে	-11.2695
▁पों	-11.2707
ని	-11.272
ాం	-11.2722
▁ب	-11.2727
▁র্তী	-11.2759
▁द्	-11.276
▁क्ल	-11.2761
▁ಔ	-11.2766
▁ಸ್ಟ	-11.2797
▁स्ला	-11.28
▁কিং	-11.2802
▁ষ্ণ	-11.2804
▁ट्रि	-11.2806
▁೩	-11.2819
▁ত্যে	-11.2825
இ	-11.2839
▁ಮ್ಯಾ	-11.284
▁भं	-11.2849
▁షే	-11.2871
-	-11.2874
▁ల్ని	-11.2879
▁లూ	-11.2892
ता	-11.2895
रॉ	-11.2901
▁ನೈ	-11.2909
▁স্ত্রী	-11.291
▁ਟੱ	-11.2911
्टी	-11.2916
▁ర్యం	-11.2929
▁శో	-11.2932
▁ক্তা	-11.2937
▁ठो	-11.2943
▁@	-11.2946
▁గౌ	-11.2948
▁ı	-11.2951
▁डिं	-11.2961
ய	-11.2971
್ದೇ	-11.2981
▁ಖಿ	-11.2985
कि	-11.2989
▁బ్బు	-11.2993
▁फ़ि	-11.2998
▁ಮೌ	-11.3022
▁ஹோ	-11.3059
▁श्म	-11.3073
கி	-11.3084
▁ਫੁ	-11.309
▁ತ್ಸ	-11.3142
▁ಠಾ	-11.3143
▁ಥೆ	-11.3148
▁त्न	-11.315
▁দ্	-11.3157
▁గ్గు	-11.316
ாா்	-11.3165
▁ट्री	-11.3167
▁ஹீ	-11.3168
▁ত্তা	-11.3172
▁ਘੁ	-11.3176
▁స్త్ర	-11.3198
▁ಢ	-11.3202
▁ਨੱ	-11.3204
ற்	-11.3211
्रे	-11.3225
ŋ	-11.324
டி	-11.324
▁ಸ್ಮಾ	-11.3249
▁ख्त	-11.3251
ੂ	-11.3257
▁न्त्र	-11.3282
ೇಂ	-11.329
▁ट्ट	-11.3293
▁घू	-11.33
▁ಶ್ನೆ	-11.33
▁পী	-11.3304
▁र्ट्स	-11.3309
▁रां	-11.3315
▁हौ	-11.3324
▁ग्नि	-11.3325
▁ब्यू	-11.3328
▁ర్గం	-11.3333
▁ट्रा	-11.3346
▁డూ	-11.3349
▁ইং	-11.3364
▁তঃ	-11.3401
▁మ్మా	-11.3408
▁ಖ್ಯಾ	-11.3408
▁ಶಂ	-11.3409
▁ಸ್ಕ	-11.3422
▁र्प	-11.3423
व	-11.3445
▁னூ	-11.3445
अ	-11.3455
▁नां	-11.3462
▁ಜ್ಞ	-11.347
▁ঙ্কা	-11.3515
▁క్ట్	-11.3519
▁म्मू	-11.3521
▁भ्य	-11.3525
▁ತ್ಸೆ	-11.3526
▁म्य	-11.3557
▁ಡ್ಡಿ	-11.3564
▁ज्ज	-11.3567
▁ఫై	-11.3568
▁ন্যে	-11.358
▁ದ್ಯೋ	-11.3601
ਮ	-11.3629
▁र्थी	-11.3634
▁ग्स	-11.3635
ਪ	-11.3643
▁ద్ధం	-11.3649
▁ष्ठा	-11.3654
▁ਢਾਂ	-11.3655
▁ಜೇ	-11.3662
▁র্গ	-11.3662
▁ট্ট	-11.3663
▁स्लि	-11.367
चों	-11.3675
▁र्षि	-11.3685
▁$	-11.3686
▁ರ್ಸ್	-11.3689
কা	-11.3693
▁ਚੂ	-11.3695
ದ	-11.3696
▁হৃ	-11.3708
वा	-11.3721
▁दै	-11.3741
▁ర్ధ	-11.3745
್ರೇ	-11.3752
▁क्वा	-11.3758
▁সৌ	-11.377
▁न्च	-11.378
▁ব্রা	-11.3796
▁श्वि	-11.3803
ਚ	-11.3817
▁ద్యు	-11.3822
▁ట్టే	-11.3824
▁ట్రా	-11.3825
ను	-11.3833
▁ক্লা	-11.3864
▁ल्	-11.3866
▁ಷ್	-11.39
▁স্ত্র	-11.3904
ग	-11.392
ੈ	-11.3926
▁థ్యం	-11.3936
্রো	-11.3946
▁ল্ল	-11.3967
▁డ్ల	-11.3968
▁र्रा	-11.3987
▁ಕ್ಕು	-11.399
▁ವ್ರ	-11.3998
▁জ্যে	-11.4011
▁ಪ್ತಿ	-11.4028
▁শ্ন	-11.4032
▁ಲ್ಯಾ	-11.4036
▁ழே	-11.4039
▁ট্রা	-11.4047
▁ड़ो	-11.4047
▁కౌ	-11.4053
▁पिं	-11.4065
▁ಸೃ	-11.4067
▁घे	-11.4117
▁শ্চ	-11.4125
हीं	-11.4132
▁ತ್ಪ	-11.4138
▁సృ	-11.4147
ங்	-11.415
▁त्ते	-11.4152
▁ఱ	-11.4186
▁బ్బ	-11.4193
▁తృ	-11.4211
▁सुं	-11.4214
▁೫	-11.4214
▁ಳೇ	-11.4222
▁ష్టా	-11.4228
▁द्द	-11.4228
▁ਟਿੱ	-11.4235
▁सॉ	-11.4239
a	-11.4245
ன	-11.4282
▁झू	-11.4283
ब	-11.4284
▁ಪೀ	-11.4292
ৃ	-11.4301
▁ష్క	-11.4303
▁ষ্ঠি	-11.4321
▁ন্ডে	-11.4326
▁జ్య	-11.4336
▁সিং	-11.4343
▁ਈਂ	-11.4359
ர	-11.4367
్లో	-11.4386
e	-11.4398
▁ध्व	-11.4403
▁ع	-11.4405
▁भौ	-11.4406
▁ন্দো	-11.4416
▁ಗೃ	-11.4442
▁झु	-11.4448
▁ਠੋ	-11.4449
▁নঃ	-11.4465
▁ರುಃ	-11.4467
▁क्का	-11.447
▁ష్ట్రా	-11.4472
▁दुः	-11.4484
▁೯	-11.4485
▁দ্ব	-11.45
▁षी	-11.4502
▁ప్లా	-11.452
▁ళ్ళు	-11.452
▁स्पी	-11.4541
▁ਥੱ	-11.456
▁ರ್ಜ	-11.457
▁ಣ್ಣಿ	-11.4573
▁ग्ला	-11.4575
▁ఢి	-11.4581
▁త్తా	-11.4583
್ರೀ	-11.4602
▁ড়ী	-11.4627
▁ಪೈ	-11.4647
▁রং	-11.4651
্থাৎ	-11.4654
▁ನ್ಗ	-11.4655
▁ਜੌ	-11.4659
▁ತಃ	-11.4665
▁চৌ	-11.4665
▁బొ	-11.468
▁र्	-11.4691
▁ద్ది	-11.4691
▁ঙ্গী	-11.4713
▁त्थ	-11.472
▁क्यू	-11.4724
▁స్క	-11.4748
▁र्षी	-11.4757
▁ज़ी	-11.4759
▁೪	-11.4759
▁ণ্য	-11.4759
▁ब्ब	-11.4768
▁ಸ್ಸು	-11.4786
▁బే	-11.4786
▁स्पि	-11.4791
▁రొ	-11.4797
ਕਿ	-11.4805
्रा	-11.4826
▁ణీ	-11.4828
▁ಷಾ	-11.4832
▁ಥಾ	-11.4841
▁శ్చ	-11.4842
▁র্স	-11.4854
਼ੁ	-11.486
▁ర్థం	-11.4891
▁प्ट	-11.4893
▁र्जि	-11.4908
▁జ్ఞ	-11.4949
▁षे	-11.4949
▁ਹੋਂ	-11.4955
▁न्दु	-11.4961
▁ಜೈ	-11.4976
ਈ	-11.4976
ਨਾ	-11.4979
▁প্যা	-11.5011
ರ	-11.502
▁ಸ್ಕೃ	-11.5033
▁ర్న	-11.5057
▁পৌঁ	-11.5059
▁ஜு	-11.5065
▁র্কি	-11.5073
▁ಮಾಂ	-11.5078
று	-11.5084
▁हैंः	-11.5105
▁হ্ম	-11.5113
▁र्वो	-11.5115
▁ఛా	-11.5115
▁ঙ্গি	-11.5117
▁ਝੋ	-11.5125
▁న్మ	-11.5135
▁ర్కె	-11.5137
್ವೀ	-11.5142
▁ಪ್ತ	-11.5151
▁ಶ್ವಾ	-11.5157
▁క్షా	-11.5173
▁ਟੌ	-11.5181
▁र्दि	-11.5189
▁వ్వు	-11.519
▁శ్న	-11.5217
▁र्ल्ड	-11.5236
▁द्दी	-11.5259
▁ಸ್ಟಾ	-11.5268
▁ನೊ	-11.5303
'	-11.5305
▁ఫె	-11.5308
▁थ्वी	-11.5319
▁ర్తు	-11.5323
▁ت	-11.5323
▁च्ची	-11.5332
▁ਫ੍	-11.5333
▁ड्स	-11.5339
▁ಫೈ	-11.5362
▁ಲ್ಕು	-11.5365
▁ಟ್ಟಾ	-11.5367
ம	-11.5369
▁ನಾಂ	-11.5372
ేం	-11.5386
▁ವೋ	-11.5386
▁यः	-11.5396
▁ರ್ಹ	-11.5424
▁ಧೀ	-11.5463
▁ణ్య	-11.5466
▁ಣ್	-11.5474
ை	-11.5487
▁ক্ষ্য	-11.549
▁ঋ	-11.5499
▁ਮੀਂ	-11.5524
▁चां	-11.5535
▁ਝੌ	-11.556
▁ਢਿ	-11.5561
▁న్సి	-11.5565
ক	-11.5567
▁र्घ	-11.5574
▁ర్వే	-11.5577
ண்	-11.5577
मा	-11.5583
▁बें	-11.5585
▁ங	-11.5602
▁ਝਿ	-11.5608
▁గాం	-11.5609
▁ಧ್ವ	-11.5611
▁ఫ్యా	-11.5614
▁र्ब	-11.5626
▁ਧੱ	-11.564
্মে	-11.5641
▁ग्न	-11.5647
না	-11.5655
▁क्यो	-11.5658
ऽ	-11.5681
▁ప్తి	-11.5685
▁ರ್ಧಾ	-11.5698
్యం	-11.57
▁चें	-11.5704
▁श्ते	-11.5707
ज	-11.5711
▁ম্	-11.5718
▁ਡੈਂ	-11.5722
▁र्जु	-11.5722
▁ষ্য	-11.5725
▁ಫೆ	-11.5753
▁র্ভ	-11.5754
▁ర్కు	-11.5756
▁ஹே	-11.5768
▁ਫੂ	-11.5775
▁ధ్వ	-11.5783
▁ক্ষু	-11.5797
▁र्पि	-11.5799
▁টী	-11.5812
ন	-11.5813
▁ತ್ಪಾ	-11.5814
▁बौ	-11.583
▁ण्य	-11.5835
▁কৌ	-11.5842
▁ಡೂ	-11.5869
▁ಟೇ	-11.5869
▁ब्दों	-11.587
▁ಥ್	-11.587
▁গৃ	-11.5891
ਰੀ	-11.5903
▁ష్య	-11.5904
ದಾ	-11.5909
▁झौ	-11.5925
▁డ్రి	-11.5929
▁क्ष्म	-11.5931
▁ন্ধে	-11.5936
▁द्दा	-11.5959
▁೬	-11.5967
োঁ	-11.5991
्रॉ	-11.5994
▁क्य	-11.6006
▁ಸ್ವಿ	-11.6012
▁द्वी	-11.6022
▁र्के	-11.6023
্বে	-11.6025
▁ন্ডা	-11.6036
▁షం	-11.6039
▁ಷೇ	-11.6044
▁ದ್ರಾ	-11.6058
▁द्व	-11.6062
▁೮	-11.6068
▁ಲ್ನ	-11.6075
▁స్టి	-11.6083
▁র্জা	-11.6088
పీ	-11.6095
▁ಪ್ಯಾ	-11.6099
▁ಸ್ನ	-11.6101
▁फ्त	-11.6102
▁ਣੋ	-11.6102
▁ಘಾ	-11.6106
▁వ్వా	-11.6111
▁ন্টি	-11.6118
▁ত্ত্ব	-11.6123
িং	-11.6134
▁గ్గి	-11.614
▁ದ್ದೀ	-11.6143
▁ಥಿ	-11.6145
▁ಚ್ಛ	-11.6148
▁ਬੌ	-11.615
▁ङ्ग	-11.6173
▁ಟೈ	-11.6176
2	-11.6193
▁ಶೈ	-11.6195
▁ম্বা	-11.6196
্লে	-11.6199
్లీ	-11.6208
▁దాం	-11.6213
▁र्शि	-11.6214
▁క్రీ	-11.6228
▁फ्रें	-11.6233
▁ಟ್ನ	-11.624
▁ప్తం	-11.6245
▁బ్రా	-11.6246
▁ਰੈੱ	-11.6249
▁व्यू	-11.6255
▁ਫ਼ੇ	-11.6263
▁ಲ್ಕ	-11.6266
ரி	-11.6277
▁शौ	-11.6279
▁न्दू	-11.6281
▁ஸு	-11.6304
▁ಭ್ರ	-11.6306
▁ਦੈ	-11.6312
ூ	-11.6326
▁ग्रु	-11.6331
▁ਘੀ	-11.6358
▁ದೈ	-11.6361
▁ప్రీ	-11.6391
▁స్మా	-11.6413
ਵਾ	-11.6426
▁ঙ	-11.6433
▁భో	-11.6441
▁ఖ్యం	-11.6469
▁ত্	-11.647
▁ஹை	-11.6471
ਗ	-11.6478
आ	-11.6482
▁षों	-11.6485
లు	-11.6495
ਵਿ	-11.6511
i	-11.6514
▁श्या	-11.6545
▁फ्रा	-11.6554
▁জ্জা	-11.6564
▁फ़ा	-11.6582
எ	-11.6585
ਉ	-11.6601
▁ప్రో	-11.6603
▁थु	-11.6604
▁ఘా	-11.6605
▁ब्लॉ	-11.6609
▁ल्थ	-11.662
▁>	-11.6621
▁ਯਿ	-11.6633
▁ತ್ಯೆ	-11.6637
▁ब्लि	-11.6639
▁ਛੋਂ	-11.6653
ರು	-11.6656
ೌ	-11.6674
ਦ	-11.6675
▁मिं	-11.6677
கா	-11.6681
▁ਿ	-11.6681
ಡಿ	-11.6682
▁క్కిం	-11.6682
மா	-11.6705
▁బూ	-11.6713
▁ಸೊ	-11.6714
▁యీ	-11.6716
ట్రో	-11.6724
जा	-11.6724
ौ	-11.6735
▁श्ले	-11.6748
0	-11.6749
▁థి	-11.6767
▁ভ্যা	-11.6781
▁ಳಂ	-11.6784
▁सृ	-11.6792
▁द्रि	-11.6794
द	-11.6805
ವಿ	-11.6809
▁ணே	-11.6812
ವಾ	-11.6814
▁ਣੌ	-11.6841
சி	-11.6841
सा	-11.6847
▁మౌ	-11.6856
ਬ	-11.6874
▁೭	-11.688
▁प्स	-11.6882
▁ক্য	-11.6886
▁ਝੁ	-11.6904
▁ಭು	-11.6909
▁ल्कु	-11.6921
ಯ	-11.6922
யி	-11.6924
▁ರ್ಚೆ	-11.6926
फें	-11.6954
o	-11.6955
▁ర్క్	-11.696
ਰਾ	-11.6979
▁रः	-11.6983
▁র্তৃ	-11.6985
्या	-11.6987
▁ক্ট	-11.6995
▁క్టు	-11.7005
1	-11.701
▁య్యే	-11.7023
▁ঙা	-11.7029
▁ड्रे	-11.7037
इ	-11.704
▁ব্রি	-11.7042
ਕਾ	-11.7047
▁त्रु	-11.7054
ವ	-11.7059
্কু	-11.7061
▁हैः	-11.707
▁र्वी	-11.7079
▁ర్డ్	-11.7081
्मों	-11.7087
▁म्यू	-11.7088
▁ਘਿ	-11.7091
▁ನೌ	-11.7103
▁ಠಿ	-11.7112
▁ਓਂ	-11.7114
ਸ਼	-11.7127
▁प्रौ	-11.713
▁চ্যা	-11.7136
▁थ्य	-11.7136
▁గ్యా	-11.7153
ದೇ	-11.716
▁ਛੂ	-11.7164
ਆਂ	-11.7186
▁ష్ణు	-11.7254
▁భే	-11.7263
▁ಟ್ಗ	-11.7278
हा	-11.7286
▁स्क्री	-11.7288
▁ర్జు	-11.7293
▁ರ್ವಾ	-11.731
वि	-11.7314
▁ಕ್ರೀ	-11.7321
ले	-11.7322
▁ಕ್ಟ	-11.7324
▁र्थों	-11.7335
রে	-11.7359
▁గ్రీ	-11.736
ನ	-11.7368
▁স্ম	-11.7376
▁ಕೌ	-11.7379
▁د	-11.738
▁র্টি	-11.7391
▁ল্লি	-11.7391
▁खीं	-11.7401
ತಿ	-11.7433
தா	-11.7475
▁ಬೊ	-11.7491
▁ল্পে	-11.7505
о	-11.7507
उ	-11.7517
▁য়ু	-11.7519
▁र्ल	-11.7529
▁ಹೌ	-11.755
▁র্চ	-11.7556
▁পৌ	-11.758
▁খুঁ	-11.7589
▁రేం	-11.7603
▁সৈ	-11.7606
▁ঙে	-11.7612
▁মৌ	-11.7618
▁न्थ	-11.7622
n	-11.7637
▁ళ్లా	-11.764
▁ष्णु	-11.7649
▁న్నో	-11.765
ला	-11.7663
▁ದ್ಯು	-11.7665
▁स्की	-11.7666
▁س	-11.7693
▁म्हें	-11.7698
▁ভ্য	-11.7707
लि	-11.7717
ਤਾ	-11.773
▁ಋ	-11.7731
ಗ	-11.7744
▁ف	-11.7747
্টো	-11.7769
▁र्भा	-11.7787
▁য্য	-11.7822
▁ढ़ें	-11.7841
▁భీ	-11.7842
వీ	-11.7847
▁ट्टा	-11.7849
▁ರ್ಬ	-11.7851
▁ग्ग	-11.7852
▁గ్స్	-11.7854
▁ర్షి	-11.7872
▁त्वा	-11.7877
▁ಬ್ಬಿ	-11.7891
▁ম্মা	-11.7892
नि	-11.7892
▁ਜੈਂ	-11.7897
రి	-11.7899
▁झी	-11.79
▁ల్పి	-11.7914
తో	-11.7919
▁प्श	-11.7937
▁ड्र	-11.7941
बा	-11.796
▁ಸ್ಯಾ	-11.7961
్టీ	-11.7966
▁ల్యా	-11.797
▁स्कि	-11.7971
மு	-11.7972
▁షో	-11.7973
▁ತ್ತೊ	-11.7986
▁ద్దే	-11.8007
▁ਝੱ	-11.8012
▁ন্দ্রে	-11.8017
▁·	-11.803
పై	-11.8035
▁ಟ್ರೋ	-11.8036
▁न्हो	-11.8042
ਣ	-11.8058
▁ब्दी	-11.8084
ট্রে	-11.8084
▁ন্ডি	-11.8091
▁శ్వా	-11.8095
பி	-11.8096
▁ਾਂ	-11.8101
ಫೋ	-11.8107
▁क्ष्मी	-11.8108
▁ಸ್ಮ	-11.8134
▁র্বে	-11.8163
▁र्शा	-11.8197
▁ন্থ	-11.8199
ਸਾ	-11.8215
हो	-11.8216
▁ల్డ్	-11.8222
▁త్ని	-11.8234
▁न्ता	-11.8241
কৃ	-11.8249
▁ఖ్యా	-11.8255
्कृ	-11.827
▁র্য্য	-11.8287
▁ದ್ವಿ	-11.8293
▁ಬ್ರಾ	-11.8298
▁డ్లు	-11.8312
▁బ్ద	-11.8317
t	-11.8328
ற	-11.8353
▁ভৃ	-11.8369
ट	-11.8376
▁క్య	-11.8381
▁ਰੇਂ	-11.8385
▁फ्ते	-11.8388
▁ಸ್ಟಿ	-11.8411
▁র্ডে	-11.8412
▁क्ली	-11.8414
▁स्मि	-11.8416
▁ట్ర	-11.8426
▁ಬೌ	-11.8438
▁క్సి	-11.844
লে	-11.8476
న	-11.849
▁টিং	-11.8496
▁ম্ভা	-11.8517
▁रौ	-11.8523
▁ਘਾਂ	-11.8546
▁क्के	-11.8557
▁ਫ਼ੋ	-11.8563
▁ন্সি	-11.857
▁ನಃ	-11.8577
ದು	-11.8577
▁షిం	-11.8582
ರಿ	-11.8593
ü	-11.86
İ	-11.8609
▁ನ್ಮ	-11.8609
▁ಧ್ಯೆ	-11.8618
▁ग़	-11.862
్రీ	-11.8624
▁ಶ್ಚ	-11.8628
प्र	-11.8641
▁ద్రి	-11.8646
▁স্টি	-11.8647
▁ष्प	-11.8654
▁ਥੈ	-11.867
▁ళ్ళి	-11.8676
▁ఱు	-11.8677
▁यौ	-11.8679
▁ನ್ನೋ	-11.868
ಲಿ	-11.8683
▁द्यु	-11.8691
▁র্ম্ম	-11.8703
▁ಕ್ಷಾ	-11.8719
▁సొ	-11.872
▁ಶೂ	-11.8727
▁র্থে	-11.8728
▁প্তি	-11.8741
ನ್ನು	-11.8746
కూ	-11.8748
ਟ	-11.8755
ೆ	-11.8756
▁ਡੰ	-11.8757
▁र्कि	-11.8774
▁ತ್ಯು	-11.8777
्ल्यू	-11.8777
▁ಪ್ರೊ	-11.8778
▁హృ	-11.8783
▁ஸை	-11.8791
▁শ্যা	-11.8794
▁ಷ್ಠಿ	-11.8795
▁বৎ	-11.8804
▁ষ্ক	-11.8805
▁ನ್ನೊ	-11.8812
பா	-11.8823
ਹੋ	-11.8823
▁র্দি	-11.8825
▁ধ্ব	-11.8828
▁స్మ	-11.8868
ਹਾ	-11.888
யா	-11.8881
्वा	-11.8896
▁న్యం	-11.8917
▁ਡੌ	-11.8928
▁ঞ্চা	-11.8935
▁দ্রা	-11.8937
▁ਨੋਂ	-11.8953
్రై	-11.8972
▁ಮ್ಮಿ	-11.8984
▁प्रिं	-11.8986
▁ফাঁ	-11.9026
▁ಗ್ಯಾ	-11.9035
দি	-11.9042
▁చ్ఛ	-11.9043
रि	-11.9045
▁ప్టె	-11.905
्जि	-11.9054
▁দ্যো	-11.9082
▁ಕ್ರೋ	-11.9085
▁ರ್ಕ್	-11.9093
▁দৈ	-11.9097
▁ন্ধা	-11.9106
▁ಬ್ರಿ	-11.9106
▁डों	-11.9108
▁ग्ध	-11.9118
லை	-11.9124
▁ದ್ರು	-11.9134
▁శ్య	-11.9135
▁ವೊ	-11.9135
▁ಟ್ಯಾ	-11.9136
▁ಫೀ	-11.9142
▁न्दि	-11.9146
ல	-11.9157
▁ಶ್ಚಿ	-11.9168
▁ق	-11.9181
▁స్కా	-11.919
▁द्रो	-11.9193
औ	-11.9194
▁খী	-11.92
▁వ్రా	-11.9215
▁డెం	-11.9215
▁ళం	-11.9231
▁চাঁ	-11.9235
▁రాం	-11.9245
أ	-11.9247
▁ద్రు	-11.925
▁ದ್ರಿ	-11.9257
্কা	-11.926
ಸಿ	-11.9262
▁ರ್ಥ್ಯ	-11.9273
▁क्षु	-11.9274
ளி	-11.9278
▁व्यं	-11.9305
▁ਦੇਂ	-11.9309
రు	-11.931
भी	-11.9311
▁ನ್ವ	-11.9317
▁ప్యా	-11.9319
ɨ	-11.9331
▁दां	-11.9331
▁श्रृ	-11.9344
r	-11.9349
কে	-11.9349
▁ब्या	-11.9359
▁ర్కొం	-11.9362
▁ಗ್ನ	-11.9364
্সে	-11.9367
▁ক্কা	-11.9372
▁बृ	-11.9373
ల	-11.9374
▁ك	-11.9385
हैं	-11.9393
▁নূ	-11.9394
▁स्टें	-11.9402
▁যৌ	-11.9403
▁ಖು	-11.9411
▁फ्र	-11.9412
▁ভ্র	-11.9413
▁হ্যা	-11.9416
▁स्टॉ	-11.9425
▁ণ্ঠ	-11.9426
▁घ्र	-11.9433
▁यॉ	-11.945
▁స్నే	-11.9466
▁ड़ें	-11.9468
▁र्गों	-11.947
रे	-11.9473
ਵਿੱ	-11.9479
▁শ্	-11.9484
▁ख्स	-11.9488
▁फ़ी	-11.949
▁स्रो	-11.9509
डां	-11.951
▁क्ट्रि	-11.9511
▁ನ್ಸಿ	-11.9519
▁र्मे	-11.9526
▁র্ব্ব	-11.9533
▁ਸੋਂ	-11.954
▁फ़ो	-11.9541
▁ರ್ಟಿ	-11.9565
▁ప్రై	-11.9569
▁র্ন	-11.957
▁ద్ధా	-11.9592
▁ಟೊ	-11.9604
ਨੇ	-11.961
▁ద్వి	-11.9613
▁হূ	-11.9641
▁দ্যু	-11.9648
▁ఖి	-11.9668
▁न्हा	-11.9672
▁ರ್ಚ್	-11.9678
ीं	-11.9678
▁கௌ	-11.9681
ş	-11.9702
▁ಲ್ಪಿ	-11.971
▁ক্	-11.9723
▁णो	-11.9724
▁క్లి	-11.9731
s	-11.9748
▁ಷ್ಟಾ	-11.975
▁ম্য	-11.9769
मृ	-11.9769
নে	-11.9777
़	-11.9782
▁బ్రి	-11.979
▁ত্তে	-11.98
▁త్నం	-11.9804
▁ల్లె	-11.981
▁চ্চা	-11.981
▁ಕ್ಸಿ	-11.9815
ਕੀ	-11.982
▁ర్ను	-11.9831
ள	-11.9835
వే	-11.9852
▁ढ़ो	-11.9853
▁तां	-11.9856
তে	-11.9858
ச	-11.9881
▁పౌ	-11.9886
বে	-11.9887
▁द्घा	-11.9888
▁ಸ್ಕಾ	-11.9889
▁ब्ल	-11.9893
▁ಲ್ಗ	-11.9899
▁র্টে	-11.9915
▁క్ష్యం	-11.9916
▁र्षा	-11.9916
▁మ్మి	-11.992
▁क़ा	-11.9932
▁ঢু	-11.9935
ਜਾ	-11.9941
▁জ্ব	-11.9942
ਲਾ	-11.9966
▁ರಃ	-11.9973
্দু	-11.9976
ਜ	-11.998
▁जौ	-11.9993
▁ರ್ಗೆ	-11.9995
▁ఱి	-12.0017
பு	-12.0027
▁ढे	-12.0031
ਤੀ	-12.0053
▁ద్యం	-12.0057
▁ప్తు	-12.006
▁ಷ್ಯಾ	-12.0075
▁क्रू	-12.0082
▁व्हा	-12.0084
▁হ্য	-12.0091
▁र्की	-12.0101
▁ਣੁ	-12.0105
নি	-12.0111
▁ডো	-12.0112
▁ఔ	-12.0114
▁ಕ್ರಾ	-12.0116
▁ਖ਼ੂ	-12.0123
್ನೇ	-12.0125
▁र्मों	-12.0134
▁ರ್ಚಿ	-12.0149
రా	-12.0158
▁ಕ್ಯ	-12.017
▁బృ	-12.0181
▁ಗ್ನಿ	-12.0233
▁ब्लै	-12.0238
▁ళ్యా	-12.0239
▁ঢ়	-12.0243
রা	-12.0244
▁డ్రు	-12.0254
ಕ	-12.026
▁క్రా	-12.0277
दे	-12.0299
▁ಮ್ಮಾ	-12.0304
▁స్పె	-12.0317
ਵ	-12.0344
▁গ্যা	-12.0349
▁छी	-12.0355
▁क्रां	-12.0381
▁ਏਂ	-12.0382
▁म्बा	-12.04
▁స్ట్రీ	-12.0401
▁ಣ್ಣೆ	-12.0406
▁ಬ್ದ	-12.0412
▁स्ट्र	-12.0416
▁ఛ	-12.0422
செ	-12.0428
ति	-12.0432
и	-12.0437
ಲ್ಲಿ	-12.0442
▁फ्लो	-12.0444
▁ఫే	-12.0455
▁ਰਿੱ	-12.0472
▁ਯੇ	-12.0476
▁గ్గా	-12.0511
▁బౌ	-12.0513
ತ	-12.0517
▁শ্যে	-12.0524
▁ನ್ಸ	-12.0527
▁ತ್ಸಾ	-12.0535
ব	-12.0536
ही	-12.0545
▁র্বো	-12.0571
▁ড়ু	-12.0606
্বা	-12.0627
▁క్షం	-12.0646
▁நை	-12.0646
▁ರ್ದಿ	-12.0651
ನು	-12.0659
▁ರ್ನಿ	-12.0677
జా	-12.0707
▁ड्रो	-12.071
नी	-12.0713
▁শূ	-12.0719
)	-12.0722
▁గ్ని	-12.0722
▁యై	-12.0722
▁ম্পি	-12.0727
▁ন্ত্রি	-12.073
▁স্ট্রে	-12.0734
▁ணோ	-12.0735
▁శ్రా	-12.0738
▁स्पो	-12.0743
▁ರ್ಕಿ	-12.0744
а	-12.0755
▁ಟ್ಸ್	-12.0759
য়	-12.0761
▁शः	-12.0766
▁ల్చి	-12.0771
▁क्च	-12.0783
▁ल्यू	-12.079
▁स्त्रि	-12.0795
्रि	-12.0796
श	-12.0799
▁ಪ್ಲಾ	-12.0803
▁ಡ್ನ	-12.0807
▁ಟ್ರಿ	-12.0807
▁థ్	-12.0811
నా	-12.0812
▁প্লে	-12.0821
▁ब्जे	-12.0821
▁ष्ठि	-12.0825
▁ತ್ತೂ	-12.0825
▁గై	-12.0827
्ली	-12.0831
▁ड्डी	-12.0838
दि	-12.0841
(	-12.0843
உ	-12.0845
▁ಷ್ಠಾ	-12.0854
▁త్యు	-12.0854
▁ಭೋ	-12.087
▁গ্ন	-12.0881
▁ক্ষী	-12.0895
▁र्गी	-12.0919
றி	-12.0921
्ना	-12.0922
▁ಷ್ಕ	-12.0923
ದೆ	-12.0924
▁র্ধ	-12.0926
▁ঠো	-12.094
▁ಗ್ಗಿ	-12.0945
▁ಕ್ಷ್ಮ	-12.0947
▁ਨੈਂ	-12.0956
▁যি	-12.0956
வா	-12.096
▁গৌ	-12.097
ਮਾ	-12.0981
মা	-12.0984
▁ਢੁ	-12.0985
▁ब्धि	-12.0993
सी	-12.0997
▁ಹ್ಯಾ	-12.1013
▁ತ್ರಾ	-12.1023
▁ਵੁ	-12.1042
▁ಭ್ಯಾ	-12.1043
▁न्दा	-12.1045
▁న్సీ	-12.1061
▁ల్పో	-12.1063
▁क्सि	-12.1065
е	-12.1073
▁లెం	-12.1075
▁°	-12.1087
▁ख़ा	-12.1096
▁ত্রু	-12.1097
ళీ	-12.1101
▁చొ	-12.1106
్వీ	-12.112
▁खां	-12.1124
▁ದ್ವಾ	-12.1135
"	-12.1136
्फो	-12.1138
▁న్కు	-12.1141
▁య్యి	-12.1165
▁ஷோ	-12.1166
▁భ్ర	-12.1168
▁ಡ್ಯ	-12.1172
▁ರ್ಪಿ	-12.1178
▁ਗ਼ੈ	-12.1186
▁న్నాం	-12.1189
▁ज़ो	-12.1199
▁ರ್ಗಾ	-12.1212
ಶಿ	-12.1214
ते	-12.1216
▁ਖੋਂ	-12.1224
▁క్కా	-12.1234
▁ದುಃ	-12.1242
ய்	-12.1249
जि	-12.1251
▁ಲ್ಸ್	-12.1258
▁ह्मा	-12.1266
▁శై	-12.1271
্যাং	-12.128
▁ర్ర	-12.1281
▁ಟ್ರ	-12.1284
್ಶಿ	-12.1293
ই	-12.1302
▁త్న	-12.1303
▁ర్జ	-12.1308
▁णं	-12.131
▁গাঁ	-12.1311
▁ਸ਼ੌ	-12.1322
▁ప్లే	-12.1324
▁श्ता	-12.1335
ম	-12.1346
▁घी	-12.1358
▁ক্ষো	-12.1359
ಮ	-12.1387
▁ಷ್ಟೆ	-12.1409
স	-12.1412
▁ডু	-12.1421
▁ర్కా	-12.1439
▁প্রো	-12.1442
▁क्सा	-12.1463
▁ಟೂ	-12.1464
াৎ	-12.1466
▁ಣೇ	-12.1469
▁গ্রী	-12.1476
▁ಗೈ	-12.1482
্তে	-12.1485
▁బ్లా	-12.1489
▁ట్టం	-12.1492
▁আঁ	-12.1494
▁ల్వ	-12.1495
▁ట్వి	-12.1496
▁స్కృ	-12.1496
▁ಪೌ	-12.1509
▁स्पा	-12.151
▁ర్జీ	-12.1513
▁స్తి	-12.1528
సీ	-12.1529
▁श्त	-12.1529
▁ফ্রি	-12.1529
▁ಆ್ಯ	-12.1546
టీ	-12.1552
▁র্দ	-12.1553
▁स्सों	-12.1558
▁డ్స్	-12.1558
▁गैं	-12.1564
▁ஹு	-12.1568
போ	-12.1574
▁ర్థా	-12.158
▁ఠా	-12.1581
▁ತ್ಯೇ	-12.1581
▁प्ल	-12.1582
▁त्यो	-12.1599
▁ళు	-12.1609
▁জ্জ	-12.1609
▁র্ধা	-12.1614
▁र्दा	-12.1627
▁क्से	-12.1628
▁తాం	-12.163
ರೆ	-12.1633
▁দৌ	-12.1637
▁తః	-12.1638
▁శ్లో	-12.1653
వి	-12.1675
▁ब्जा	-12.1676
▁কূ	-12.1691
▁र्गा	-12.1696
▁घि	-12.1698
▁ದ್ಭ	-12.1723
ई	-12.1723
▁ণ্ডি	-12.1726
ਸੀ	-12.175
ಮಾ	-12.1764
▁ధ్యం	-12.1768
▁र्दी	-12.1784
▁ঞ্চি	-12.1787
▁ర్ధా	-12.1791
లే	-12.1792
ి	-12.1795
▁ರ್ಘ	-12.1799
▁ಕ್ಲಿ	-12.1799
বা	-12.1803
్సీ	-12.1804
▁त्वों	-12.1867
▁নং	-12.1867
▁ಶ್ನಿ	-12.1875
▁మ్స్	-12.1876
డీ	-12.1877
▁త్నా	-12.1884
▁न्ट	-12.1891
সা	-12.1896
▁म्यु	-12.1899
▁ర్హ	-12.1906
▁ಚೋ	-12.1907
▁ड्डा	-12.1916
▁ಮ್ಯ	-12.1929
▁ज्ञों	-12.1939
▁ঘে	-12.1944
▁ಸ್ನಾ	-12.1952
ح	-12.1956
್ಲೋ	-12.1958
వా	-12.1963
▁ర్యు	-12.1983
▁ट्रॉ	-12.199
▁ప్ల	-12.1996
ది	-12.2007
▁ర్టి	-12.2014
▁ಸ್ಸ	-12.2026
▁র্বি	-12.2027
▁ఘం	-12.2027
▁न्दो	-12.2054
ಗಿ	-12.2057
▁ধূ	-12.2071
▁గ్లో	-12.2084
్భు	-12.2087
అ	-12.2088
▁ద్దా	-12.2106
▁ర్ణా	-12.2107
▁ర్క	-12.2109
▁ज़े	-12.2114
▁श्रु	-12.2121
▁ठ्य	-12.2123
▁షె	-12.2135
▁ಚೂ	-12.2138
▁स्स	-12.2138
▁त्मि	-12.2145
▁ग्लो	-12.2153
▁ल्फ	-12.2153
▁స్స	-12.2154
н	-12.2165
▁র্থি	-12.2169
▁ल्लीः	-12.2179
▁మ్య	-12.218
য়ে	-12.2187
▁নিঃ	-12.2189
▁र्बा	-12.219
▁త్సా	-12.2204
▁ಡಂ	-12.2205
▁ర్భా	-12.2209
▁ফ্যা	-12.2214
▁న్నె	-12.2215
▁ಸ್ಲಿ	-12.2223
▁ಪ್ಪಾ	-12.2229
ती	-12.223
▁ह्य	-12.2231
▁ਢੱ	-12.2231
▁ஷெ	-12.2234
▁म्बे	-12.2236
▁न्धी	-12.2236
క	-12.2264
▁ప్పే	-12.2269
▁প্	-12.227
ச்	-12.2281
మా	-12.2284
நி	-12.2286
▁न्धि	-12.2289
▁ਖੈ	-12.2309
यों	-12.2313
▁ਢੋ	-12.2317
▁ಬೃ	-12.2327
வு	-12.2329
▁ढू	-12.2335
ਹੀ	-12.2351
త	-12.2355
್ಲೈ	-12.2359
▁ष्णा	-12.2379
▁క్లా	-12.2382
▁స్టీ	-12.2384
ਰੇ	-12.2385
▁ಬ್ದಾ	-12.2388
ত	-12.2393
▁న్స	-12.2394
▁म्प्र	-12.2395
এ	-12.2404
వ	-12.2406
বি	-12.2413
▁ಬೂ	-12.2427
▁গ্নি	-12.243
▁ণ্ডা	-12.2431
▁ষু	-12.2434
▁వ్యూ	-12.2435
ली	-12.2435
्लॉ	-12.2453
ਹਿ	-12.2472
▁డొ	-12.2476
ஆ	-12.2478
▁స్క్	-12.249
▁ల్వే	-12.2491
আ	-12.2504
चा	-12.2506
▁ದ್ಧಾ	-12.2508
▁ಜ್ಞೆ	-12.2516
ল	-12.252
ಸ	-12.2523
▁श्	-12.2534
সে	-12.2543
ந	-12.255
▁ঞ্জি	-12.2555
▁శ్రే	-12.2556
▁»	-12.2568
▁ब्दु	-12.2575
▁ड्ड	-12.2581
▁ల్లే	-12.2585
ಕಾ	-12.2589
▁फ़े	-12.2592
്	-12.2597
ਪ੍	-12.2604
▁ಕ್ತಾ	-12.2606
▁ब्स	-12.2608
▁{	-12.262
বী	-12.2621
ౌ	-12.2626
▁্ব্ব	-12.2638
▁स्ट्रा	-12.2643
▁ড্র	-12.2646
▁্ম্ম	-12.2646
▁ਡੁ	-12.2648
मि	-12.2651
▁फ्लै	-12.2672
▁லொ	-12.2683
ಅ	-12.2692
▁ఢ	-12.2698
▁డ్రా	-12.2698
▁श्रि	-12.2708
▁ష్యా	-12.2712
ਤੋਂ	-12.2713
▁ब्लू	-12.2714
యూ	-12.2717
▁స్సా	-12.272
పో	-12.272
ਬਾ	-12.274
▁సుం	-12.2753
▁ण्डि	-12.2757
▁ल्लि	-12.2758
▁ত্ন	-12.2761
▁फ्ला	-12.2788
▁ಪ್ಲಿ	-12.2815
▁క్స	-12.2816
▁ਡ਼	-12.2838
▁डं	-12.2841
च	-12.285
्दों	-12.287
ర	-12.2889
▁ट्ठा	-12.2902
था	-12.2903
▁ర్ని	-12.2909
್ರೋ	-12.2916
पा	-12.2918
ਕੇ	-12.2921
▁}	-12.2922
▁ಸ್ಕ್	-12.2929
▁ర్షా	-12.2937
▁ষ্	-12.2951
▁ట్లే	-12.2961
▁মাং	-12.2969
▁వేం	-12.2971
▁ರ್ತಾ	-12.2974
টা	-12.2975
▁ল্ড	-12.2976
▁ತ್ರ್ಯ	-12.2978
▁ঙ্খ	-12.2984
▁ā	-12.2989
▁প্ল	-12.3002
▁লিং	-12.3002
▁स्वि	-12.3003
▁క్రె	-12.3006
▁శ్చి	-12.3016
▁ব্ল	-12.3022
▁క్ష్మ	-12.3023
गा	-12.3026
্যু	-12.3027
্দী	-12.3036
Ş	-12.3047
▁ల్లం	-12.305
కా	-12.3051
▁न्ही	-12.3055
▁म्मि	-12.3056
▁ర్సు	-12.3062
▁র্ণি	-12.3062
▁র্জি	-12.3065
ோ	-12.3072
▁ল্পী	-12.3085
▁ট্যা	-12.3114
ਖ	-12.3115
▁స్తో	-12.3116
▁ञ्च	-12.3124
਼ੇ	-12.3125
भा	-12.3139
▁थ्या	-12.315
ಕೆ	-12.3155
l	-12.317
▁న్నే	-12.3191
▁डै	-12.3197
►	-12.3198
ੜ	-12.3202
▁ప్రె	-12.3202
▁ম্ন	-12.3215
▁డ్లో	-12.3222
َ	-12.3225
ె	-12.323
▁থ্যা	-12.3235
▁ਛਾਂ	-12.3245
▁ర్తీ	-12.326
▁ক্সি	-12.3264
মৃ	-12.3269
ரா	-12.3286
্ষে	-12.3289
▁म्पा	-12.329
▁ಸ್ತ್ರೀ	-12.3292
ై	-12.3296
सं	-12.3301
▁ल्ह	-12.3303
▁ಧೋ	-12.3315
▁ਲ਼ੀ	-12.3333
▁ర్చా	-12.3336
್ತಾ	-12.3344
তা	-12.3345
т	-12.335
▁क्रॉ	-12.3358
▁ਗੂੰ	-12.336
▁ಕ್ಟ್	-12.3362
▁ளீ	-12.3368
▁র্মি	-12.3376
▁टौ	-12.3376
▁र्णा	-12.3377
டை	-12.3381
▁ఠి	-12.3382
▁₹	-12.34
्टू	-12.3406
▁ग्वा	-12.3406
▁ణే	-12.3414
▁గ్లా	-12.3417
▁न्हे	-12.3422
್ಗೆ	-12.3426
▁ಛ	-12.3427
▁స్ట్రే	-12.3431
கொ	-12.3432
▁स्टिं	-12.3434
▁গ্ধ	-12.3445
▁ತೈ	-12.3449
▁ಸ್ಟೇ	-12.3451
▁~	-12.3456
▁ज्वा	-12.346
▁ঙ্গু	-12.3462
▁ర్సి	-12.348
ਹਾਂ	-12.3493
▁స్కో	-12.3496
தை	-12.3498
▁ರ್ಧೆ	-12.35
ளை	-12.3503
প	-12.3505
▁ర్ఘ	-12.352
▁ಜ್ಜ	-12.3533
▁ಘ್ರ	-12.3537
▁ಜ್ಯೋ	-12.3541
ವೇ	-12.3547
▁প্ন	-12.3548
▁न्ह	-12.3553
▁র্দা	-12.357
▁ಳ್	-12.3579
▁ಕ್ಸ	-12.3588
▁त्था	-12.3595
▁ర్పి	-12.3599
▁চূ	-12.3606
నే	-12.3612
▁ಗ್ರಿ	-12.3616
ಬಾ	-12.3621
▁డౌ	-12.3621
▁ਖੌ	-12.3639
▁చ్చె	-12.3653
ವು	-12.3657
▁శ్ని	-12.3657
▁ল্যে	-12.3663
▁ಪ್ರೀಂ	-12.3663
▁ట్రీ	-12.3675
▁फ्फ	-12.3692
্মী	-12.3697
▁ಟ್ವಿ	-12.3709
নী	-12.3726
ç	-12.3735
▁పాం	-12.3735
्र	-12.3763
▁ರ್ಸಿ	-12.377
ਵੀ	-12.3772
▁झो	-12.3784
▁ভ্রা	-12.3786
्पू	-12.3787
ਰਿ	-12.3799
▁প্লা	-12.3804
▁ಟ್ರಾ	-12.3805
▁ష్ణా	-12.3809
్జె	-12.381
▁ర్స	-12.3813
▁ಫ್ಯಾ	-12.3814
▁ష్కా	-12.3834
▁ఖు	-12.384
হ	-12.3858
▁ಹ್ಲಿ	-12.3859
▁ल्सि	-12.3884
▁స్యా	-12.3893
▁ब्त	-12.3895
▁ಷ್ಣು	-12.3902
লা	-12.3916
▁లొ	-12.3918
োঃ	-12.3924
▁ಡ್ಕ	-12.3925
▁क्नो	-12.3927
ਲੀ	-12.3928
▁फ्रे	-12.3929
్టో	-12.3941
▁ब्ला	-12.3951
రై	-12.3956
▁श्वे	-12.3959
▁డ్ర	-12.3976
▁ర్వీ	-12.3998
с	-12.4
▁ष्	-12.4002
▁र्शी	-12.4002
য়া	-12.4025
্না	-12.403
ತಾ	-12.4033
▁ಕ್ನ	-12.4057
ö	-12.406
▁শৃ	-12.4061
வே	-12.4072
▁ಜ್ಜೆ	-12.4079
ನೇ	-12.4085
▁నెం	-12.4085
▁ದ್ಘಾ	-12.4092
▁ಕ್ಟೋ	-12.4096
▁র্ণা	-12.4096
▁भै	-12.4102
▁ಸ್ಪಿ	-12.4108
▁↑	-12.4126
▁ஹூ	-12.4126
▁क्ख	-12.4143
▁ధో	-12.4147
▁ख़ि	-12.4147
▁ప్త	-12.4152
కి	-12.4168
▁ర్జి	-12.4178
▁క్కో	-12.418
್ಯು	-12.4187
ಯಾ	-12.4207
▁फौ	-12.421
▁ಗ್ಸ್	-12.4215
▁ట్ను	-12.4227
▁ಯ್ತು	-12.4249
▁బ్బా	-12.4257
▁॒	-12.4262
▁ష్ప	-12.4271
▁ੀਂ	-12.4292
▁হ্	-12.4298
ஸ்	-12.43
▁मः	-12.431
▁ಲ್ವ	-12.4313
▁తఁ	-12.4334
మ	-12.4343
▁ಧ್ರ	-12.4353
▁ल्लू	-12.4373
దే	-12.4382
▁र्खि	-12.4389
▁র্প	-12.4412
ௌ	-12.4413
▁द्म	-12.4428
ವೀ	-12.4441
್ತೀ	-12.4445
▁स्के	-12.4446
▁ণ্ট	-12.4449
▁र्मो	-12.4463
మీ	-12.4479
▁ಹ್ನ	-12.4489
▁ल्के	-12.4492
▁ক্রো	-12.4506
▁स्ट्रि	-12.4506
▁ಸ್ಟ್ರೇ	-12.4506
्की	-12.4511
▁ध्र	-12.4525
▁క్ల	-12.4562
నీ	-12.4575
▁ক্লি	-12.4581
ਲੇ	-12.4583
▁ಲ್ಡ್	-12.46
▁క్రే	-12.4601
▁பௌ	-12.4606
▁క్సె	-12.4608
ಡೌ	-12.4613
্রা	-12.4625
যা	-12.4633
್ಟೋ	-12.466
ನಾ	-12.4666
▁চ্চি	-12.4677
▁ಪ್ನ	-12.468
▁ঝু	-12.4681
▁শ্নে	-12.4681
▁చౌ	-12.4688
▁र्यो	-12.4691
▁न्ग	-12.47
▁ढी	-12.4712
▁ஷை	-12.4719
दा	-12.4725
ప	-12.4731
▁ट्रें	-12.4736
▁द्ग	-12.4756
▁స్కు	-12.4777
▁ಡ್ರಾ	-12.4787
▁श्रो	-12.4788
யு	-12.479
▁జ్యా	-12.4792
▁స్పి	-12.4793
▁ಮ್ಮು	-12.4799
▁ಗ್ಲೆ	-12.4807
ರಾ	-12.4822
▁ఫ్ట్	-12.4826
ತು	-12.4834
h	-12.4836
ನಿ	-12.4837
्टिं	-12.484
▁ਗਿੰ	-12.4858
ಸೈ	-12.4861
▁ग्या	-12.4871
▁గఁ	-12.4872
▁্য্য	-12.4908
▁ह्न	-12.4918
▁క్ష్మీ	-12.4919
▁న్యు	-12.4932
▁ಚೈ	-12.4932
▁ಕ್ಸೆ	-12.4934
చే	-12.4941
▁र्गे	-12.4947
▁स्ड	-12.4947
್ಷಿ	-12.4951
▁షీ	-12.4965
▁ಹ್ವಾ	-12.4967
னை	-12.4974
▁तीं	-12.4979
యా	-12.4983
▁ರ್ಚು	-12.4984
রি	-12.4991
▁ट्टि	-12.5005
्ट्रॉ	-12.5006
▁டா்	-12.501
▁శ్యా	-12.5018
▁ক্তে	-12.502
▁ल्व	-12.503
▁ঝুঁ	-12.5041
हु	-12.505
மி	-12.5055
ਪਾ	-12.5092
லி	-12.5106
య	-12.5119
▁র্ভি	-12.5119
▁ಜ್ವ	-12.5122
▁ة	-12.5138
యం	-12.5141
্মু	-12.5146
್ದಾ	-12.5149
ğ	-12.5152
▁హ్యా	-12.5156
▁న్ష	-12.5157
ದಿ	-12.5171
▁థు	-12.5185
▁ರ್ಗಿ	-12.5188
ಳ	-12.519
దు	-12.519
மை	-12.5197
▁ग्रो	-12.5206
▁न्वे	-12.5208
▁জ্বা	-12.5231
्भु	-12.5234
▁சௌ	-12.5236
é	-12.5236
బా	-12.5241
▁ی	-12.5256
▁ल्ता	-12.5271
సి	-12.5275
ਜ਼	-12.5284
Ç	-12.5287
▁च्छि	-12.5289
▁ష్ఠ	-12.529
▁గ్రూ	-12.5305
▁ਭੌ	-12.5316
▁స్యం	-12.5325
லா	-12.5335
▁ج	-12.534
▁ರ್ಣಿ	-12.5346
▁क्व	-12.536
ಮೂ	-12.5361
ছে	-12.5368
▁ల్య	-12.5372
▁ಕ್ಷ್ಯ	-12.5374
▁ى	-12.5376
▁న్నై	-12.5377
▁హౌ	-12.5389
5	-12.5399
▁ख़ु	-12.5403
▁ళ్లే	-12.5413
▁ತ್ಕಾ	-12.5421
▁ర్రె	-12.5437
கை	-12.5452
▁á	-12.546
▁ಡೊ	-12.5469
▁ਥੁ	-12.5479
▁ళ్ళీ	-12.5484
▁ల్క	-12.5485
▁स्टै	-12.5492
▁ಬ್ಲಾ	-12.5493
▁ಜ್ಜಿ	-12.5505
▁నౌ	-12.551
பெ	-12.5514
▁प्	-12.5519
▁క్కె	-12.5525
್ವೇ	-12.5527
▁त्यं	-12.5553
னா	-12.5554
্লি	-12.5554
▁ব্	-12.5561
▁ಸ್ಸಾ	-12.5564
▁ষ্ঠী	-12.5571
▁खै	-12.5588
▁ষী	-12.5591
লি	-12.5592
▁ট্র	-12.5595
▁ष्यों	-12.5596
р	-12.5597
▁र्ड्स	-12.56
▁प्पा	-12.56
▁న్వ	-12.5603
▁ಮ್ಸ್	-12.5609
▁జ్జ	-12.5609
▁ర్సీ	-12.5628
▁र्डि	-12.5637
ಧಿ	-12.5647
நா	-12.5652
▁ట్రి	-12.566
ತ್ರೀ	-12.5667
▁र्त्त	-12.5669
రం	-12.5673
▁र्में	-12.5674
ಬ	-12.5677
যাঁ	-12.5679
रो	-12.5682
্গে	-12.5686
▁य्य	-12.5689
▁ల్పు	-12.5689
▁ण्डा	-12.5694
▁ಫ್ರಿ	-12.5703
পা	-12.5708
▁ट्रं	-12.5714
రీ	-12.572
্ষি	-12.5723
▁ఘు	-12.5735
▁র্ভা	-12.5739
ण	-12.5748
3	-12.5751
▁క్ష్మి	-12.5757
ಯು	-12.5759
▁न्वि	-12.5773
ಲ	-12.5781
▁ঊ	-12.5792
▁শ্রা	-12.5805
▁స్నా	-12.5807
ನೆ	-12.5811
▁মৎ	-12.5832
▁ड्रि	-12.5837
▁लीं	-12.5846
ಸು	-12.5853
ము	-12.5855
▁ल्पि	-12.5859
▁ఋ	-12.5863
▁గ్రే	-12.5866
▁ನ್ಮಾ	-12.5867
▁త్రీ	-12.5872
▁ম্রা	-12.5875
তি	-12.5881
▁ಕ್ವಾ	-12.5886
▁త్క	-12.5888
্ল্যা	-12.5896
▁ನ್ಗೆ	-12.5898
▁र्चे	-12.5902
్పై	-12.5928
▁क्ट्स	-12.5929
▁क्ले	-12.5937
ਇੱ	-12.5939
▁ದಿಃ	-12.5941
▁ঢে	-12.5948
▁ন্ব	-12.595
▁ద్ధు	-12.5967
▁ड्या	-12.5971
▁ట్యా	-12.5975
▁ञ्ज	-12.5987
▁ಧೂ	-12.5995
▁బ్ల	-12.5996
ਜਿ	-12.5999
▁శృ	-12.5999
▁ర్బ	-12.6002
إ	-12.6026
▁श्लो	-12.6035
▁क्वि	-12.6038
▁নৃ	-12.604
u	-12.6041
मु	-12.6047
್ದು	-12.6049
▁षु	-12.605
▁ಧೆ	-12.605
▁ষ্টে	-12.6051
▁ব্ধ	-12.6053
▁రౌ	-12.6058
▁ಮ್ರಾ	-12.6061
ளு	-12.6067
▁ক্ষ্যে	-12.608
▁ા	-12.6081
ਰੋ	-12.6082
▁ಲ್ಗೊ	-12.6084
▁ह्वा	-12.6088
▁स्र	-12.6095
▁త్కా	-12.611
ਨੀ	-12.6113
▁ర్డ	-12.6113
मी	-12.6114
▁ल्का	-12.6115
నె	-12.6115
4	-12.6118
▁ष्मा	-12.6123
▁न्ड	-12.6127
▁च्छु	-12.6131
▁ঔ	-12.6136
▁ड्डे	-12.6144
थ	-12.6145
▁ರ್ಲ	-12.6151
▁ढो	-12.6162
சா	-12.6173
▁न्ने	-12.6174
▁হ্ন	-12.6178
లీ	-12.6179
▁ज्जा	-12.6187
▁స్తాం	-12.6199
▁ర్ట	-12.6199
▁ల్గా	-12.6211
▁ರ್ದ	-12.6213
▁గ్న	-12.6223
d	-12.6227
యో	-12.6236
▁ద్వే	-12.624
▁ñ	-12.6247
▁ఘో	-12.6247
▁ళ్	-12.6249
ಬು	-12.6257
▁प्ली	-12.6258
▁गॉ	-12.6266
ಪ	-12.628
▁ल्डि	-12.6286
▁झि	-12.6294
▁र्द्ध	-12.6298
▁न्मा	-12.6298
▁ಸ್ಗ	-12.6302
্যাঁ	-12.632
ਣਾ	-12.632
ੳ	-12.6323
▁ర్నా	-12.6332
▁ষ্প	-12.6342
పొ	-12.6352
▁शृ	-12.6357
▁తై	-12.6359
ా	-12.6363
▁ब्जी	-12.6373
▁ಪ್ಲೇ	-12.6381
▁ల్కు	-12.6386
▁ঙ্কি	-12.6391
्नी	-12.6392
▁క్కొ	-12.6396
▁ट्टे	-12.6397
पू	-12.6407
▁నః	-12.6424
▁र्यु	-12.6426
▁స్టె	-12.6431
▁లుః	-12.6437
▁স্মি	-12.644
্লা	-12.6453
▁॑	-12.6453
▁ন্ত্রা	-12.6455
▁ஷீ	-12.6457
▁त्रो	-12.6461
డు	-12.6462
▁క్రో	-12.6471
▁ಕ್ಕೊ	-12.6472
▁హ్న	-12.6475
¤	-12.6494
▁स्पॉ	-12.6506
▁ಗ್ಲಿ	-12.6512
▁ಛಾ	-12.6521
▁ಲ್ವೆ	-12.6527
▁জ্যো	-12.6539
యుఁ	-12.6548
ਡ	-12.6549
▁স্ট্রি	-12.6562
ਏ	-12.6574
▁ళ్తు	-12.6574
▁ट्ठी	-12.6577
▁ಖ್	-12.6584
▁ণু	-12.6589
▁ఫ్రె	-12.6591
్రం	-12.6593
▁থু	-12.6594
▁ट्व	-12.66
▁স্মা	-12.6612
▁স্পে	-12.6612
▁ਜ਼ੈ	-12.6614
▁দ্বে	-12.6622
▁ధై	-12.6624
েঁ	-12.6629
▁ধো	-12.663
▁బ్లి	-12.6634
ও	-12.6641
्रु	-12.6645
▁ఖీ	-12.6651
▁র্নি	-12.666
▁ज्व	-12.6662
▁म्बी	-12.6662
टी	-12.6692
▁గ్ల	-12.6725
▁ద్భ	-12.6726
ಜಾ	-12.6728
▁ಟ್ಯೂ	-12.6732
▁ధే	-12.6735
▁ద్వ	-12.6736
▁క్వా	-12.6737
ـ	-12.6746
▁ন্দ্রি	-12.6758
▁ঞ্চে	-12.6763
▁ರ್ಡ	-12.6778
▁ట్టె	-12.6778
▁ಣೀ	-12.6782
౦	-12.6785
▁ర్ద	-12.679
పు	-12.6793
▁ಪ್ಟೆ	-12.6805
చి	-12.6819
▁স্যু	-12.682
▁र्दू	-12.6834
▁ర్ధి	-12.6836
্যো	-12.6848
लो	-12.6855
▁ಶ್ರಾ	-12.6858
லு	-12.6859
▁ర్కి	-12.6872
ಯೂ	-12.6873
▁ಜ್ಯಾ	-12.6874
▁ਣੈ	-12.6882
್ಲೇ	-12.6893
್ರೈ	-12.69
▁स्सी	-12.6905
▁ग्जा	-12.6914
னி	-12.6919
றை	-12.6929
▁ముఁ	-12.6935
ਸਿ	-12.6945
డే	-12.6957
▁स्ट्रो	-12.6967
▁ತ್ವಾ	-12.6969
▁র্গা	-12.6971
▁ण्डे	-12.6972
▁स्प्ले	-12.6972
▁నుఁ	-12.6978
্তৃ	-12.6979
▁ন্মে	-12.698
▁హ్య	-12.6991
▁ಕ್ಗ	-12.6992
в	-12.7004
্ডা	-12.7009
வை	-12.7021
▁హ్వా	-12.7026
▁ज़ों	-12.7054
ಳಿ	-12.7067
▁স্কো	-12.7084
౧	-12.7085
ಹಾ	-12.709
சு	-12.7092
▁ळ	-12.7092
्य	-12.71
▁স্কঃ	-12.7105
्मू	-12.7114
▁Ü	-12.7121
ప్ర	-12.7123
▁म्भा	-12.7126
▁ಕ್ಷ್ಮಿ	-12.7134
▁థం	-12.7135
▁क्टे	-12.7142
▁त्क	-12.7144
ವೆ	-12.7147
▁వొ	-12.7148
पु	-12.7149
▁ಡ್ಗ	-12.7152
▁ট্রি	-12.7154
▁ಘು	-12.7161
ã	-12.7167
▁ದ್ದೂ	-12.718
਼	-12.718
రె	-12.7186
ਭਾ	-12.7201
▁లుం	-12.7211
್ಬು	-12.7212
్రే	-12.724
▁ص	-12.7243
ੌ	-12.7247
▁ర్వి	-12.7252
▁ਛੰ	-12.7267
▁ন্ধি	-12.7269
▁রঃ	-12.7271
▁द्भा	-12.7281
భం	-12.7289
ண	-12.7307
ख	-12.7314
తు	-12.7324
▁ट्	-12.7326
रू	-12.7338
c	-12.7339
ਚਾ	-12.7345
▁র্সি	-12.7347
ਵੇ	-12.7357
▁ర్వు	-12.7366
▁ల్చ	-12.7372
▁ष्पा	-12.739
▁टः	-12.7399
▁ಡ್ಡೆ	-12.74
▁क्लो	-12.74
▁न्फ्रे	-12.741
▁వాం	-12.7429
शा	-12.7464
▁र्क्स	-12.7471
▁ಳುಃ	-12.7477
▁ਗ਼ਾ	-12.748
్కు	-12.7483
▁ర్చే	-12.7483
▁ರ್ಜೆ	-12.7485
▁য্যে	-12.7486
▁మ్రా	-12.75
m	-12.7509
▁ರ್ಚ	-12.752
▁ರ್ಜ್	-12.7526
▁ফ্ল	-12.7536
್ಮೀ	-12.7538
▁फ्यू	-12.7542
డి	-12.7543
▁ফ্রা	-12.7551
▁র্ত্ত	-12.7552
▁क़्त	-12.7566
▁ಫ್ಟ್	-12.757
தே	-12.7583
▁ज्म	-12.7585
▁క్లో	-12.759
▁শৈ	-12.7594
▁ట్రె	-12.7603
▁ল্ট	-12.7607
▁ధృ	-12.7626
್ದೆ	-12.7632
▁ਘੂ	-12.7634
হা	-12.7635
▁র্ধ্ব	-12.7646
िः	-12.7647
▁ర్వం	-12.765
▁ಸ್ಮಿ	-12.7659
▁দ্রে	-12.7672
▁న్తో	-12.7674
▁ল্	-12.7678
ಆ	-12.7681
▁ದೌ	-12.7698
▁ನ್ನೈ	-12.7699
অ	-12.7704
यो	-12.7704
▁ಷ್ಪ	-12.7706
▁ಪ್ಟ	-12.7724
▁ਫੱ	-12.7741
▁ద్రో	-12.7744
▁ਟੰ	-12.7748
▁दूं	-12.7756
ਗਿ	-12.7762
▁ಳೊ	-12.7763
▁ಕ್ಲ	-12.7766
▁©	-12.7771
▁●	-12.7771
పా	-12.7772
ரை	-12.7775
್ಡೌ	-12.7783
▁ల్ను	-12.78
▁ਥੀਂ	-12.7805
▁ক্রী	-12.7808
▁घृ	-12.7811
▁षो	-12.7814
▁र्नी	-12.7826
▁భౌ	-12.783
▁ণ্যে	-12.7835
▁জ্জ্ব	-12.7844
▁స్తం	-12.7847
ذ	-12.7866
ش	-12.7866
లై	-12.787
▁চৈ	-12.789
ুঁ	-12.7892
▁నృ	-12.7906
▁म्पि	-12.7913
▁ಕ್ಷ್ಮೀ	-12.7932
▁య్యె	-12.7961
మి	-12.7967
కో	-12.7974
্লো	-12.7974
ద	-12.7991
▁ద్దాం	-12.7991
ಬಿ	-12.7995
▁ట్నం	-12.7997
▁ত্বা	-12.7999
▁ಸ್ಗೆ	-12.8003
ర్రా	-12.801
సు	-12.8017
▁క్టి	-12.802
▁ਰੀਂ	-12.8032
ਰੂ	-12.8035
▁ड्री	-12.804
▁ಹ್ಯ	-12.805
டா	-12.8052
▁ग्लि	-12.8075
9	-12.808
▁সৎ	-12.8085
▁ర్ది	-12.8098
▁र्पो	-12.8108
ਗਾ	-12.8111
▁ण्ट	-12.8112
▁ग्ने	-12.8114
▁ష్యు	-12.8115
नों	-12.8142
▁స్క్రీ	-12.8145
▁ষ্ণু	-12.8148
ਦਿ	-12.8161
पी	-12.8161
▁ন্দ্	-12.8167
ਨਿ	-12.8168
సం	-12.8171
्ला	-12.8178
▁स्त्रो	-12.8182
▁డ్యా	-12.8183
▁...	-12.8185
ਕੋ	-12.8186
▁র্টা	-12.8187
ಇ	-12.8201
ਸੰ	-12.8202
▁ల్చు	-12.8206
್ತಿ	-12.8218
▁ಮ್ಮೇ	-12.8223
దా	-12.8225
▁స్పా	-12.8233
ਵੱ	-12.8233
▁ग्	-12.8239
মি	-12.824
ಮಿ	-12.824
▁ज्ज्व	-12.824
্বো	-12.8241
वे	-12.8242
▁णः	-12.8243
л	-12.8246
ਹੀਂ	-12.8247
▁र्स्ट	-12.8248
जी	-12.8262
?	-12.8267
▁ప్స్	-12.8271
▁फ़ै	-12.8284
▁यूं	-12.8286
▁ष्म	-12.8289
ஒ	-12.8295
▁ಲಿಃ	-12.8299
ड	-12.8306
প্র	-12.8307
ಗು	-12.8313
▁र्चि	-12.8314
▁স্র	-12.8315
▁র্ব্বে	-12.8321
▁ಠ್ಯ	-12.8329
▁ਨੌਂ	-12.834
చా	-12.8345
▁ప్లో	-12.8346
्सी	-12.8347
టి	-12.8348
▁శ్రు	-12.8353
▁న్సు	-12.8359
▁ద్దం	-12.8371
▁ధూ	-12.8374
ணி	-12.8384
▁డేం	-12.8397
▁బ్దా	-12.8397
▁স্টো	-12.8402
▁स्फ	-12.8403
▁ణాం	-12.8412
లి	-12.8415
▁ದೆಃ	-12.842
▁खेंः	-12.8421
▁ಷ್ಟೋ	-12.8427
ಡೆ	-12.8431
▁भ्रा	-12.8437
▁ಗ್ಲಾ	-12.8441
పూ	-12.8447
▁लः	-12.846
▁জ্যা	-12.8461
▁ర్తె	-12.8467
हि	-12.8475
धि	-12.8481
▁ಬ್ಬು	-12.8481
▁धं	-12.8491
ये	-12.8494
জ	-12.8502
త్రీ	-12.8505
▁ಕ್ರೆ	-12.8511
▁क़ी	-12.8515
▁উঁ	-12.852
▁క్ష్య	-12.8525
రో	-12.8532
▁క్ష్యా	-12.8534
▁మ్మం	-12.8535
తీ	-12.8536
▁म्बि	-12.8543
▁ಲೊ	-12.8545
▁व्व	-12.8555
▁స్మి	-12.8575
బు	-12.8581
हे	-12.8588
▁प्न	-12.8591
్వే	-12.86
्वे	-12.86
ਟੀ	-12.8619
▁त्सु	-12.862
▁न्ती	-12.8627
మో	-12.863
▁র্শে	-12.8635
▁న్స్టా	-12.8642
▁ಡ್ಡು	-12.8657
कु	-12.8673
▁स्कु	-12.8697
▁ಲ್ಸಿ	-12.87
్డే	-12.8711
▁బొం	-12.8711
خ	-12.8713
▁দ্মা	-12.8714
ಪ್ರ	-12.8716
▁क्ट्री	-12.8724
ೊ	-12.8738
दी	-12.8761
▁ಭೌ	-12.8768
▁ਫੈਂ	-12.8774
స	-12.8778
▁द्भ	-12.8788
్లై	-12.8793
▁జ్వ	-12.8797
▁ಶ್ರು	-12.8806
▁ಶೃ	-12.881
▁ಸ್ಲಾ	-12.8813
▁ष्टी	-12.8831
▁ಗ್ತಿ	-12.884
▁గ్రి	-12.8842
▁ద్మ	-12.8845
রু	-12.8847
▁ఫ్రి	-12.8848
▁ರ್ತು	-12.8861
▁न्यु	-12.8864
▁ಕ್ಲಾ	-12.8865
▁धै	-12.8865
ਤਾਂ	-12.8893
्पी	-12.8896
▁స్టై	-12.8898
▁త్తే	-12.8901
शि	-12.8911
్రె	-12.8921
▁ਥੰ	-12.8941
▁खौ	-12.8943
▁कः	-12.8972
▁ಲ್ವಾ	-12.8977
▁ರ್ಣಾ	-12.8978
▁ब्ज	-12.8978
▁স্ফো	-12.8992
मे	-12.8995
▁ಝ	-12.8999
▁न्त्री	-12.9004
्यु	-12.9013
ਨ੍	-12.9034
▁ಡ್ರ	-12.9034
▁ल्ब	-12.9045
फी	-12.9054
தொ	-12.9061
▁र्से	-12.9066
ಸಂ	-12.9069
ব্বা	-12.9069
ਧ	-12.9071
▁श्यो	-12.9075
सि	-12.9081
▁ਡੇਂ	-12.9083
▁క్నా	-12.9088
▁ర్వ్యూ	-12.91
«	-12.9103
▁ಯ್ಡ್	-12.9109
মে	-12.9117
▁ন্মা	-12.9133
▁ಶ್ಯಾ	-12.9142
▁শ্চা	-12.9142
▁थॉ	-12.9152
▁थै	-12.9152
ਜਾਂ	-12.9179
▁ಸ್ಕೋ	-12.9183
▁ರ್ವಿ	-12.9213
▁फ्लि	-12.9213
▁ವ್ವ	-12.9222
तो	-12.9239
్యా	-12.9244
▁ज्जि	-12.9246
▁ಗ್ಗು	-12.9253
▁ప్ష	-12.9253
ತೆ	-12.9257
கூ	-12.9261
▁ಣ್ಣಾ	-12.9261
▁ಯ್ದ	-12.9263
▁খৃ	-12.9263
ਲਿ	-12.9273
ழ	-12.9278
ಮೀ	-12.929
తి	-12.93
ു	-12.9304
▁ल्पा	-12.9307
▁ल्टा	-12.9312
▁ಚ್ಚೆ	-12.9321
ರೋ	-12.9331
ਜੀ	-12.9336
ಲು	-12.934
▁র্ষা	-12.9341
থা	-12.9344
ಬೇ	-12.9346
▁प्य	-12.935
▁न्नि	-12.9364
▁श्मा	-12.9375
▁ಡ್ಯಾ	-12.9375
▁ಣಂ	-12.9378
▁श्क	-12.9388
▁ಷ್ಟ್ಯ	-12.9393
▁ਗ਼ੁ	-12.9397
!	-12.9404
▁র্ভু	-12.9409
▁वः	-12.9414
ಳು	-12.9419
▁न्तो	-12.9435
▁र्लि	-12.9435
धा	-12.9436
▁ल्मो	-12.9461
▁ತ್ರು	-12.9466
्वि	-12.9477
▁ट्ठ	-12.9485
▁ङ्क	-12.9507
ਘ	-12.9507
టో	-12.9508
্রি	-12.9509
▁र्दो	-12.9519
▁ब्रो	-12.9532
ന	-12.9535
कॉ	-12.9536
▁च्य	-12.9543
ਲੋ	-12.9543
লো	-12.9551
್ಲೀ	-12.9551
▁ब्रॉ	-12.9552
▁ढि	-12.9553
▁स्वे	-12.9557
▁ರ್ಟ್ಫ	-12.956
ʼ	-12.9561
ಡು	-12.9569
ಗಾ	-12.9569
▁జొ	-12.957
టూ	-12.957
▁ದ್ವ	-12.9607
▁ঝো	-12.9609
्स	-12.9612
▁क्टी	-12.962
▁र्जे	-12.9642
▁स्तो	-12.9655
▁ಫ್ರಾ	-12.9659
▁ర్ట్స్	-12.9661
▁स्रा	-12.9664
▁সাঁ	-12.967
లా	-12.9673
▁ರ್ಶೆ	-12.9683
▁ರ್ಟ	-12.9691
सु	-12.9697
▁फ्रि	-12.9698
যে	-12.9706
▁ఫ్లా	-12.9719
▁ब्	-12.972
▁र्ख	-12.9723
▁त्रे	-12.9726
ਭ	-12.973
▁কৈ	-12.9737
▁श्तों	-12.9737
▁ర్జ్	-12.9739
▁ప్లి	-12.9747
ष	-12.9747
▁ರ್ವೇ	-12.9769
ਸੇ	-12.9773
ਮਿ	-12.9777
▁ಲ್ಮಾ	-12.9789
▁ওঁ	-12.9794
▁ಫ್ರೆ	-12.9805
ਜੋ	-12.9809
றா	-12.9816
▁ద్దె	-12.9816
வெ	-12.9817
ਦਿੱ	-12.9819
▁ব্দী	-12.9822
▁స్వి	-12.9822
▁మ్లో	-12.9827
ठौ	-12.9833
▁ಡ್ಸ್	-12.9837
▁ট্য	-12.9839
పం	-12.9861
্র্যা	-12.9873
ਹੁ	-12.9876
▁रेंः	-12.9878
ਸ਼ਾ	-12.9888
▁स्ट्रॉ	-12.9897
மே	-12.99
్తో	-12.9911
▁याः	-12.9911
్ః	-12.992
▁र्फ़	-12.9925
್ಮಿ	-12.9929
क्रि	-12.9932
6	-12.9948
▁స్ఫ	-12.9962
న్నా	-12.998
्वॉ	-12.9981
▁ರ್ಪು	-12.9984
ਰਾਂ	-12.9986
▁ঙ্ঘ	-12.9988
▁యః	-12.9989
ਨਾਂ	-12.9995
▁ణ్ణి	-12.9998
्ही	-13.0004
▁न्धु	-13.0005
▁म्बो	-13.0007
್ಧಿ	-13.0017
টি	-13.0023
▁ಪ್ರೌ	-13.0037
м	-13.004
▁स्तां	-13.0044
▁ದ್ಮ	-13.0051
▁ಮ್ನ	-13.0065
▁త్మా	-13.0069
▁ರ್ನೆ	-13.0076
▁వూ	-13.0078
▁ರ್ತೆ	-13.0082
ಕೂ	-13.0093
к	-13.0095
▁ರ್ಭಿ	-13.0097
8	-13.0101
ਮੀ	-13.0101
▁హ్లీ	-13.0103
▁ಲ್ಲೋ	-13.0104
्यां	-13.0105
▁म्या	-13.0116
ఆ	-13.012
▁ణ్యం	-13.012
ಲಾ	-13.012
▁స్ను	-13.0123
▁फ्ले	-13.0126
▁च्चि	-13.013
ਸਿੰ	-13.014
▁న్మా	-13.0154
▁ழீ	-13.017
<	-13.0177
ಲೂ	-13.0178
▁ਹਿਂ	-13.0197
▁सः	-13.0201
▁స్త్రం	-13.0206
ಹ	-13.0209
▁క్షీ	-13.0214
▁দ্রি	-13.0215
▁మ్మే	-13.0215
మం	-13.022
▁ড্ড	-13.0224
▁ట్రం	-13.0232
సా	-13.0234
▁হ্নি	-13.0251
▁ర్చ్	-13.0253
್ಜು	-13.0264
▁ब्बे	-13.0267
ளா	-13.0276
▁ঞ্জু	-13.0297
▁র্শ্ব	-13.03
್ಲೂ	-13.0315
त्र	-13.0317
▁গ্	-13.0318
▁ঙ্গো	-13.0325
▁லுா	-13.0326
7	-13.0327
▁ছুঁ	-13.0333
▁స్త్రి	-13.034
▁ಪ್ಗ	-13.0365
▁গৎ	-13.0368
ਣੇ	-13.0377
ಟಿ	-13.038
▁ताः	-13.0396
▁ন্ধ্য	-13.0397
ਤੁ	-13.0398
▁श्नो	-13.0399
्चा	-13.0401
னு	-13.0424
▁্ত্ত	-13.0447
खा	-13.0453
▁ರೌ	-13.0454
౯	-13.0458
▁ళ్ళా	-13.0495
▁धौ	-13.0497
▁త్తూ	-13.0504
▁ತ್ಕ	-13.0506
ಕೇ	-13.0526
ਹੇ	-13.053
কু	-13.0559
▁ర్థ్యం	-13.0561
ಜಿ	-13.0564
्थों	-13.0577
p	-13.0589
্চা	-13.0589
्ट्री	-13.0592
▁ण्ण	-13.0593
యు	-13.0598
▁త్కు	-13.0606
▁త్త్వ	-13.0618
▁घ्न	-13.0618
▁र्थो	-13.0621
ध	-13.0624
▁స్ట్రా	-13.065
▁ಸ್ಟೆ	-13.0651
▁ಡ್ರೆ	-13.0652
▁హ్మా	-13.0657
బీ	-13.0662
▁ਖੂੰ	-13.0671
▁మః	-13.0684
॰	-13.0688
▁ట్రే	-13.0689
▁ಮ್ಲ	-13.0689
▁ক্ষ্মী	-13.0694
▁ॐ	-13.0695
▁ন্তী	-13.0696
▁চ্য	-13.0697
्ता	-13.0705
ತ್ತು	-13.0716
▁ಲ್ಡ	-13.0717
జి	-13.0724
▁यीं	-13.0731
▁ఫ్రా	-13.0744
ರೇ	-13.0748
దీ	-13.0748
g	-13.0759
▁ప్య	-13.0776
ಡ	-13.0778
▁ష్ణో	-13.0778
யை	-13.078
ರೀ	-13.0784
▁ర్గె	-13.0791
▁র্ল	-13.0797
ಲೆ	-13.0817
▁ದ್ಯೆ	-13.0827
▁ग़ा	-13.0836
▁ನ್ಸ್ಟಾ	-13.0842
▁स्मे	-13.0848
y	-13.085
ाॅ	-13.0862
డా	-13.0869
కీ	-13.0875
্ধে	-13.0884
ਡੀ	-13.0885
ä	-13.0894
▁ರ್ಮ್	-13.0912
ਣੀ	-13.092
্লী	-13.0921
▁ह्यू	-13.0928
್ಕೂ	-13.0931
▁ಪ್ಪೆ	-13.0935
▁चॉ	-13.0936
▁দ্ম	-13.0954
দ	-13.0956
▁ষো	-13.0957
ಲ್ಲ	-13.0958
▁స్థు	-13.0967
्मा	-13.0967
▁ప్ట్	-13.0973
▁న్సె	-13.0975
জা	-13.0979
▁స్త్రా	-13.1011
భు	-13.1017
▁ফ্রে	-13.102
ಗೂ	-13.102
▁గ్యు	-13.1021
▁गीं	-13.1033
రూ	-13.1042
▁क्वे	-13.1045
▁కిఁ	-13.1054
্ভু	-13.1055
▁स्कै	-13.106
फि	-13.1066
▁ग्वे	-13.1074
▁क्षो	-13.1074
▁ਲ਼ਾ	-13.1077
ड़	-13.109
▁ব্যু	-13.1093
▁ఢీ	-13.1097
▁ಟ್ವ	-13.1111
▁न्धा	-13.1116
▁ब्दा	-13.1134
▁ढ़ेंः	-13.1134
প্রী	-13.114
▁ર	-13.114
▁ত্ত্বা	-13.1145
▁భై	-13.1146
ë	-13.1165
ైం	-13.1167
ਧਾ	-13.117
ਗੁ	-13.1174
▁ర్ణం	-13.1177
▁प्टि	-13.118
▁ख्	-13.1181
गी	-13.1183
▁ర్టై	-13.1198
జీ	-13.1204
తా	-13.1208
ಲೇ	-13.1213
▁ర్డి	-13.1213
▁మ్నా	-13.1229
ਹੁੰ	-13.1233
भ	-13.1235
ਮੁ	-13.1239
्रों	-13.1245
▁ಮಃ	-13.1256
▁श्ती	-13.1286
▁র্নে	-13.1289
रु	-13.1294
▁प्टो	-13.1317
▁ल्हे	-13.1318
▁ે	-13.1324
▁स्ल	-13.1326
नु	-13.1346
▁গ্ম	-13.1351
▁ट्य	-13.1363
▁छः	-13.1365
▁వ్వి	-13.1369
ర్	-13.1371
▁ర్కో	-13.1393
▁ਪੇ੍	-13.1406
▁ಳ್ಯ	-13.1407
▁ਹੂੰ	-13.1408
్సై	-13.1408
▁न्मु	-13.1423
▁फ़्त	-13.1425
▁झों	-13.1427
:	-13.143
▁ম্বি	-13.1434
्बा	-13.1444
▁బ్ధి	-13.1445
▁ন্থা	-13.1446
▁ব্বি	-13.1459
గ	-13.1466
▁ಲ್ಮ	-13.1471
ث	-13.1475
▁ರ್ಖಾ	-13.1477
▁ష్టు	-13.1479
जो	-13.1479
ತ್ತ	-13.1489
ക	-13.1507
▁ಚ್ಯ	-13.1527
▁न्सि	-13.1534
ழு	-13.1536
▁క్యు	-13.1537
▁ন্দ্ব	-13.1542
▁ಬ್ಲಿ	-13.1543
▁ಳೋ	-13.1546
▁ठु	-13.1547
▁स्त्रा	-13.1551
▁न्ते	-13.1556
గు	-13.1563
،	-13.157
ుః	-13.159
▁క్తా	-13.1596
▁णीः	-13.1599
▁న్సా	-13.1605
▁×	-13.1606
बी	-13.1608
উ	-13.161
▁ల్పా	-13.1622
रों	-13.1626
â	-13.1634
્	-13.1634
वी	-13.1643
▁स्बे	-13.1652
▁ষ্ট্য	-13.1655
▁ल्टे	-13.1674
▁ಟ್ರೆ	-13.1676
జె	-13.168
▁न्द्रा	-13.1684
्वै	-13.1689
▁ल्च	-13.1695
▁ప్పె	-13.171
డౌ	-13.1718
▁ङ	-13.172
▁மாா்	-13.1721
ി	-13.173
▁থ্যে	-13.1732
াঃ	-13.1749
▁দ্ভ	-13.1762
গ	-13.1763
▁ಲ್ಟಿ	-13.1763
ಕು	-13.1773
▁ರ್ನ್	-13.1778
▁ন্বি	-13.1782
ভা	-13.1783
▁ರ್ಲಿ	-13.179
▁న్వె	-13.1818
▁ಲ್ಟ್	-13.1827
ಿಃ	-13.1839
फ	-13.1841
ਕੁ	-13.1845
▁ಖೇ	-13.1845
্থা	-13.1858
д	-13.186
▁न्यो	-13.1862
▁क्खा	-13.1877
▁ಷ್ಣಾ	-13.1892
தெ	-13.1894
ಭಾ	-13.1905
▁ర్న్	-13.1921
▁ಣೋ	-13.1921
ట	-13.1922
▁এ্যা	-13.1925
থে	-13.1942
న్న	-13.1942
▁ष्प्र	-13.1944
▁र्त्ता	-13.1949
கோ	-13.1967
ழ்	-13.1977
▁ಪ್ಯ	-13.1983
▁ఠం	-13.1992
ਫ	-13.1996
▁శ్చా	-13.2001
ಸಾ	-13.2006
▁প্য	-13.201
▁న్ఫ	-13.202
শ	-13.2027
ਜੇ	-13.2028
్లే	-13.2033
ಕೋ	-13.2033
্রী	-13.2041
ਸੁ	-13.2043
▁జాం	-13.2044
ನೀ	-13.2046
्नि	-13.2048
చు	-13.2049
▁ಜ್ಕು	-13.2053
ಲೋ	-13.2054
▁ಡ್ತೀ	-13.2061
▁ব্ব	-13.2064
ಎಂ	-13.2067
కే	-13.2079
गु	-13.2085
ન	-13.2092
▁श्मि	-13.2118
లిం	-13.212
▁तिः	-13.214
▁ಪ್ಲ	-13.215
యి	-13.2156
▁స్ల	-13.2159
गे	-13.2171
▁प्वा	-13.2184
चु	-13.2186
▁ಧೇ	-13.2188
यू	-13.2191
▁ক্ষ্ম	-13.2198
್ವಿ	-13.22
▁లేం	-13.2205
▁ತ್ತೋ	-13.2207
▁नाः	-13.2211
▁ਖ਼ਾਂ	-13.2226
▁డ్రో	-13.2226
▁ਫ਼ੁ	-13.2229
▁ల్డ	-13.2236
्तू	-13.2241
▁ड्ढा	-13.2256
ز	-13.2261
ِ	-13.2261
▁లౌ	-13.2266
▁స్లా	-13.228
মু	-13.228
▁ज़्य	-13.2287
▁డ్యు	-13.229
▁খ্রি	-13.2292
▁స్ర	-13.2294
▁డిః	-13.2297
डि	-13.2298
ರೂ	-13.2305
्रो	-13.2313
▁ಲ್ಬ	-13.2313
▁त्स्य	-13.2318
பொ	-13.2323
ಸೂ	-13.2328
▁क्टो	-13.2341
ಲೈ	-13.2347
▁క్షో	-13.2355
▁రః	-13.2364
▁শ্ল	-13.2365
▁र्ज़	-13.2375
▁भृ	-13.2376
▁ಸ್ಟೀ	-13.239
ಮೆ	-13.2394
್ಬಾ	-13.2395
क्ष	-13.2396
▁ब्ले	-13.2411
▁र्थ्य	-13.2412
ట్సా	-13.2419
பே	-13.2424
কি	-13.2429
నూ	-13.2431
▁थू	-13.2432
▁प्रू	-13.2432
▁व्	-13.2432
Ö	-13.2433
▁ణ్యా	-13.2436
ਲਾਂ	-13.2451
▁ಢಿ	-13.2453
ழி	-13.2454
्हा	-13.2459
్ట్ఫో	-13.2468
▁ঽ	-13.2471
▁य्या	-13.2482
्लू	-13.249
கே	-13.2498
ض	-13.2503
▁ম্বু	-13.2503
▁ऩ	-13.2512
▁ক্ব	-13.2514
▁স্ফ	-13.2519
▁क्कि	-13.2526
▁र्डो	-13.253
ī	-13.2538
్మీ	-13.2539
▁য্যা	-13.2539
प्रा	-13.2542
▁ప్తా	-13.2554
▁খ্রী	-13.2567
▁ರ್ಟ್ನ	-13.2578
পূ	-13.2578
▁ర్మీ	-13.258
▁ਹੌਂ	-13.2588
్షి	-13.2594
রো	-13.26
▁ಷ್ಕಾ	-13.2623
ల్లో	-13.2634
▁धुं	-13.2638
্মি	-13.264
मं	-13.2654
జ	-13.2657
టు	-13.2662
▁ತ್ತ್ವ	-13.2669
▁ಕ್ಷು	-13.2677
п	-13.2679
▁స్లి	-13.269
ದ್ದ	-13.269
स्था	-13.2696
▁స్ట్రి	-13.2699
▁ర్ణి	-13.27
▁ರ್ಕೆ	-13.2704
▁ਵੌ	-13.2704
▁స్కీ	-13.2721
▁क्विं	-13.2726
್ಮೆ	-13.2727
్రూ	-13.273
▁ಯ್ಯಾ	-13.2737
▁र्टे	-13.2742
చిం	-13.2761
నాం	-13.2764
ਗੀ	-13.2766
▁ర్త్	-13.2768
ತ್ತಿ	-13.2777
▁ष्ठी	-13.2786
▁ङ्गा	-13.2802
బో	-13.2804
▁न्तः	-13.2817
í	-13.2822
ছি	-13.2837
్లె	-13.2846
▁र्बो	-13.2848
্যি	-13.2849
▁ग्ले	-13.2851
▁एः	-13.2851
▁হেঁ	-13.2852
▁ర్హు	-13.2858
▁জিং	-13.2872
▁वू	-13.2876
বং	-13.2878
ৈ	-13.288
ಕಿ	-13.2881
న్	-13.2881
у	-13.2894
▁త్రే	-13.2906
▁ணூ	-13.2928
▁প্নে	-13.293
ಪಾ	-13.2954
▁হ্র	-13.2955
್ಟ್ರಿ	-13.2959
ਕਾਂ	-13.296
ત	-13.2967
ಕೊಂ	-13.297
▁ఫ్లో	-13.2981
ಣ	-13.2983
छ	-13.2983
▁క్సా	-13.2987
▁ಯ್ಕ	-13.299
▁ঠু	-13.2991
▁ष्ट्	-13.3004
्सि	-13.3005
▁स्थी	-13.3006
▁ರಿಃ	-13.3008
▁హూ	-13.3025
▁ईः	-13.303
त्यि	-13.3035
्ट्रा	-13.304
জে	-13.305
ಪು	-13.305
▁జ్ఞు	-13.3054
ೆಃ	-13.3063
ਤਿ	-13.3065
▁ಛೇ	-13.3073
▁ఫ్ర	-13.3075
ਮੰ	-13.3076
▁వ్వం	-13.3092
▁ঘ্র	-13.3095
ਮੇ	-13.3101
▁ರ್ಸ	-13.3111
▁থো	-13.3122
दो	-13.3132
▁ਯਾਂ	-13.3133
দ্যো	-13.3141
రే	-13.3146
ಟ	-13.3149
▁డ్మి	-13.3152
▁స్వం	-13.3154
▁তাঃ	-13.3165
್ರೌ	-13.3173
▁ऱ	-13.3181
▁म्व	-13.3182
▁ы	-13.3187
▁డ్జి	-13.3193
▁স্কি	-13.3198
▁ரௌ	-13.3198
ಪಿ	-13.3198
▁ల్మా	-13.3215
▁स्न	-13.3223
▁प्लि	-13.3243
▁ಸ್ಟ್ನ	-13.3245
▁ರೆಃ	-13.3272
▁दः	-13.3277
▁ನ್ಸಾ	-13.3278
িঃ	-13.3289
ْ	-13.3302
▁ನ್ಮು	-13.3306
ಚಿ	-13.3307
টে	-13.3323
▁দ্ভা	-13.3332
▁ష్ఠా	-13.3339
গে	-13.3354
్ను	-13.3362
▁র্থা	-13.3366
▁र्गो	-13.3374
द्वा	-13.3376
▁ಸ್ಪೆ	-13.3379
कृ	-13.3387
রী	-13.339
▁न्नू	-13.3409
বৈ	-13.3413
▁ব্ধি	-13.3414
▁స్రా	-13.3421
▁ఖే	-13.3423
▁ঢো	-13.3431
▁టాం	-13.3434
ಜು	-13.3435
▁क्स्ट	-13.3444
▁দ্দা	-13.3446
బం	-13.3447
▁ಚ್ಛೇ	-13.3451
▁క్వి	-13.3461
▁ड्ढ	-13.3464
పె	-13.3467
▁స్కి	-13.347
▁ন্তো	-13.3471
▁न्त्रि	-13.3471
హా	-13.3472
▁హ్	-13.35
ਪੰ	-13.3505
▁ల్త్	-13.3506
▁ज़ू	-13.3508
▁ಟ್ರ್ಯಾ	-13.3523
నిం	-13.3536
শি	-13.3549
▁জ্জি	-13.3557
▁ರ್ಡಿ	-13.3557
డ	-13.356
ಜ	-13.3564
▁र्थः	-13.3567
ੲ	-13.357
▁ಪ್ರೆ	-13.3575
ತೀ	-13.3577
▁ध्ये	-13.3578
▁క్రై	-13.358
▁न्धों	-13.3592
ক্রি	-13.3606
ಟು	-13.361
▁ক্রু	-13.3616
▁ಷ್ಠೆ	-13.3631
ാ	-13.3648
▁ల్గు	-13.366
▁ర్తా	-13.3679
▁র্ব্বা	-13.3685
▁డ్రె	-13.3686
ದ್ದಾ	-13.3712
▁ङ्का	-13.372
▁ణో	-13.3726
್ಪೋ	-13.3726
थे	-13.3735
▁శౌ	-13.3742
हों	-13.3742
्दे	-13.3745
খা	-13.3776
▁ಗ್ರೂ	-13.3779
▁ಹ್ಮಾ	-13.3787
्नै	-13.3787
ग्रे	-13.3795
▁క్వె	-13.3799
▁గ్ను	-13.3805
లె	-13.3809
▁ప్లై	-13.3817
▁క్చ	-13.3817
▁ಲ್ವಿ	-13.3821
प्रे	-13.3827
तृ	-13.3832
సై	-13.3832
▁ಬ್ರೆ	-13.3842
▁ತ್ರೋ	-13.3861
▁ஸீ	-13.3861
▁ತ್ಮಾ	-13.3868
▁దిః	-13.3873
౨	-13.3885
▁न्हि	-13.389
थी	-13.3893
ಲೀ	-13.3911
बि	-13.3922
্মা	-13.3924
চা	-13.3925
ੴ	-13.3926
▁न्मे	-13.3926
▁గ్రౌ	-13.3935
పే	-13.3946
্লু	-13.3947
▁ল্পি	-13.3949
▁ಳ್ಳೋ	-13.3955
చ	-13.3958
▁త్రో	-13.3961
▁ह्नि	-13.3974
▁ग्द	-13.3977
ஏ	-13.399
▁క్కే	-13.4013
▁ਞ	-13.4013
▁ఱ్ఱ	-13.4019
▁ల్గి	-13.4033
़ु	-13.4057
ಮು	-13.406
టా	-13.406
▁ರ್ವೆ	-13.4077
▁ग्ल	-13.4078
▁ી	-13.4082
▁ಗ್ದಾ	-13.4086
▁1⁄	-13.4101
▁తిః	-13.4102
▁स्क्र	-13.413
రిం	-13.4135
▁న్పి	-13.4136
▁ధ్	-13.414
▁ಸ್ತ್ರಿ	-13.4145
▁ஜொ	-13.4146
ீ	-13.4147
़ों	-13.4148
ਅੰ	-13.4152
ैः	-13.4159
b	-13.4166
▁गः	-13.4172
▁द्दो	-13.4173
நீ	-13.4177
్లా	-13.4181
తే	-13.4182
S	-13.4187
▁ল্ক	-13.4201
▁ర్లే	-13.4204
▁হ্মা	-13.4208
▁ಮ್ರ	-13.4223
बु	-13.4227
నం	-13.4232
▁ब्रू	-13.4234
्लो	-13.4237
టే	-13.4248
б	-13.4253
▁ట్మె	-13.4256
ਐ	-13.4268
▁త్తె	-13.427
▁ಗ್ಧ	-13.4277
▁న్వా	-13.4279
ధా	-13.4282
▁క్కీ	-13.4284
ಷಿ	-13.4287
ਕੰ	-13.4293
ਪੁ	-13.4294
ਖਿ	-13.4301
▁ಕ್ಸಾ	-13.4332
्ती	-13.4333
ത	-13.4336
▁ರ್ಪಾ	-13.4341
▁फ्टि	-13.4355
্ডিং	-13.4362
▁ర్దు	-13.4389
▁न्सा	-13.4422
▁क्सो	-13.4434
▁ಕ್ರೈ	-13.444
▁ক্ক	-13.4443
▁झें	-13.4448
▁মঃ	-13.4449
▁భ్యా	-13.4452
▁ಸ್ಟ್ರಿ	-13.4456
ಎ	-13.4458
▁ತ್ನಾ	-13.4465
ਗੇ	-13.4473
▁ಸ್ಟ್ರಾ	-13.4476
పి	-13.4477
▁ज़ु	-13.4504
दू	-13.4514
▁र्भि	-13.4516
ನೋ	-13.4532
▁ಸ್ಯು	-13.4537
ਡਾ	-13.4542
▁ষ্ণা	-13.4546
टे	-13.4552
మూ	-13.4558
▁ల్ట్	-13.4567
▁ಹ್ನೆ	-13.4573
▁ఖ్	-13.4575
▁ಥೋ	-13.4578
A	-13.4583
ਬੀ	-13.4596
్లూ	-13.46
ರ್	-13.4601
▁ಟ್ರೇ	-13.4603
▁ఙ్గ	-13.4607
▁ज्	-13.4612
▁र्षो	-13.4622
▁ల్మ్	-13.4629
▁ট্	-13.4646
வீ	-13.4658
্য	-13.4661
▁क्वी	-13.4674
▁ਠੁ	-13.4682
सू	-13.4691
▁ಬ್ನ	-13.4692
▁ফ্র	-13.4694
▁ಬ್ಲೂ	-13.4706
▁র্পো	-13.4711
▁ণো	-13.4716
▁ज्वे	-13.4722
ಹಿ	-13.4724
्गु	-13.4733
▁ಸ್ರಾ	-13.4738
্পি	-13.4749
ট	-13.4763
స్తు	-13.4774
ਬਿ	-13.4785
ನ್ನ	-13.4787
w	-13.4794
▁ಲೌ	-13.4794
ਰੱ	-13.4798
▁క్వ	-13.4801
▁ల్తా	-13.4806
శా	-13.4812
ਵਾਂ	-13.4812
▁র্দ্ধ	-13.4817
ॅ	-13.4836
్మో	-13.4839
▁ಸ್ಕ್ರೀ	-13.4839
ಾಃ	-13.4843
ఫూ	-13.4844
క్రి	-13.4857
▁ज्यू	-13.4862
▁ব্লি	-13.4868
▁ল্ম	-13.4868
ज्ञा	-13.4874
▁ਮੋਂ	-13.4875
▁र्श्व	-13.4877
▁ಷು	-13.4885
▁ک	-13.4888
▁ర్ము	-13.4888
ಯಂ	-13.49
▁ట్వ	-13.4918
v	-13.4932
टा	-13.4932
্জু	-13.4954
▁ರ್ಲೆ	-13.4959
▁ಟ್ಲ	-13.4961
ಕ್ಕೆ	-13.4965
▁చ్ఛా	-13.497
ಪೋ	-13.4988
▁ರ್ಡ್ಗ	-13.499
▁ಸ್ರ	-13.4999
तु	-13.5016
▁ಸ್ಸೆ	-13.5018
▁र्ते	-13.503
▁డ్కు	-13.5038
ಮೇ	-13.5038
ఇ	-13.5047
▁ళే	-13.5057
▁त्वि	-13.5059
ಶ	-13.5062
▁ल्हो	-13.507
▁মৈ	-13.5077
▁றூ	-13.5081
▁प्पू	-13.5089
▁ज्ड	-13.5094
్మి	-13.5095
▁ఖై	-13.5099
k	-13.5102
▁ಥೇ	-13.5103
f	-13.5103
▁ల్తో	-13.5106
▁শ্লো	-13.5108
▁र्खा	-13.5115
వు	-13.5122
सिं	-13.5124
ਖਾ	-13.5134
్గా	-13.5156
▁ళ్ళే	-13.5158
▁स्ख	-13.5165
▁বিং	-13.5173
▁क्ट्रो	-13.5176
ట్తో	-13.5184
్రొ	-13.5208
మె	-13.5213
ਬੰ	-13.5213
▁क्म	-13.5214
▁ప్ట	-13.5221
▁బ్ది	-13.5222
▁হুঁ	-13.5224
మే	-13.5227
▁ಕ್ವಿ	-13.523
▁क्खी	-13.5242
▁ਗ਼ੀ	-13.5255
మై	-13.5256
▁చ్ఛి	-13.5285
▁ط	-13.5293
र्य	-13.5296
▁ल्को	-13.5297
▁ಬ್ಧ	-13.5298
▁ರ್ಚಾ	-13.5301
▁ग्ज	-13.5305
▁ಡ್ಜ್	-13.5313
▁কেঁ	-13.5314
▁శ్శ	-13.5318
▁ర్చీ	-13.5325
▁ण्ठ	-13.5327
ਡੇ	-13.5336
्मि	-13.5338
್ಲಾ	-13.5355
▁ষ্ম	-13.5356
▁র্ভূ	-13.5374
▁ಪ್ರೈ	-13.5376
▁ಸ್ಪಾ	-13.538
▁ద్కు	-13.5382
ನ್	-13.5385
ಸೇ	-13.5386
▁ಬ್ರ್ಯಾ	-13.5389
্নে	-13.539
▁ಸ್ತ್ರಾ	-13.5393
ంః	-13.5396
я	-13.5397
▁ಕ್ಯು	-13.5404
▁బ్రె	-13.5408
▁మ్ను	-13.5409
ਸੀਂ	-13.5418
▁న్వి	-13.542
▁र्ने	-13.5426
पि	-13.5434
ਟਾ	-13.5434
▁त्यौ	-13.5443
कों	-13.5444
चि	-13.5452
ಕ್ರೂ	-13.5463
▁ల్గ	-13.5463
▁क्रै	-13.548
ধৈ	-13.5486
▁ঙু	-13.5494
மூ	-13.5495
టిం	-13.5496
గి	-13.5509
▁স্পা	-13.551
▁ఘి	-13.5511
ಕೊ	-13.5533
சே	-13.5537
▁न्है	-13.5538
▁ರ್ಭಾ	-13.554
▁త్ము	-13.5545
▁ঙ্ক্ষ	-13.5551
▁व्यु	-13.5552
▁र्मु	-13.5559
▁ర్రి	-13.5562
কো	-13.5573
▁భృ	-13.5576
▁ತಿಃ	-13.5577
▁ਯੈ	-13.5589
▁ज्ञे	-13.5597
▁स्लो	-13.5597
▁ಥು	-13.5604
▁ಕ್ಟ್ರಾ	-13.5606
స్	-13.5607
ਦੁ	-13.5607
ಭು	-13.561
न्हों	-13.5615
्षों	-13.5623
্তু	-13.5627
▁ದ್ನ	-13.5636
▁చ్లు	-13.5638
▁स्कों	-13.5659
▁ದ್ಧೆ	-13.5661
▁ء	-13.5668
ುಃ	-13.5671
यु	-13.5675
▁न्टे	-13.5685
▁म्हे	-13.5712
ú	-13.5729
▁ਥੌ	-13.5734
▁న్ః	-13.5735
▁ಶ್ಚಾ	-13.5737
▁र्गु	-13.5742
ఎ	-13.5745
▁ల్దా	-13.5747
▁र्बि	-13.5748
ರೈ	-13.5752
▁ల్బ	-13.5756
शु	-13.5764
▁ರ್ಬಿ	-13.5765
▁ल्लु	-13.5771
ಟೋ	-13.5773
দা	-13.5778
ਪੀ	-13.5785
రాం	-13.579
ਅੱ	-13.5811
కం	-13.5812
▁त्ना	-13.5813
▁క్రం	-13.5814
्कों	-13.5815
व्य	-13.5824
ணை	-13.5831
తె	-13.5837
▁द्रे	-13.5861
▁న్త	-13.5865
▁म्पो	-13.5869
▁म्ह	-13.5873
ُ	-13.5874
্ট্রা	-13.5882
▁জৈ	-13.5884
ರಂ	-13.591
▁ಶ್ರಿ	-13.5913
ḍ	-13.5923
▁ठें	-13.5928
▁ਯੌ	-13.593
ষ	-13.5931
▁బ్లూ	-13.5935
▁ড্যা	-13.5949
▁শঃ	-13.5954
▁ಫ್ರೀ	-13.5955
▁బ్రో	-13.596
▁व्स	-13.5961
▁ख़्त	-13.5967
ര	-13.5973
▁ఛే	-13.5976
▁হৈ	-13.5991
ಸ್	-13.5997
న్ని	-13.6007
▁ర్చో	-13.6011
T	-13.6015
▁দ্ভি	-13.602
▁ল্টি	-13.6046
▁द्धृ	-13.6047
▁బ్లో	-13.6078
▁న్ప	-13.6085
▁क़ि	-13.6093
ਖੇ	-13.61
ਪੂ	-13.6101
▁ಗ್ಲ	-13.6107
त्री	-13.6114
▁त्वं	-13.6118
й	-13.6122
చె	-13.6124
▁ब्वे	-13.6124
▁ಗ್ಗಾ	-13.6133
▁ಸ್ಟ್ಯಾ	-13.614
ಬೋ	-13.614
ਉਂ	-13.615
▁ঘ্ন	-13.6152
▁చ్ల	-13.6155
▁ಲ್ಪಾ	-13.6175
▁త్పా	-13.6178
ओं	-13.6179
▁ಜ್ಜು	-13.6182
▁క్లీ	-13.6198
्नो	-13.6213
ਪਿ	-13.6217
▁ಪ್ಸ್	-13.6222
ণ	-13.6222
নো	-13.6228
▁र्ह	-13.6238
▁ಸ್ಫ	-13.6255
▁ಷೋ	-13.6259
▁ట్కా	-13.6263
ಈ	-13.6263
▁ಥ್ಯ	-13.6281
▁స్త్	-13.6286
ಕ್ರಿ	-13.6329
▁ஞை	-13.6332
▁ర్భి	-13.6333
ತ್ರ	-13.6334
▁ಮ್ಸ	-13.6353
দু	-13.6354
टि	-13.6357
्ल्स	-13.6371
बे	-13.6383
▁ళ్తా	-13.6387
▁চ্ছু	-13.639
వె	-13.6401
▁^	-13.6411
़ौ	-13.6413
চ	-13.6418
▁শ্রি	-13.6423
▁জ্র	-13.6426
▁ర్ట్మ	-13.643
▁థ్య	-13.6431
▁ಣ್ಮ	-13.6437
▁म्पै	-13.6438
▁ర్మో	-13.6446
್ಃ	-13.647
غ	-13.6479
▁षां	-13.6481
▁ಡ್ನಿ	-13.6486
C	-13.6487
रें	-13.6489
▁ಡಿಃ	-13.649
▁क्त्व	-13.6502
மீ	-13.6521
▁ధ్రా	-13.6525
▁ಧೃ	-13.6525
▁ड़ौ	-13.6526
তু	-13.6527
▁ਚੂੰ	-13.6547
సూ	-13.6548
▁র্জ্জ	-13.6559
সি	-13.659
▁स्लै	-13.659
যো	-13.6598
▁ష్మి	-13.66
▁जः	-13.6604
▁క్రొ	-13.6607
ಶಾ	-13.6616
వం	-13.6617
ఫో	-13.6619
▁फ्	-13.6629
▁স্ট্র	-13.6633
મ	-13.6636
വ	-13.6636
घ	-13.6639
▁ಜ್ರ	-13.6642
▁ಸ್ಕೌ	-13.6645
षा	-13.665
▁ಸ್ತೋ	-13.6654
मै	-13.6656
ಟ್ರೈ	-13.6658
ਲੱ	-13.6669
్వా	-13.6672
ಪೂ	-13.6675
▁క్టా	-13.6681
ల్	-13.6681
ē	-13.6689
▁र्व्य	-13.6692
▁ರ್ಪೊ	-13.6704
▁ফোঁ	-13.6708
मो	-13.6708
రైం	-13.6709
▁ಟ್ಸಾ	-13.6717
খ	-13.6718
ਲੈ	-13.673
ಫಿ	-13.6732
▁क्रु	-13.6737
ਮੈਂ	-13.6738
യ	-13.6742
ँ	-13.6748
खि	-13.6756
ਜ਼ਾ	-13.6761
थि	-13.6763
द्र	-13.6776
▁ঞ্ছ	-13.6778
ਦੋ	-13.6792
ь	-13.6796
್ವಾ	-13.6798
ಚಾ	-13.681
▁ಶ್ಲಾ	-13.6816
▁ಪ್ಟಿ	-13.6821
బ	-13.6827
భా	-13.6829
▁ష్ఠి	-13.6845
▁ಳ್ತಾ	-13.6845
▁స్కే	-13.6847
▁ణ్ణ	-13.6854
್ಜಾ	-13.6855
ಳೆ	-13.686
▁న్ద	-13.6874
▁ರ್ಟೆ	-13.6874
ఫా	-13.6875
ಮೈ	-13.688
▁क्यु	-13.689
▁ಮ್ಮೊ	-13.6905
▁क़े	-13.6907
▁ద్క	-13.6908
▁ಡ್ಮಿ	-13.6931
▁ర్వో	-13.6937
ডিং	-13.694
▁ಷ್ಮಾ	-13.6953
जें	-13.6953
;	-13.6959
▁ర్యో	-13.6969
▁ঃ	-13.6971
▁ஶ	-13.6993
▁ब्रु	-13.6997
స్తో	-13.701
▁ন্দ্রা	-13.7012
▁ಕ್ಸ್ನ	-13.7017
ل	-13.7021
▁ণ্ডু	-13.7026
▁ಬ್ಲ್ಯ	-13.703
▁ಟ್ಸ್ಮ	-13.7032
కొ	-13.7033
ਝ	-13.7041
P	-13.7049
▁ర్ధు	-13.706
ਫ਼	-13.7065
ಫಾ	-13.7073
▁ರ್ಸ್ಗ	-13.7078
▁చ్య	-13.7079
लों	-13.708
্টু	-13.708
▁బ్బి	-13.7083
जे	-13.7094
யே	-13.7094
ਥੇ	-13.7095
দ্যে	-13.7095
▁ಕ್ಲೀ	-13.7098
▁र्म्स	-13.7118
ਥਾ	-13.7122
▁্ব্বা	-13.7132
▁ಲ್ಲೊ	-13.7148
▁త్ప్ర	-13.7148
्यौ	-13.7176
್ಯಾ	-13.7176
M	-13.719
▁ಭೈ	-13.7193
▁ಫ್ನ	-13.7194
▁त्तो	-13.7208
▁క్ట్స్	-13.7215
▁త్స్య	-13.7237
পি	-13.7239
्का	-13.7242
ಕ್ಷ	-13.7246
▁भ्रू	-13.7251
फो	-13.7253
स्ट	-13.7257
▁ರ್ಖ	-13.7262
▁డ్తో	-13.7268
ಬೆ	-13.7268
▁ನ್ಸ್ನ	-13.7287
▁ಕ್ಟಿ	-13.7305
ਲੋਂ	-13.7314
ধ্যা	-13.732
ಟ್ರೀ	-13.7321
ధి	-13.7325
▁క్లు	-13.7329
▁ਠੂ	-13.7332
▁চিং	-13.7334
্থে	-13.7337
ಕೈ	-13.7344
▁র্ত্তি	-13.7357
▁न्फ्र	-13.7361
▁ग्जी	-13.7375
▁ষ্ঠে	-13.7376
▁স্রা	-13.7376
পু	-13.738
ਸਿੱ	-13.7386
▁ಟ್ಯ	-13.7409
▁स्पै	-13.741
▁ಚೊ	-13.7422
▁ಪ್ಲೆ	-13.7423
ఈ	-13.7433
్స్ను	-13.7442
▁ಥೈ	-13.7448
▁ఫౌ	-13.7457
ష	-13.7471
గీ	-13.7472
गों	-13.7495
▁ಡ್ರಿ	-13.7497
▁ఫ్ల	-13.7507
▁ल्टि	-13.751
▁డ్రీ	-13.752
▁ಮ್ಗ	-13.753
्रै	-13.7535
ಷೇ	-13.7553
इं	-13.7557
▁ల్వా	-13.7562
▁ड्	-13.7566
ಲ್	-13.7566
ಹೇ	-13.7567
▁ಥೀ	-13.7576
▁ಟೌ	-13.7585
▁ಸ್ಕಿ	-13.7586
▁స్సే	-13.7594
ట్	-13.76
ஜ	-13.7618
र्ट	-13.7619
▁त्त्वा	-13.7628
▁ल्फा	-13.7632
▁ల్స	-13.7633
क्षा	-13.765
▁গ্নে	-13.7651
ਮੈ	-13.7656
শে	-13.7669
▁ర్దా	-13.7676
ಹೆ	-13.7685
▁हाः	-13.7686
▁స్సి	-13.7691
▁ద్వై	-13.7695
ಯೋ	-13.7698
▁భ్రా	-13.7702
▁ಹ್	-13.7714
▁ర్బీ	-13.7718
▁ਦੈਂ	-13.772
ਧੀ	-13.7727
▁ర్ఫ	-13.7732
▁ల్మీ	-13.7741
बं	-13.7742
లం	-13.7755
▁ਧੌ	-13.7762
▁′	-13.7764
షి	-13.7765
▁ಚ್ಛಾ	-13.7776
▁స్లు	-13.7783
▁स्ट्रै	-13.7788
▁ध्वी	-13.7792
सो	-13.78
టఁ	-13.7806
I	-13.7822
▁మ్ల	-13.7828
್ನಾ	-13.783
ਵੇਂ	-13.7842
▁డ్ను	-13.7846
ਧਿ	-13.7868
▁व्यो	-13.7871
्शि	-13.7873
▁म्ना	-13.7874
▁ট্র্যা	-13.7874
▁ಝಾ	-13.7883
▁ತ್ಥ	-13.7897
▁ర్టె	-13.7907
▁ल्वे	-13.7919
▁न्धो	-13.7921
शे	-13.7932
ਓ	-13.7938
▁ಫ್ಲಾ	-13.7948
▁ಝ್	-13.7956
▁ద్వీ	-13.7961
▁ర్బా	-13.7967
▁হ্ব	-13.799
▁न्ज	-13.7996
▁ల్చే	-13.7996
▁व्हि	-13.7998
ాః	-13.8004
▁स्ले	-13.8008
▁ರ್ಯೋ	-13.8029
▁న్నూ	-13.803
▁ग्गा	-13.8034
▁छें	-13.8035
्रू	-13.8036
್ರೂ	-13.804
▁ਙ	-13.804
▁డ్వా	-13.804
्ाा	-13.804
▁र्बी	-13.8041
▁বঃ	-13.8045
्त	-13.8049
▁क्ड	-13.8053
▁ஸெ	-13.806
▁थाः	-13.806
ਉੱ	-13.8061
ಡಾ	-13.8064
वै	-13.8064
ड़ा	-13.8067
▁డ్ప	-13.8079
स्त	-13.808
▁మ్మూ	-13.8084
▁শ্ম	-13.8095
ਪੈ	-13.8108
॥	-13.8112
▁র্লি	-13.8113
▁ल्लो	-13.8113
▁भिः	-13.8135
▁फ्लू	-13.8144
नो	-13.8144
▁ಳ್ತ	-13.8146
ਬੇ	-13.8175
▁डाॅ	-13.8179
▁న్కి	-13.8182
▁व्ह	-13.8183
▁শ্মি	-13.8189
▁स्मो	-13.8211
्ले	-13.8214
▁स्खा	-13.8223
ਥ	-13.8225
▁क्ट्र	-13.8229
▁ব্লা	-13.8238
▁ক্ষ্ণ	-13.8243
▁ফৌ	-13.8244
ವೈ	-13.8257
▁ರ್ಟ್ಸ್	-13.8267
▁ਯੀ	-13.8268
ಸೆ	-13.8278
ಹು	-13.828
ठ	-13.8285
▁ಜ್ನ	-13.8303
▁ಫ್ಘ	-13.8308
▁త్వి	-13.831
▁ಸ್ಕ್ಯಾ	-13.8311
ಮೋ	-13.8312
न्य	-13.8316
डा	-13.8317
▁हुॅ	-13.8318
▁ಲ್ಕಿ	-13.8319
▁ਕੀਂ	-13.8328
▁మ్యు	-13.8332
ట్లు	-13.834
சை	-13.834
జ్వా	-13.8345
▁ढु	-13.8346
▁षै	-13.8349
▁ప్లె	-13.8351
हां	-13.8352
▁ਯੋਂ	-13.8355
▁ಲ್ಕಾ	-13.8357
ਦੂ	-13.8362
▁త్తో	-13.8377
▁ख़ू	-13.8377
▁ಲ್ಟ	-13.8384
్ఫో	-13.8384
▁স্তো	-13.8393
ಒ	-13.842
▁క్సై	-13.8435
ಯಿ	-13.844
வ்	-13.845
ਤੱ	-13.8452
▁ग्रै	-13.8455
ਸੋ	-13.8456
சொ	-13.8463
తం	-13.8464
▁त्वे	-13.8465
जै	-13.8467
▁স্তী	-13.8477
ধা	-13.8481
▁ಭ್	-13.8485
▁ಪ್ಲ್ಯಾ	-13.8485
ఉ	-13.8487
▁ज्र	-13.85
ష్యం	-13.8508
ಮ್ಮ	-13.8514
్ట్రా	-13.8521
▁র্লা	-13.8522
▁స్కె	-13.853
ন্ত	-13.8535
▁ళ్తే	-13.8544
▁వ్యో	-13.8545
ಥ	-13.8547
▁డ్ని	-13.8548
▁न्धे	-13.8554
▁ल्मा	-13.8556
▁ज्ये	-13.8559
್ಘಾ	-13.8561
ಉ	-13.8565
▁ర్మ్	-13.8569
ఉం	-13.8573
▁न्फे	-13.8575
▁द्धे	-13.8575
▁र्टा	-13.8589
▁ಡ್ಲಿ	-13.8605
दृ	-13.8606
▁ਪੈੱ	-13.8608
▁ಪ್ತಾ	-13.8612
ਸੂ	-13.8613
▁క్నో	-13.8615
▁म्मो	-13.8627
▁ర్మె	-13.8632
्ड	-13.864
▁డుః	-13.8646
ड़ी	-13.8652
▁డ్లి	-13.8656
तों	-13.8662
▁प्पे	-13.8677
▁र्णी	-13.8687
▁ण्टे	-13.8689
हें	-13.87
दु	-13.8713
्म	-13.8714
ಷ	-13.8717
मू	-13.8725
ਫਿ	-13.8742
▁धः	-13.877
ਯੋ	-13.8771
▁ন্দ্য	-13.8772
▁ಧ್	-13.8779
▁ಸ್ಟಂ	-13.8786
ಗೊಂ	-13.8799
్పొ	-13.8804
▁हः	-13.8806
▁త్ర్య	-13.8807
अं	-13.8809
ਮਾਂ	-13.8811
డె	-13.8836
▁గ్ధ	-13.886
▁గ్జా	-13.8868
▁व्वा	-13.8871
ਹੱ	-13.8889
▁ರ್ಃ	-13.8896
ಹೋ	-13.89
್ದಿ	-13.8902
▁ਓੁ	-13.8909
▁ਜਿ਼	-13.8926
ुः	-13.8929
वं	-13.8933
्व	-13.8939
▁द्धो	-13.8941
▁ద్గు	-13.895
▁म्प्ले	-13.8951
▁न्फ	-13.8953
▁फ्रै	-13.8965
▁ड्य	-13.8966
▁ব্ল্যা	-13.8966
▁ದ್ರೇ	-13.8971
தோ	-13.8985
▁न्त्य	-13.8999
पे	-13.9003
र्ड	-13.9009
▁ਪਿ੍	-13.9019
▁ਯੱ	-13.9043
एं	-13.9049
▁ర్వ్	-13.905
▁পঁ	-13.9053
▁দ্রূ	-13.9068
▁ನ್ಸ್ಪೆ	-13.9069
▁ঙ্	-13.9069
ਰੰ	-13.9073
బి	-13.9084
बो	-13.9086
్ట్రి	-13.909
ஞ்	-13.9093
ন্য	-13.9095
फा	-13.9097
्ति	-13.9098
भि	-13.9099
क्ति	-13.91
গু	-13.912
▁थ्यो	-13.9124
পে	-13.9125
▁न्से	-13.913
▁మూఁ	-13.913
▁ब्रै	-13.9138
▁ర్గ్	-13.9141
তো	-13.9157
ਨੁ	-13.9157
▁র্ঘ্য	-13.9164
ध्य	-13.9164
শা	-13.9168
ణ	-13.9168
क्त	-13.9173
్నె	-13.9177
▁ರ್ಡ್ನ	-13.9179
ಪ್ಲೇ	-13.9184
▁ರ್ಥಾ	-13.9189
▁ವೆಃ	-13.9191
ऐ	-13.9198
ரோ	-13.9198
्स्की	-13.9198
▁జృ	-13.9206
ਸ਼ੀ	-13.9206
▁ভ্যু	-13.9207
ची	-13.9207
▁পৈ	-13.9217
▁জ্যি	-13.9221
▁औौ	-13.9223
ਮੁੱ	-13.9224
▁ज़ें	-13.9225
▁న్తి	-13.9248
▁ঠ্য	-13.9255
▁శః	-13.9261
డం	-13.9272
ਮੌ	-13.9273
▁डौ	-13.9286
भू	-13.9292
▁ಲ್ಸ	-13.9293
▁स्क्व	-13.9293
▁త్ను	-13.9303
▁स्यो	-13.9316
ਟੇ	-13.9323
▁ಸಿಃ	-13.9323
▁ష్మ	-13.9328
▁ಪ್ಟ್	-13.9335
डी	-13.9341
▁ల్కి	-13.9343
▁র্ল্ড	-13.9346
▁येः	-13.9347
▁ಕ್ನಿ	-13.9348
নু	-13.935
క్స్ప్రె	-13.9354
్బీ	-13.9359
▁মং	-13.9365
▁డ్జ్	-13.9366
ਹਿੰ	-13.9372
వై	-13.9382
ਇੰ	-13.9392
ಟಾ	-13.9393
▁त्प्र	-13.9396
▁జ్మె	-13.9403
ধ	-13.9407
▁వ్గా	-13.9415
▁ల్పై	-13.9418
▁त्तौ	-13.942
त्रों	-13.9429
्टें	-13.945
▁ర్డ్స్	-13.9475
▁ग्जि	-13.9485
▁लाः	-13.9489
ফু	-13.9497
ಸೋ	-13.95
▁क्को	-13.95
▁ష్ఠు	-13.9504
▁राः	-13.9515
▁ड़ू	-13.9517
▁ముః	-13.9526
தீ	-13.9532
▁గ్లి	-13.9532
▁ಕ್ಸ್ಪ್	-13.9534
▁న్మె	-13.9542
▁कीं	-13.9554
▁র্ম্মা	-13.9558
▁ట్ఫా	-13.9564
र्व	-13.9566
్జా	-13.9567
ಡ್ಯೂ	-13.9572
▁ವ್ಯೂ	-13.9581
ಟ್	-13.9586
▁न्ड्रि	-13.9601
▁ಕ್ಲೈ	-13.9601
▁క్ప	-13.9607
▁ళిం	-13.9609
▁ರ್ಫ್ಯೂ	-13.962
▁ర్గు	-13.9628
▁थं	-13.964
▁ஹொ	-13.964
ভি	-13.9643
▁ನ್ಸೆ	-13.9648
▁र्ध्व	-13.9651
క్క	-13.9657
ਦੱ	-13.9664
▁ಗ್ಟ	-13.9667
दौ	-13.9669
गो	-13.967
ನ್ಯಾ	-13.9673
▁ಡಃ	-13.9674
▁ర్జె	-13.9683
▁ಯ್ಸ್	-13.9683
▁च्चो	-13.9693
▁త్రై	-13.9698
▁ర్సె	-13.9715
▁గ్లు	-13.9718
▁ম্র	-13.9721
▁ಸ್ನಿ	-13.9727
্থি	-13.9729
▁क्ज	-13.9737
ಶ್ವ	-13.9742
▁థే	-13.9748
▁ण्या	-13.9757
▁ष्या	-13.9767
▁त्म्य	-13.9768
गि	-13.9783
্বি	-13.9784
▁ల్ఫ్	-13.9786
ਪੱ	-13.9797
▁ప్యం	-13.9806
್ಪು	-13.9808
కుం	-13.9809
्ट	-13.9816
▁र्का	-13.9825
▁స్కౌ	-13.9833
धृ	-13.9837
र्म	-13.9837
▁ಬ್ಲೆ	-13.9848
▁ধ্	-13.9858
्	-13.9872
▁ప్మె	-13.988
్పూ	-13.9895
▁ಕ್ನೋ	-13.9916
▁జ్రా	-13.9916
್ಟೇ	-13.9919
▁థె	-13.9927
யோ	-13.9928
स्थि	-13.9931
न्हें	-13.9931
গা	-13.9963
▁ভৈ	-13.9967
▁स्प्रि	-13.9974
▁ರ್ಷಾ	-13.9977
▁ర్ణు	-13.9979
▁న్మి	-13.9987
▁ఫ్లి	-13.9987
ন্যা	-13.9988
ਮੋ	-13.9991
▁র্ডি	-14.0004
▁ర్లా	-14.0005
হি	-14.0015
▁ಕ್ವ	-14.0016
பூ	-14.0024
▁త్య్ర	-14.0033
▁ಫೌ	-14.0046
▁మ్లా	-14.0053
D	-14.0056
ಕೃ	-14.0059
▁ਡ਼ਾ	-14.0072
▁ಫ್ಲಿ	-14.0079
चे	-14.0092
▁ಣ್ಯಾ	-14.0095
▁ప్న	-14.0106
▁డ్క	-14.0107
शी	-14.0109
್	-14.011
▁র্থ্য	-14.0118
ಚ	-14.0129
్నా	-14.0131
▁ন্মো	-14.0131
నో	-14.0137
ਕੱ	-14.0152
▁त्र्य	-14.0153
▁ష్ప్ర	-14.0157
▁ರ್ಸೆ	-14.016
্কে	-14.0172
क्र	-14.0188
▁గ్మ	-14.019
ਜ਼ਿ	-14.0195
▁యిః	-14.0203
▁క్స్ట్	-14.0215
▁ಝಿ	-14.0224
பை	-14.025
ਟਿ	-14.026
▁స్గా	-14.0269
್ಯೋ	-14.0271
▁र्तें	-14.0271
▁स्कः	-14.0279
్జి	-14.0281
▁துா	-14.0284
▁స్ధ	-14.0285
▁ಗ್ವಾ	-14.0307
▁ग्गी	-14.031
జే	-14.0314
R	-14.0317
▁ट्टू	-14.0324
▁ट्टो	-14.0325
্পে	-14.0335
N	-14.0336
▁र्न्स	-14.0337
▁య్యో	-14.0346
स्वा	-14.0347
దూ	-14.0348
▁त्रै	-14.035
▁न्स्टे	-14.0362
▁र्रि	-14.0364
ड़े	-14.0373
ਗੱ	-14.0374
్నీ	-14.0388
▁ನ್ಫ	-14.0393
ষ্যে	-14.0399
్జీ	-14.0408
▁र्दु	-14.041
▁ರ್ರ	-14.0417
বু	-14.0442
ಹೊ	-14.0443
▁काः	-14.0446
সু	-14.0448
्ट्स	-14.0456
▁క్తీ	-14.0456
್ಟಾ	-14.0462
▁జ్కు	-14.0475
पो	-14.0483
▁क्ती	-14.0495
▁ద్భా	-14.0495
क्षे	-14.0495
ओ	-14.0496
▁ಜ್ರಿ	-14.0498
ਦੋਂ	-14.0502
B	-14.0503
▁ರ್ಮು	-14.0503
▁ర్మే	-14.051
▁ਤੇਂ	-14.0516
ਸ਼ੁ	-14.0525
క్ష	-14.0525
़ै	-14.0527
स्व	-14.0532
▁ಫ್ಟಿ	-14.0542
ਚੇ	-14.0546
বো	-14.0556
గో	-14.0556
▁पः	-14.0562
त्त	-14.0567
ದ್ದು	-14.0572
দী	-14.0574
▁స్ట్ర	-14.0581
స్టే	-14.0587
▁ರ್ಗ್	-14.0607
▁र्टू	-14.0624
▁ల్కా	-14.0629
యే	-14.0636
▁జ్జి	-14.0659
▁ল্পা	-14.0662
▁ल्यु	-14.0666
కృ	-14.0671
▁ర్చొ	-14.0672
್ಟೈ	-14.0673
मौ	-14.0686
्ट्रै	-14.0693
ஷ்	-14.0712
▁థీ	-14.0714
▁ब्यो	-14.0718
▁त्सी	-14.0719
▁ನ್ಯು	-14.0719
▁ल्जि	-14.0723
▁బ్రౌ	-14.0737
హ	-14.0754
▁ಲ್ಟಾ	-14.076
▁ञ्चा	-14.0764
▁र्डे	-14.0764
▁ठ्ठ	-14.0765
▁బ్ధ	-14.0771
సే	-14.0779
▁न्ध्या	-14.0785
▁ತ್ಸು	-14.0788
ಜೆ	-14.0793
্গী	-14.0794
ಧ	-14.0805
ट्री	-14.081
▁ऊः	-14.082
తృ	-14.0827
▁্দ্ধ	-14.083
▁ब्स्क्र	-14.0834
ವಂ	-14.0839
▁ঞা	-14.084
▁క్తే	-14.0849
ರ್ಯ	-14.0859
छा	-14.0871
జు	-14.0873
▁प्लै	-14.0882
▁श्रौ	-14.0883
▁ਜੀਂ	-14.0886
▁థ్యా	-14.0887
ঠী	-14.0895
▁षः	-14.09
▁ਜ਼ੰ	-14.0903
▁డ్చ	-14.091
▁గ్జ	-14.0912
▁స్ట్రో	-14.0938
ਸ਼ਿ	-14.0943
▁ల్ట	-14.0945
್ಡೇ	-14.0961
▁ক্ল	-14.0961
ত্র	-14.0964
▁ರ್ದು	-14.0974
్బు	-14.0989
ਖ਼	-14.0999
▁फ्ल	-14.1003
मां	-14.1005
फु	-14.1008
▁ನ್ಸ್ಟಿ	-14.1016
▁च्यो	-14.1023
ਬੱ	-14.1028
▁హ్యం	-14.1032
ড়া	-14.1033
▁ರ್ಥ್	-14.1052
▁ಗ್ಸ್ನ	-14.1054
▁వ్వే	-14.1054
▁తెం	-14.1059
▁ट्ज	-14.1078
▁ह्या	-14.1082
চে	-14.1087
ఫే	-14.1091
▁గ్నే	-14.1093
▁ಘ್ನ	-14.1096
▁ಖೋ	-14.1099
▁ర్ఖ	-14.1103
▁ಕ್ಸ್ಫ	-14.1107
▁कॅ	-14.1108
▁ఢ్	-14.1138
్యే	-14.1143
▁र्को	-14.1145
▁ত্স	-14.1151
▁योः	-14.1167
▁क्खे	-14.1171
ব্য	-14.1175
চি	-14.1206
▁क्षां	-14.1207
ನಂ	-14.1222
▁గ్గే	-14.1226
्ट्रो	-14.1229
▁ಲ್ತ್	-14.1242
▁డ్నీ	-14.1246
/	-14.1252
▁गाः	-14.1257
▁ङ्	-14.127
▁ब्दो	-14.1271
▁ಫ್ರ	-14.1277
▁డ్వ	-14.1305
▁म्ल	-14.1321
▁ఝ	-14.1332
▁ಯ್ತಿ	-14.1338
▁स्में	-14.1339
மெ	-14.1344
▁డ్య	-14.1345
▁న్క	-14.135
▁ర్క్స్	-14.1352
ஃ	-14.1368
▁ల్ః	-14.1376
▁స్కాం	-14.1379
स्ता	-14.1383
্চে	-14.1386
▁क्लै	-14.139
▁न्हु	-14.1395
ਡਿ	-14.1399
फ्यू	-14.1402
र्ण	-14.141
ಹೀ	-14.1414
▁ज्झ	-14.1435
▁న్స్టి	-14.1441
▁क्ट्रा	-14.1448
क्स	-14.1451
▁र्घा	-14.1452
షే	-14.1464
्जी	-14.1468
ఠీ	-14.1474
्रौ	-14.1476
▁व्हे	-14.1478
ழை	-14.1479
▁డ్చి	-14.1487
▁ह्रा	-14.1495
▁న్ఫె	-14.1497
डे	-14.1497
▁छै	-14.1509
ਪੇ	-14.1514
ढ़	-14.1526
▁ಪ್ಗೆ	-14.1532
ਪੋ	-14.1538
১	-14.1541
ਦੌ	-14.1546
ಡ್	-14.1551
क्या	-14.1553
▁ಯ್ಡು	-14.1563
▁র্ভো	-14.1564
धी	-14.1571
ಭ	-14.1583
▁ర్కే	-14.1587
▁त्फ	-14.1591
ಸ್ಃ	-14.1605
▁आॅ	-14.1614
য	-14.1646
যু	-14.1653
್ಫಾ	-14.1655
▁ण्डु	-14.1658
సో	-14.1686
▁త్రె	-14.1687
▁ఘ్ర	-14.1694
▁ತ್ಗೆ	-14.1695
▁ਡ਼ੀ	-14.1708
ਰੁ	-14.1711
▁గ్రో	-14.1724
E	-14.1724
খে	-14.1727
द्ध	-14.1744
▁ত্র্য	-14.1746
▁ಗ್ರ್ಯಾ	-14.1747
ಲ್ಯಾ	-14.1751
▁ಬ್ಲ್ಯಾ	-14.176
▁ఙ్మ	-14.177
জি	-14.1772
णा	-14.178
ಬ್ಯಾ	-14.1784
▁చ్కు	-14.1795
त्व	-14.1797
ಣೆ	-14.1798
▁ট্টি	-14.1803
▁ल्वि	-14.1804
▁र्लो	-14.1804
▁ప్పొ	-14.1811
▁డ్రే	-14.1812
▁ಷ್ಮೆ	-14.1823
▁శ్మ	-14.1826
▁ल्टो	-14.1828
▁स्सि	-14.183
্থ	-14.183
మొ	-14.1837
▁श्ना	-14.1848
▁ख्ति	-14.1855
▁ਲ਼ਿ	-14.1857
▁క్బ	-14.1866
मैं	-14.1875
▁ర్పే	-14.1881
డ్	-14.189
▁न्टि	-14.1891
ప్పు	-14.1895
▁ರ್ಕ್ನ	-14.1899
कै	-14.1909
মী	-14.1914
्रं	-14.1916
्बी	-14.1923
▁ర్డె	-14.193
శ	-14.1937
▁ஸாா	-14.1944
जु	-14.1952
▁त्ल	-14.1959
ಯೆ	-14.1963
▁চ্ছ্ব	-14.197
ग्रा	-14.1978
▁र्णो	-14.1978
ਊ	-14.1992
▁ప్టి	-14.1993
্পা	-14.2003
▁ಯ್ಸ	-14.2004
▁భిః	-14.2008
▁स्क्	-14.2019
▁ग्ना	-14.2027
▁ज्ञो	-14.2039
ਚੀ	-14.2043
▁ट्रू	-14.2045
ਚਿ	-14.2048
्दा	-14.2059
▁జ్ల	-14.206
रं	-14.2062
▁క్లై	-14.2065
▁ಟ್ರೊ	-14.2071
ోం	-14.2075
▁ల్మ	-14.2092
্ত্তি	-14.2105
डिं	-14.2112
र्स	-14.2121
ਗ੍	-14.2128
লী	-14.2137
್ರಾ	-14.2138
ਫਾ	-14.2139
কঃ	-14.2141
প্রা	-14.2172
ಟ್ಟಿ	-14.2184
▁ల్ఫీ	-14.2186
▁डे़	-14.2196
▁గ్రు	-14.2204
खे	-14.2214
্ম্মা	-14.2224
▁ల్యు	-14.2229
▁ధ్యు	-14.2233
▁म्यो	-14.2246
▁ಟ್ನಾ	-14.2248
▁మ్ర	-14.2254
▁ণ্ন	-14.2254
▁ಬ್ಲ	-14.2265
षि	-14.2266
ਤੌ	-14.2273
ಧಾ	-14.229
ఏ	-14.2297
ਕੈ	-14.2305
▁గ్వా	-14.2312
▁ఫ్రే	-14.2313
▁ಳ್ವ	-14.2317
▁ప్ర్రా	-14.2318
ਰੈ	-14.2321
▁ర్బి	-14.2324
ज्य	-14.2334
ਸ਼ੇ	-14.2339
లూ	-14.2353
र्थ	-14.2365
గౌ	-14.2365
▁గ్ట	-14.2373
ప్రే	-14.2378
▁क्यूं	-14.2379
▁బ్న	-14.2384
ಗೀ	-14.2386
्यं	-14.2391
ప్ప	-14.2393
▁क्यां	-14.2408
ਯਾ	-14.2414
▁ಷ್ಪಾ	-14.2421
▁ರ್ವ್	-14.2426
▁న్సే	-14.243
್ವೆ	-14.2439
ਠ	-14.2446
▁ర్థ్య	-14.2447
▁र्य्य	-14.245
▁ಝೋ	-14.2452
ரூ	-14.2453
▁ಗೆಃ	-14.2454
ণে	-14.247
▁প্ট	-14.2475
భ	-14.249
जू	-14.2497
▁প্প	-14.2503
▁र्द्र	-14.2509
గే	-14.2515
ఫీ	-14.2526
ரே	-14.2527
▁ख़्स	-14.2529
▁జ్జా	-14.2529
▁फ़्ट	-14.2531
ਯੂ	-14.2532
▁प्टे	-14.2536
▁ন্যু	-14.2539
ಟೈ	-14.2539
▁न्ये	-14.2544
▁র্খ	-14.2568
▁క్రు	-14.2568
ಣಿ	-14.2573
ছা	-14.2576
▁ज़्	-14.2583
▁त्थि	-14.2587
दों	-14.2596
▁ਸਿ਼	-14.2596
▁ಫ್ರೇ	-14.2598
▁జ్జు	-14.2613
▁रीः	-14.262
▁ಲ್ಮಿ	-14.2622
ಮಂ	-14.2628
ಅಂ	-14.2636
न्न	-14.2645
ट्रे	-14.2646
যী	-14.2665
▁ಟ್ನಿ	-14.269
ತ್ತಾ	-14.2698
▁ణె	-14.2704
▁क्फ	-14.2715
▁తౌ	-14.2717
▁ల్టా	-14.2723
▁দ্র্য	-14.2729
ਮੇਂ	-14.2736
▁न्डे	-14.2737
▁ন্ত্ব	-14.2739
லே	-14.2745
ক্ষা	-14.2748
▁ಟ್ಕ	-14.2751
▁ದ್ಮಾ	-14.2758
్రి	-14.2762
▁ట్య	-14.2765
▁ফ্ল্য	-14.2777
▁त्तं	-14.2795
प्त	-14.2799
্ডে	-14.2799
कं	-14.2804
▁ರ್ಫ	-14.2808
ಗೊ	-14.282
শু	-14.2834
▁ಲ್ಡಿ	-14.2839
▁ನ್ವೆ	-14.2839
▁ర్లీ	-14.285
▁ਮੌਂ	-14.2854
षे	-14.2855
▁ಸ್ತ್	-14.2858
▁வௌ	-14.2861
▁ಡ್ರೇ	-14.2888
बू	-14.2891
▁యౌ	-14.2895
▁ಲ್ಮೆ	-14.2897
্চু	-14.2934
▁ట్నా	-14.2936
▁న్యో	-14.2945
▁চ্চু	-14.2947
त्रा	-14.296
▁स्तै	-14.2991
క్	-14.2995
স্থা	-14.2996
ক্ষ	-14.3008
్రా	-14.3008
சூ	-14.3025
ल्म	-14.3026
यां	-14.3041
ిః	-14.3045
▁ন্ড্র	-14.305
▁च्या	-14.3051
बै	-14.3059
ष्ट्र	-14.3066
ाः	-14.3074
▁ಸ್ಟ್ಗ	-14.3096
ఒ	-14.3109
ಪೇ	-14.3124
▁বাৎ	-14.313
▁ষ্যা	-14.3132
▁ನ್ಲಾ	-14.3134
▁దః	-14.3147
नॉ	-14.3157
ਚੰ	-14.3159
▁ण्डो	-14.317
▁হ্লা	-14.318
मों	-14.3183
▁ಥ್ಯಾ	-14.3187
త్రి	-14.3188
र्मा	-14.3191
▁ক্টি	-14.3203
్డె	-14.3205
▁బ్లె	-14.321
ড়	-14.3225
ಟೆ	-14.3226
್ಕೋ	-14.323
హం	-14.3231
ਖੀ	-14.3236
▁ల్కొ	-14.3242
▁ಢಾ	-14.3242
▁क्स्ड	-14.3252
▁ರ್ರಿ	-14.3253
▁న్ము	-14.327
▁ত্না	-14.3272
▁प्पो	-14.3278
్నం	-14.3296
▁ಕ್ಚ	-14.3304
▁జ్ర	-14.3304
र्ष	-14.3315
ప్రా	-14.3321
▁ಜ್ಗ	-14.3327
డో	-14.3333
▁ಟ್ಸ	-14.3338
ਜ਼ੀ	-14.3339
▁ळा	-14.3339
्टा	-14.3345
▁ছেঃ	-14.3363
▁ल्फि	-14.3365
ದಂ	-14.3373
ਲੰ	-14.3387
▁ಯ್ಕ್	-14.3392
▁ಖೈ	-14.3397
ড়ি	-14.3398
ಘಾ	-14.3398
్రౌ	-14.3402
▁னுா	-14.3404
▁ల్టి	-14.3404
ಫೂ	-14.3426
ਮੱ	-14.3441
▁हाॅ	-14.3442
▁ಸ್ಕ್ಃ	-14.3448
▁ল্গু	-14.345
ಡೇ	-14.3458
▁ಲ್ಸ್ಗ	-14.3471
ధం	-14.3475
থ	-14.3487
দ্দু	-14.3501
▁బ్ల్య	-14.3501
▁ಫ್ಟ್ವ	-14.3502
▁म्फ	-14.3509
श्व	-14.3515
▁ರ್ತೃ	-14.3517
▁ज्जो	-14.352
लॉ	-14.3547
্ভূ	-14.3553
्चों	-14.3555
▁অা	-14.3564
▁ल्त	-14.3564
▁ভিং	-14.3568
▁చ్యు	-14.3568
ಮ್ಯಾ	-14.3569
▁ట్లై	-14.357
▁స్లీ	-14.3581
कां	-14.3585
▁स्त्व	-14.3593
▁ग्म	-14.3598
▁ಪ್ಲೈ	-14.36
▁ಚ್ನ	-14.3619
▁ন্নু	-14.3619
▁న్చా	-14.362
▁ಬ್ಗ	-14.3632
▁ನ್ಮೆ	-14.3638
वो	-14.3639
షా	-14.3647
लां	-14.3652
▁দ্ব্য	-14.3652
▁श्यू	-14.3665
ਟੋ	-14.3684
▁র্দ্দ	-14.369
ত্রে	-14.369
্	-14.3693
ਃ	-14.3693
ਬੋ	-14.3694
▁म्भो	-14.3696
▁वौ	-14.3701
ನೂ	-14.3702
▁ल्यो	-14.3706
ਰ੍	-14.3707
्यो	-14.3712
ग्र	-14.3715
▁ড্রি	-14.3721
कें	-14.3723
ಗೇ	-14.3723
▁স্লি	-14.3724
గం	-14.3743
২	-14.376
▁র্ব্বো	-14.3768
▁ग्रीः	-14.3771
▁ल्डो	-14.3775
್ಲಿ	-14.3782
ధ	-14.3783
▁ह्र	-14.3784
जॉ	-14.3784
ಕ್	-14.3786
क्ट	-14.3788
न्त	-14.3803
ಫೀ	-14.3804
▁র্জী	-14.3813
▁ర్రు	-14.3837
▁ಷ್ಟೊ	-14.3847
ಜೀ	-14.3853
সঃ	-14.3863
▁र्घ्य	-14.3872
্ট্রি	-14.3872
மோ	-14.388
▁ರ್ಲ್ಡ್	-14.3885
్బం	-14.3885
L	-14.3892
▁సుఁ	-14.3918
▁ಸ್ಟ್ರೈ	-14.392
ஜி	-14.3926
▁ন্ঠ	-14.394
▁ನ್ಪು	-14.3942
▁ప్పై	-14.3951
्नां	-14.3951
லீ	-14.3961
▁ಯೀ	-14.3961
▁ষ্পা	-14.3964
థై	-14.3973
▁ರ್ಲಾ	-14.3975
▁ಝೀ	-14.3981
▁ब्ज़	-14.3986
▁त्रः	-14.3997
▁स्थे	-14.4012
দঃ	-14.402
థ	-14.4026
च्छा	-14.4034
▁ಟ್ಟೋ	-14.4037
▁র্জ্য	-14.4038
▁র্দ্র	-14.4039
థా	-14.4044
क्यों	-14.4045
▁न्द्व	-14.4047
▁बॅ	-14.4051
▁ల్మె	-14.4054
▁ల్డి	-14.4055
তী	-14.4056
▁ట్స	-14.4066
ಮೊ	-14.4075
▁ಷ್ಮ	-14.4076
ఎం	-14.4078
▁వ్స్	-14.4081
▁ష్ర్టా	-14.4087
వ్యా	-14.4092
▁ಸ್ರೋ	-14.4094
▁ਧੈ	-14.4095
▁ష్ట్	-14.4099
ऑ	-14.4101
▁త్తై	-14.4101
▁र्पे	-14.4101
▁ग्यो	-14.4109
र्श	-14.4111
▁ర్తం	-14.4112
▁పః	-14.4116
खु	-14.4119
▁র্ষী	-14.4132
▁వ్వె	-14.4136
▁म्ति	-14.4154
਼ਿੰ	-14.4164
ਥਿ	-14.4166
▁ਞਾ	-14.4174
্তী	-14.4174
త్ర	-14.4187
▁ಡ್ವಾ	-14.4187
▁ब्बि	-14.4191
▁ష్పా	-14.4198
▁ఘ్న	-14.42
ধী	-14.4208
ప్లే	-14.4237
▁ಫ್ಲ	-14.4257
फ्रें	-14.4269
▁न्थो	-14.4288
▁ర్థ్	-14.429
▁वाः	-14.4296
చూ	-14.4312
ছ	-14.4314
▁ನ್ಷ	-14.4321
ఇం	-14.4346
சீ	-14.4348
▁ఢా	-14.4352
▁ಲ್ಫ್	-14.4365
▁ర్లె	-14.4367
ਛ	-14.4375
্ধি	-14.4392
ಸೀ	-14.4396
▁ನ್ವಾ	-14.4412
▁ష్మా	-14.4417
ట్రా	-14.443
ਸੱ	-14.4431
▁త్పు	-14.4439
श्री	-14.4448
हुं	-14.4457
্তঃ	-14.4458
స్తా	-14.4462
ಧ್ಯ	-14.4472
नौ	-14.4473
ಟೇ	-14.4473
టం	-14.4475
▁త్సు	-14.4485
▁ನ್ರ	-14.4486
▁स्यु	-14.4487
ज़	-14.449
ਚੋਂ	-14.4497
H	-14.4501
▁मेंः	-14.4505
▁ল্লো	-14.4506
▁ಡ್ಲ	-14.4511
▁నుః	-14.4516
▁ळी	-14.4544
▁ట్రు	-14.4549
ধি	-14.4549
श्य	-14.4552
కౌ	-14.456
▁র্স্ট	-14.4561
त्या	-14.4561
▁య్యు	-14.4581
▁ष्क्र	-14.4584
্দো	-14.459
▁ఛి	-14.4593
ख्य	-14.4602
▁ల్క్	-14.4606
్ని	-14.4608
ਸੈ	-14.4613
ದಿಂ	-14.4613
▁র্য্যা	-14.4614
▁क्षै	-14.4616
▁फ़्	-14.4617
▁ವ್ಲಾ	-14.4622
హి	-14.463
వ్య	-14.4643
▁ড্	-14.4644
್ಯ	-14.4651
▁ष्टो	-14.4654
▁ఝా	-14.4656
దం	-14.4657
ಕೀ	-14.4659
ਜੂ	-14.4672
ভ	-14.4673
▁ब्ज़ा	-14.4674
ফ	-14.4678
హె	-14.468
್ರ	-14.4688
▁ಟ್ಲಿ	-14.4704
▁द्घ	-14.4704
स्प	-14.4705
মো	-14.4706
▁র্মু	-14.4708
సె	-14.472
▁न्थि	-14.4724
▁श्मे	-14.4725
ట్టి	-14.4727
్నూ	-14.473
్లాం	-14.474
र्ज	-14.4743
▁ರ್ಟ್ಗ	-14.4751
G	-14.4754
▁ढें	-14.4755
फू	-14.4767
▁त्रां	-14.4767
ಶೀ	-14.477
▁బ్జ	-14.4774
▁ಥ್ರಿ	-14.4787
్వం	-14.4788
చ్చి	-14.4799
▁డ్రూ	-14.4799
▁र्टो	-14.4799
ದೀ	-14.48
▁न्नो	-14.4803
ஓ	-14.4804
దో	-14.4814
▁ध्	-14.4816
ध्या	-14.4823
▁జ్యు	-14.4824
त्य	-14.4829
▁ష్క్ర	-14.4836
್ಟೀ	-14.4855
్బా	-14.4864
▁శ్నా	-14.4877
গি	-14.4879
ಟ್ಟ	-14.4881
▁ल्क्य	-14.4881
ಟೀ	-14.4883
▁ণ্ণ	-14.4891
▁न्फ्ल	-14.4894
ట్లో	-14.4899
किं	-14.49
▁మ్లు	-14.4908
▁ह्यो	-14.4916
ವ್ಯ	-14.4917
▁ಸ್ಲ	-14.492
ஷ	-14.4921
▁ತ್ಥಾ	-14.4922
০	-14.4923
▁మ్రో	-14.4926
ठा	-14.4931
▁ಳ್ಕೊ	-14.4932
ಪೀ	-14.4936
्ये	-14.4942
पै	-14.4943
▁ధ్వా	-14.4945
▁ব্যি	-14.495
▁म्रो	-14.4951
▁ಖೀ	-14.4966
ಬ್ಬ	-14.4969
ড়ে	-14.4973
▁స్సె	-14.4984
▁ಯ್ತ	-14.4991
ವ್ಯಾ	-14.4992
▁லூா	-14.4994
ಖ	-14.5007
ਗੋ	-14.5014
▁న్ఫి	-14.5025
▁ਲ਼ਾਂ	-14.5025
▁టొ	-14.5041
▁ವ್ನ	-14.5049
▁ঢ্য	-14.5051
్లు	-14.5053
ਚੋ	-14.5057
▁तुः	-14.5059
▁ত্ম্য	-14.5061
ਕੂ	-14.5063
ष्ट	-14.5078
▁स्च	-14.5081
▁ट्ज़	-14.5099
▁ರ್ಡ್ಸ್	-14.5103
▁స్లాం	-14.5113
▁ద్గ	-14.5125
ದೂ	-14.5129
यं	-14.5131
್ಟು	-14.5135
▁ब्लो	-14.5139
ਨੋ	-14.514
▁গৈ	-14.5141
▁ಲ್ಮ್	-14.5162
▁వ్లా	-14.5168
ਖੋ	-14.5169
▁బ్రూ	-14.517
్మా	-14.5183
▁र्ज़ा	-14.5196
ভে	-14.5196
್ರೊ	-14.5235
ర్య	-14.5244
▁न्यौ	-14.5249
▁্য্যা	-14.5254
▁फ़्रा	-14.5254
▁न्दौ	-14.5255
శి	-14.5259
▁ఫ్ఘ	-14.526
▁प्यु	-14.5264
▁स्त्य	-14.5266
▁ष्फ	-14.5273
र्ग	-14.5288
▁ख्श	-14.5289
वृ	-14.529
சோ	-14.5294
్లి	-14.5311
▁क्तो	-14.5312
ದ್ರ	-14.5313
▁ल्डी	-14.5321
ਜਿੱ	-14.5321
▁न्स्ट	-14.5328
▁एंः	-14.5334
\	-14.5353
▁क्ते	-14.5359
▁ಭ್ರಾ	-14.5362
▁डः	-14.5364
ल्ली	-14.5368
▁ख्म	-14.5369
னே	-14.539
▁র্চি	-14.5392
చం	-14.5394
▁भ्यः	-14.5402
▁ष्णो	-14.541
▁ర్చె	-14.5423
▁ణై	-14.5426
గ్	-14.543
O	-14.5431
▁क्कु	-14.5434
▁ष्यो	-14.5436
▁ప్స	-14.5436
लं	-14.5444
▁স্ন	-14.5449
▁హ్నా	-14.5466
▁ణ్ని	-14.547
ক্তি	-14.5473
▁न्द्रो	-14.5477
▁స్థం	-14.5478
ಗೋ	-14.548
▁স্ক্যা	-14.5481
पं	-14.5487
கெ	-14.5488
ట్టు	-14.5497
బై	-14.55
▁त्सि	-14.5514
▁ट्ठि	-14.552
ਬੁ	-14.5526
ల్ల	-14.5535
▁ष्टु	-14.5538
ತ್ಯ	-14.554
▁य़ा	-14.5545
▁ರ್ಮೆ	-14.5551
▁ण्व	-14.5553
ক্ত	-14.5562
ख्या	-14.5579
त्रि	-14.5583
१	-14.5601
्थ	-14.5613
தூ	-14.5614
▁ర్షు	-14.5621
್ಡಾ	-14.5626
▁ஸௌ	-14.5626
▁త్రూ	-14.5626
▁ब्य	-14.5627
▁ण्णा	-14.563
▁ज्बे	-14.5648
▁డ్జ	-14.5656
▁্জ্জ	-14.5658
▁ರ್ಸ್ನ	-14.5658
ਯ	-14.5666
ತ್	-14.5677
▁ర్లి	-14.5677
ঘ	-14.5679
▁ನ್ಹ	-14.568
्मः	-14.5687
खू	-14.57
▁श्चे	-14.5708
ডি	-14.571
०	-14.5712
्जु	-14.5723
▁ಟ್ಮೆ	-14.5727
▁ರ್ತ್	-14.573
ஊ	-14.5731
நோ	-14.5731
্নি	-14.5734
▁क्खो	-14.5747
▁ప్తో	-14.576
ಕ್ಕ	-14.5768
▁స్గ	-14.5769
▁क्ज़	-14.5772
▁प्नो	-14.5785
▁ಸ್ತೇ	-14.5785
▁ల్ప్	-14.5796
घो	-14.5801
▁न्मो	-14.5805
క్కు	-14.5806
್ಸೆ	-14.5808
भु	-14.5809
టె	-14.581
▁ব্ন	-14.5812
▁ಕ್ರೌ	-14.5813
▁ల్సు	-14.5813
ਸਾਂ	-14.5819
ਘੱ	-14.5826
్కృ	-14.5831
▁क्ष्ण	-14.5853
स्टा	-14.5856
▁ष्व	-14.5861
ణా	-14.5863
▁ళ్లై	-14.5871
F	-14.5883
▁త్ఫ	-14.5892
ಫೊ	-14.5894
ਫੈ	-14.5899
▁మ్బ	-14.5899
▁గ్గె	-14.5904
प्रो	-14.5905
्रीं	-14.5906
্পো	-14.5918
থৈ	-14.5921
▁ట్ని	-14.5923
ঙ্গে	-14.5937
ষা	-14.5938
▁तैं	-14.5942
ਖੁ	-14.5944
நெ	-14.5959
್ಫಿ	-14.5971
▁బ్స్క్ర	-14.5973
▁ర్వె	-14.5976
▁ఖో	-14.5981
▁ర్గి	-14.5986
शो	-14.5994
▁న్లా	-14.6002
▁্দ্দ	-14.6004
ணு	-14.6007
▁ರ್ಲ್	-14.6015
▁ద్గా	-14.603
్ఫా	-14.6037
▁వుః	-14.6038
्खि	-14.6038
▁ರ್ಮೇ	-14.604
▁ರ್ವೀ	-14.6046
ধ্যে	-14.6056
ద్ద	-14.6063
्वं	-14.6074
▁ন্ত্য	-14.6082
⁄	-14.6085
త్త	-14.609
▁ফ্	-14.6092
स्थ्य	-14.6098
▁వ్యు	-14.6102
▁যৎ	-14.6108
फे	-14.6112
ತೆಃ	-14.6119
▁क्जे	-14.6121
ಚು	-14.6131
▁ड़ीं	-14.6142
ਬੈ	-14.6144
छो	-14.6146
ন্তু	-14.6152
टू	-14.6155
টু	-14.6158
ಭಿ	-14.6167
क्षि	-14.6169
బ్యా	-14.6172
▁న్డ్	-14.6175
▁কাঃ	-14.6178
ಬೊ	-14.6178
▁న్స్ఫ	-14.618
▁ग्व	-14.6186
కె	-14.6187
▁హ్రా	-14.6189
▁ತ್ರಂ	-14.6191
ভু	-14.6198
लें	-14.6201
▁ధః	-14.6212
▁चीः	-14.6229
மொ	-14.6234
▁थें	-14.6239
क्यू	-14.6241
▁भ्यो	-14.6248
▁ज़्म	-14.6251
ਮੂ	-14.6267
टो	-14.6272
శం	-14.6304
▁श्नः	-14.6307
व्या	-14.6314
▁ವ್ರು	-14.6315
K	-14.6315
▁ರ್ಚ್ನ	-14.6323
▁ల్రా	-14.6327
▁র্হি	-14.633
▁ಚ್ಗ	-14.6342
▁ಶ್ಮ	-14.6347
యిం	-14.6359
▁ষ্টু	-14.6361
▁ಲ್ದ	-14.6365
▁शिः	-14.6366
▁షై	-14.638
ه	-14.6381
తూ	-14.6381
్	-14.6387
यी	-14.6387
ਪਿੰ	-14.6398
▁క్యో	-14.6402
▁ম্ফ	-14.6405
▁క్సే	-14.6421
तै	-14.6442
ರೊ	-14.6456
਼ਾਂ	-14.6469
गां	-14.6475
▁র্ব্য	-14.6476
ਸ਼ਾਂ	-14.6481
▁র্ঘা	-14.6489
லோ	-14.6489
ಗ್ಗೆ	-14.6491
ತೇ	-14.6506
लू	-14.6507
ಚೆ	-14.6509
▁स्ब	-14.6514
ర్తి	-14.6523
▁স্ত্	-14.6527
▁क्तिः	-14.6544
শী	-14.6552
▁రాః	-14.6553
्यः	-14.6555
▁र्त्ति	-14.6561
▁त्ख	-14.6561
▁ङ्क्ष	-14.6561
ఫె	-14.6566
▁ಬ್ಸ	-14.6571
▁స్ట్రె	-14.6576
त्म	-14.6585
▁ష్ఠం	-14.6587
চ্ছে	-14.6593
▁బ్స్	-14.6596
▁ల్వి	-14.6596
▁தௌ	-14.6599
కొం	-14.6601
▁ల్సా	-14.6601
ఖా	-14.6608
V	-14.6609
▁ज़ः	-14.661
▁ಜೃ	-14.6621
থি	-14.6627
▁ನ್ರಿ	-14.6635
ಫ್ಯೂ	-14.6638
▁ಟ್ರೂ	-14.6643
▁ਟਿ੍	-14.6646
ದೈ	-14.6653
▁म्भू	-14.6654
▁హ్ని	-14.6654
▁ఫ్రై	-14.6655
ਕ੍	-14.6656
▁ದ್ಭಾ	-14.6668
▁ಸ್ಕ್ರ	-14.6678
▁बः	-14.6678
▁ర్ష్	-14.6681
ফে	-14.669
ప్రై	-14.6721
▁ర్హా	-14.6721
▁ಲ್ಗಾ	-14.6729
▁న్బ	-14.6748
ਵੈ	-14.6756
▁র্দু	-14.6767
▁ರ್ಫಿ	-14.6775
रां	-14.6776
▁र्ग्र	-14.6789
▁ষ্ট্রা	-14.6805
र्या	-14.6817
▁గః	-14.6818
ਥੀ	-14.6828
▁न्ध्र	-14.6854
கீ	-14.6861
▁ರ್ಕ್ಸ್	-14.6861
▁హ్వ	-14.687
কী	-14.6871
তৃ	-14.6872
মূ	-14.6872
▁स्खे	-14.6875
वें	-14.6877
್ಲೊ	-14.6888
कू	-14.6891
▁ఘీ	-14.6894
ডা	-14.6902
్ధం	-14.6928
▁త్మ్య	-14.6931
▁ళ్లో	-14.6931
ढ़ा	-14.694
▁भः	-14.6941
యాః	-14.6955
▁ত্রো	-14.6959
ल्स	-14.6959
ਬੂ	-14.6972
త్వం	-14.6972
ਕੌ	-14.6973
▁क्षः	-14.6982
ஐ	-14.6988
र्क	-14.699
▁क्तं	-14.6991
ਦਿੰ	-14.7015
▁र्थे	-14.702
▁র্ডিং	-14.7021
चिं	-14.7022
ज्या	-14.7045
▁ल्ड्र	-14.7046
▁र्रे	-14.7049
न्या	-14.7052
▁ट्स्क	-14.7072
फै	-14.7072
▁గ్మె	-14.7073
▁ಫೂ	-14.7076
్యు	-14.7082
ಖಾ	-14.7104
ಬೈ	-14.7117
▁ರ್ಾ	-14.7132
ভূ	-14.714
▁స్యు	-14.7143
ਪੁੱ	-14.7156
్యః	-14.7159
ரீ	-14.7159
श्र	-14.7166
டே	-14.717
▁ర్స్మ	-14.7172
ಪ್ರಾ	-14.7174
▁ಸ್ಪ್ಯಾ	-14.718
▁ఫ్టి	-14.7192
్పు	-14.7195
కై	-14.72
▁ద్ధే	-14.7212
థ్యా	-14.7217
▁जीः	-14.7228
ਟਾਂ	-14.7234
ফি	-14.7242
झा	-14.7244
▁न्त्रा	-14.726
ಟ್ಮೆ	-14.7269
ಷ್ಟ	-14.7278
▁ਫ਼ੂ	-14.7283
▁త్యో	-14.7286
▁ಣ್ತು	-14.7287
▁फ़्र	-14.7288
▁క్కై	-14.7311
▁ख़्वा	-14.7333
ਗੂ	-14.7336
▁गीः	-14.7339
▁ದ್ಗ	-14.7345
দ্বি	-14.7346
ন্ন	-14.7347
হে	-14.7347
▁ట్కి	-14.7354
▁न्था	-14.7368
್ಜಿ	-14.7376
लिं	-14.7384
र्त	-14.7396
▁धिः	-14.7397
▁ಡ್ವ	-14.7403
পো	-14.7411
সী	-14.7414
ಳ್ಳ	-14.7424
যূ	-14.743
▁স্ক্র	-14.7435
ਹਿੱ	-14.7444
▁ल्डे	-14.745
डॉ	-14.7455
ಯೇ	-14.7456
▁ವುಃ	-14.7462
▁ग्यु	-14.7468
▁দ্বৃ	-14.7473
ਟੈ	-14.7482
ಗ್	-14.7484
▁न्श	-14.7484
ಕ್ರ	-14.7487
▁প্লু	-14.7487
స్కు	-14.7487
न्द्र	-14.7498
पृ	-14.7506
▁ख्शा	-14.7522
ணா	-14.7523
র্থ	-14.7524
বৃ	-14.7525
▁ಣ್ಮು	-14.7527
ಗೌ	-14.7527
▁ట్లె	-14.7535
ద్ర	-14.7536
ਜੁ	-14.7541
▁ವ್ಸ್	-14.7557
▁ర్ల్	-14.7558
▁ಷ್ನ	-14.756
್ಗಾ	-14.7561
றே	-14.7561
ದ್ಧ	-14.7566
▁శ్శా	-14.7567
ಲ್ಲಾ	-14.7573
▁ರ್ಕ್ಗ	-14.758
▁ढों	-14.759
▁ಜ್ಯು	-14.7601
दें	-14.7604
▁ಣ್ವ	-14.7606
▁ట్న	-14.7631
ತ್ರಿ	-14.7631
▁यै	-14.7636
▁र्बे	-14.7637
▁ह्व	-14.7637
▁र्तो	-14.7646
ಪ್ರೀ	-14.7653
▁ರ್ಿ	-14.7657
▁प्सा	-14.7659
▁ध्द	-14.766
▁ন্ধ্যে	-14.7661
▁শুঁ	-14.7663
▁ಠೀ	-14.7663
▁देंः	-14.767
ਜੰ	-14.7681
జూ	-14.7687
▁ম্না	-14.7691
्गो	-14.7697
▁ష్వ	-14.7699
▁ಲ್ಕ್	-14.7705
▁ਢੂ	-14.772
ব্যা	-14.7722
వెం	-14.7727
▁ম্ভ্র	-14.7732
▁మ్తో	-14.7753
▁च्	-14.7759
▁प्च	-14.7764
▁ग्गि	-14.7776
ਐੱ	-14.7783
▁र्ट्ज	-14.7788
▁सेः	-14.78
▁माः	-14.78
▁नीः	-14.7811
|	-14.7811
ट्स	-14.7813
ডে	-14.7816
▁ಗ್ನೆ	-14.7821
▁భ్	-14.7824
ధ్యా	-14.7824
▁लेंः	-14.7843
▁ਜ਼ੌ	-14.785
ত্রী	-14.7855
▁స్త్రు	-14.7857
▁ल्फ़	-14.786
▁ধৌ	-14.7861
ਟ੍	-14.7867
▁గ్గొ	-14.7868
ਵੰ	-14.787
▁ম্ল	-14.7873
ਫੀ	-14.7877
శు	-14.7877
▁జ్లు	-14.788
ಟ್ಟು	-14.7886
ಟ್ರೋ	-14.7893
್ಕೌ	-14.7894
र्टी	-14.7901
▁ర్హి	-14.7903
ਖਾਂ	-14.7905
▁ಶ್ನ	-14.7908
▁न्मी	-14.7911
ಥಿ	-14.7919
▁ಣೈ	-14.7933
तं	-14.7938
ಗ್ರಾ	-14.794
▁ಸ್ತ್ಯ	-14.7944
ರ್ವ	-14.7948
▁ఠ్య	-14.7954
▁ಭ್ರೂ	-14.7959
▁జ్వే	-14.7963
्द	-14.7978
క్ర	-14.7985
▁न्के	-14.7991
భి	-14.7996
ोंः	-14.8016
▁রৈ	-14.8017
▁ঘ্রা	-14.8017
▁న్కా	-14.8019
▁न्डि	-14.8021
ছু	-14.8022
▁हॅ	-14.8034
▁ণ্যা	-14.8034
▁र्म्म	-14.8035
র্য	-14.8037
త్	-14.8038
▁ಪ್ಸಿ	-14.804
▁ক্তো	-14.8042
▁न्सु	-14.8047
▁ल्ट्स	-14.8054
জী	-14.8057
शों	-14.8064
▁ষ্মা	-14.8066
టుం	-14.8072
டெ	-14.8076
తొ	-14.8085
सै	-14.8107
স্ব	-14.8108
লু	-14.8111
▁স্ত্রি	-14.8114
ಕ್ಃ	-14.8114
▁ట్ప	-14.8115
▁ष्पि	-14.8116
ন্দ	-14.8121
ರ್ಷ	-14.8123
▁ఞ్చ	-14.8128
ఫ్రా	-14.8132
▁ಲ್ಸ್ನ	-14.8143
▁ప్తే	-14.8143
್ಬಿ	-14.8167
਼ੌ	-14.8176
भे	-14.818
▁ద్ధ్య	-14.8185
▁ਠੈ	-14.8198
▁न्टै	-14.8214
▁ర్వై	-14.8219
ಟ್ರಿ	-14.8235
▁డ్న	-14.8236
▁మ్న	-14.8241
யூ	-14.8254
ঠা	-14.8256
ಏ	-14.8258
▁गेः	-14.8259
▁ठू	-14.8261
ਜੈ	-14.8261
▁ह्	-14.8279
स्वी	-14.8287
ದ್ಯ	-14.8312
▁హ్యూ	-14.8312
▁ಟ್ರು	-14.8312
త్యా	-14.8318
డ్రా	-14.8321
▁ইঃ	-14.8321
ਵੀਂ	-14.8328
▁గ్నీ	-14.8337
▁డ్కి	-14.8337
न्द	-14.8346
झ	-14.8351
▁ಟ್ಲೆ	-14.8358
▁డ్త	-14.836
▁జౌ	-14.8364
▁ಶ್ನಾ	-14.8366
▁न्ट्रे	-14.8383
পৃ	-14.8385
ਛਾ	-14.8387
్దే	-14.8397
▁ಳ್ಕ	-14.8403
▁ल्मे	-14.8428
ਲੂ	-14.844
ਚੱ	-14.845
▁द्भि	-14.8451
▁ত্রৈ	-14.8452
▁ಲ್ಹಾ	-14.8453
j	-14.8462
స్పె	-14.8473
▁శ్యు	-14.8477
▁ङ्घ	-14.8478
ಷ್ಟು	-14.848
▁ష్ట్రు	-14.8483
▁ক্কু	-14.8483
ధిం	-14.8485
▁ద్ధీ	-14.8486
▁స్యే	-14.8491
▁স্ট্য	-14.8494
্ব্বে	-14.8506
▁র্মো	-14.8509
्नों	-14.8517
▁న్ఫ్ల	-14.8521
▁क्ने	-14.8523
▁ಸ್ಲೀ	-14.8528
ధ్య	-14.8532
▁र्ला	-14.8556
▁ত্রঃ	-14.856
ஈ	-14.8561
▁ನ್ಪ್ಲ	-14.8567
ಸಿಂ	-14.8569
జో	-14.857
గ్రే	-14.8602
ಳೂ	-14.8606
▁ಝೆ	-14.8609
స్థా	-14.8613
▁ట్జ	-14.8615
▁గ్భ్రా	-14.862
▁ర్త్డే	-14.8621
ष्य	-14.8627
▁র্গো	-14.8633
द्या	-14.8633
▁प्ड	-14.8637
▁వౌ	-14.8639
ಳ್ಳು	-14.8653
স্ত	-14.8657
ವೋ	-14.866
▁ফ্ট	-14.8674
्याः	-14.8676
्पों	-14.868
▁ಡ್ರೀ	-14.8691
▁ప్సి	-14.8694
▁నాః	-14.8697
▁ಸ್ಕೀ	-14.8701
▁फ्रो	-14.8705
▁ప్రౌ	-14.8713
▁लीः	-14.8716
ಬೀ	-14.8721
▁ష్ము	-14.8727
ణం	-14.8727
▁भ्	-14.8729
▁డ్గ	-14.8751
▁ఙ్క	-14.8751
▁డ్రం	-14.8755
டோ	-14.8756
್ರಂ	-14.8756
জু	-14.8769
ত্ব	-14.8779
ಹೌ	-14.8782
▁ನ್ಪಿ	-14.8801
▁স্ফা	-14.8805
ਰਿੰ	-14.8823
▁र्त्स	-14.8828
्कु	-14.8833
ਸ੍	-14.8835
पां	-14.8835
▁ల్గే	-14.8835
গ্র	-14.8838
ரெ	-14.8851
▁ದ್ಲಾ	-14.8852
▁ভ্	-14.8853
ಕ್ತಿ	-14.8859
▁ঞ	-14.8859
ক্ষে	-14.886
ਛੋ	-14.8865
▁ಡ್ಮ	-14.8874
್ಕೃ	-14.8876
্বু	-14.8883
▁য়াৎ	-14.8887
▁थः	-14.889
್ರಿ	-14.8902
क्वा	-14.8915
▁ర్ఛ	-14.8916
U	-14.8921
▁लाॅ	-14.8924
ఖ	-14.8924
ష్మీ	-14.8928
ಡ್ರಾ	-14.8933
্জী	-14.8938
▁तेः	-14.8968
ਲੈਂ	-14.897
▁క్స్డ్	-14.8975
▁ग्ण	-14.8981
चो	-14.8982
्शा	-14.8983
▁फॅ	-14.899
णि	-14.899
▁ರ್ಮ್ನ	-14.8994
్సి	-14.9008
థి	-14.9013
బే	-14.9017
▁హ్రీ	-14.9025
ಡೋ	-14.9029
▁ञ	-14.903
▁స్త్య	-14.9038
▁त्तु	-14.9042
▁ಟ್ವೆ	-14.9055
షిం	-14.9062
য়ো	-14.9063
▁నంః	-14.909
▁ಷ್ಟ್	-14.9092
खों	-14.9099
ఛా	-14.9101
▁హ్యు	-14.9103
▁ফ্র্যা	-14.9104
▁ড়্গ	-14.9106
▁ಬ್ಸ್	-14.9114
▁మ్స	-14.913
्जे	-14.9133
▁ಠ್	-14.9137
▁ళ్తూ	-14.9152
़ी	-14.9161
ਫੋ	-14.9162
्डि	-14.9163
▁ழூ	-14.9168
ట్ః	-14.9168
▁ఫ్స్	-14.9169
భూ	-14.9172
हू	-14.9179
▁ব্জি	-14.9186
्ने	-14.9189
గ్రా	-14.9201
▁ఫ్ట	-14.9212
▁ग्धा	-14.9217
▁ल्ग	-14.9217
త్రం	-14.9224
▁क्तः	-14.9241
▁న్స్ట్ర	-14.9242
ঠি	-14.9244
றோ	-14.9246
W	-14.9254
▁ರ್ಹಿ	-14.9265
▁ರ್ಗು	-14.9266
▁ಕ್ಬ	-14.9268
द्धि	-14.9279
▁ల్మి	-14.928
ஜா	-14.9287
▁টঃ	-14.9292
▁ঢ়া	-14.9295
▁ల్పే	-14.93
र्च	-14.9302
ర్వ	-14.9308
వృ	-14.9315
್ನ	-14.9322
ਨੌ	-14.9329
▁र्हि	-14.9335
बॉ	-14.9341
▁ಮ್ನಿ	-14.9343
ਗਾਂ	-14.9347
ধে	-14.9351
్ఘా	-14.9351
▁त्सो	-14.9363
▁ব্যো	-14.9371
▁ಲ್ಫಾ	-14.9372
▁ಯ್ಲೆ	-14.9373
▁स्यू	-14.9373
▁ರ್ಪೆ	-14.9373
▁విూ	-14.9379
झे	-14.9391
▁ढै	-14.94
▁డ్వి	-14.9402
▁ः	-14.9408
▁ಕ್ಸ್ಗ	-14.9421
रै	-14.9427
ল্যা	-14.9436
▁ళ్లె	-14.9441
్కౌ	-14.9444
▁फ़्ल	-14.9445
▁र्ध्य	-14.9477
್ಮೋ	-14.9478
्दि	-14.9479
ಷ್ಣ	-14.9485
खी	-14.949
ਬ੍	-14.9492
ਕੇਂ	-14.9492
ಟ್ರಾ	-14.9517
स्टे	-14.9534
्जा	-14.9538
ಸ್ಥ	-14.9541
▁హెూ	-14.9549
▁ಗ್ಗಃ	-14.9555
ಪ್ರೈ	-14.9561
షు	-14.9564
ফা	-14.9564
▁ಮ್ಲಾ	-14.9567
▁హొ	-14.9572
▁ఖ్యు	-14.9577
▁न्स्क	-14.9578
टां	-14.9581
चौ	-14.9582
చ్చు	-14.9583
फॉ	-14.9585
జ్	-14.9586
▁গ্ল	-14.9598
ಕ್ತ	-14.9609
్టే	-14.9611
़ीः	-14.9621
స్వా	-14.9622
▁మ్చ	-14.9622
ಸ್ಪ	-14.9628
ತೋ	-14.9633
న్యా	-14.9653
ਟਿੰ	-14.9655
ಪ್ಪ	-14.967
▁ల్కె	-14.9671
्में	-14.9678
▁ಟ್ಕಾ	-14.9701
▁র্হ	-14.9702
▁ರ್ನಂ	-14.9705
ಥಾ	-14.9705
శ్రీ	-14.9706
▁सीः	-14.9711
बैं	-14.9711
▁హ్ర	-14.9711
▁ల్కో	-14.9722
మ్	-14.9723
ম্যা	-14.9723
్ప్లే	-14.9728
्च	-14.9732
▁ব্দা	-14.9739
्ज़ा	-14.974
▁স্ট্রী	-14.9741
घा	-14.9745
গো	-14.9749
▁ಕ್ರು	-14.9754
▁टोः	-14.9755
▁ల్గో	-14.9756
▁त्कु	-14.9767
▁জ্	-14.9773
डों	-14.9773
್ಕೆ	-14.9782
▁ಝು	-14.9787
్నో	-14.9789
గూ	-14.9791
▁श्ड	-14.9797
▁म्प्ल	-14.9801
ਤਿੰ	-14.9803
ষ্ট	-14.9805
खो	-14.9807
▁ल्हू	-14.9816
▁ల్చె	-14.982
ిఁ	-14.9825
ਢ	-14.9837
▁ङ्ख	-14.9843
छे	-14.9849
প্রে	-14.9856
ತೂ	-14.9858
z	-14.9865
तौ	-14.9869
্যৈ	-14.9872
ಶೋ	-14.9873
मॉ	-14.9879
▁ರ್ಪ್	-14.9881
్కీ	-14.989
ऊ	-14.9894
ख्यि	-14.9907
ਨੰ	-14.991
▁స్డ్	-14.9912
ਣਾਂ	-14.9917
▁ರ್ಟೂ	-14.9928
▁ಸ್ಕೊ	-14.9929
▁ন্ঠে	-14.993
ಸ್ಟಾ	-14.9932
नू	-14.9932
्न	-14.9937
▁ರ್ಣೋ	-14.9948
▁ల్వ్	-14.995
್ತೇ	-14.9951
్రో	-14.9955
क्ले	-14.996
ట్ల	-14.9967
স্বা	-14.9974
నై	-14.9976
ਭੂ	-15
▁किः	-15.0006
▁ज़्ज़	-15.0011
▁క్ష్మా	-15.0012
▁జ్జ్వ	-15.0023
गं	-15.0051
▁ಗ್ವ	-15.0058
▁ల్న	-15.0063
ನ್ನೂ	-15.0065
కాం	-15.0072
ಸ್ವ	-15.0072
श्चि	-15.0082
▁பூா	-15.0088
▁न्टा	-15.0095
▁ర్శ్వ	-15.0107
দ্রী	-15.0108
▁र्पू	-15.0121
ঘা	-15.0124
▁ఛీ	-15.0129
▁चः	-15.0132
▁ಕ್ಟ್ರ	-15.0134
ಜ್ಯ	-15.0135
भो	-15.0146
▁ప్ర్ర	-15.0154
▁र्गः	-15.0156
▁প্স	-15.0163
ట్ట	-15.0163
ఫి	-15.0184
ಶೇ	-15.0187
▁గ్నె	-15.0198
फ़ि	-15.0204
▁ষ্ট্	-15.0205
್ಸ್ಃ	-15.0208
▁ಪ್ಸ	-15.0209
್ಲು	-15.0221
ष्टि	-15.0235
▁লৈ	-15.0238
▁ज्ज़	-15.024
ज़्ड	-15.0243
▁र्तु	-15.0245
▁कीः	-15.0251
▁ర్ద్ర	-15.0251
వో	-15.0266
▁ల్డ్క	-15.0268
ধু	-15.0282
▁ట్టఁ	-15.0283
డ్డి	-15.0286
लु	-15.0286
▁ক্ষ্মা	-15.0292
▁ఘ్	-15.0292
্নো	-15.0298
ਤੂ	-15.0304
▁ర్ణే	-15.0307
్స	-15.0313
▁र्त्य	-15.032
▁ಷೀ	-15.0321
▁থ্	-15.0322
▁लॅ	-15.0331
▁দ্গ	-15.0337
▁स्प्लि	-15.0338
ళ	-15.0342
▁ಡ್ಕೊ	-15.0346
ಪ್ರೇ	-15.0353
▁ರ್ಲ್ಯಾ	-15.0363
ೀಂ	-15.0365
▁చ్చీ	-15.0384
▁ङ्म	-15.0387
▁श्चै	-15.0388
ಟಿಃ	-15.039
स्य	-15.0393
▁ಡ್ಲೆ	-15.0404
▁র্ত্য	-15.0408
▁క్స్ను	-15.041
হু	-15.041
▁ర్ఘా	-15.0426
ಕೌ	-15.0443
ਣਿ	-15.0444
টো	-15.0444
ಸ್ವಾ	-15.0446
ত্ত	-15.0457
▁য়েৎ	-15.046
▁प्सि	-15.0464
್ವೋ	-15.0466
त्	-15.0472
జై	-15.0473
णी	-15.0491
ಘ	-15.0492
ਭਿ	-15.0494
ब्स	-15.0523
▁ঞ্ঝ	-15.0524
్పే	-15.055
्धि	-15.0556
▁ಬ್ಯ	-15.0557
▁ड्ग	-15.0559
▁ర్యే	-15.056
▁న్జ	-15.0562
▁ষ্ফ	-15.0564
ठी	-15.0564
▁न्ध्य	-15.0564
▁म्प्ट	-15.058
್ಟೊ	-15.0588
▁क्ष्मा	-15.0588
▁म्प्ला	-15.0599
▁হ্ণ	-15.06
▁త్కి	-15.0601
ल्या	-15.0602
ளே	-15.0608
▁न्ट्र	-15.0612
బె	-15.0612
ల్లా	-15.0613
র্যা	-15.0627
▁ষ্টো	-15.0627
▁ਉੁ	-15.0633
ਠੀ	-15.0635
▁డ్లై	-15.0636
हिं	-15.0637
म्ब	-15.0637
্বৃ	-15.0642
▁ట్జ్	-15.0645
▁थेः	-15.065
▁ష్ను	-15.065
▁ग्ट	-15.0656
▁ವ್ವಾ	-15.0683
्रिं	-15.069
्प	-15.0691
▁ಜ್ರಾ	-15.0694
▁ಸ್ಟ್ರ	-15.0707
ক্র	-15.072
வோ	-15.0721
▁ब्ने	-15.0724
ਭੇ	-15.0725
२	-15.0725
नै	-15.0735
ಚ್ಚಿ	-15.0735
▁ಪ್ಪೊ	-15.0747
ஜ்	-15.0762
्था	-15.0769
्म्स	-15.0771
▁ద్యే	-15.0779
▁శ్లీ	-15.0782
ళ్ల	-15.0782
్య	-15.0783
▁ল্ব	-15.08
హౌ	-15.0805
▁ಲ್ಕೊ	-15.0807
শ্ব	-15.0808
▁ష్టే	-15.0814
▁द्धः	-15.0817
▁బ్లు	-15.0821
্গ	-15.0823
ழா	-15.0841
आं	-15.0841
जां	-15.0843
రొ	-15.0845
ద్వా	-15.0856
▁ఫ్టు	-15.086
▁णाः	-15.0862
▁ల్కే	-15.0862
▁స్ః	-15.0864
స్టా	-15.0869
ర్టీ	-15.0871
ਦਾਂ	-15.0872
x	-15.0878
ধ্য	-15.0878
▁ন্ত্র্য	-15.0887
त्ति	-15.0891
ಸ್ಥಾ	-15.0896
▁త్స్వ	-15.0896
ড	-15.0899
़ा	-15.0901
▁ਿੋ	-15.0916
ಚ್ಚು	-15.0934
ಸ್ಟೇ	-15.0948
ఘా	-15.0959
▁ರ್ಮ್ಗ	-15.096
▁ರ್ಲ್ಸ್	-15.0965
▁प्थ	-15.0968
್ಮ	-15.097
ਧੇ	-15.0971
▁ర్బ్	-15.0979
▁చః	-15.0979
▁డ్పి	-15.0982
మ్మ	-15.0986
▁ক্কি	-15.099
৩	-15.0992
▁अि	-15.1008
್ಕಾ	-15.101
ਔ	-15.101
லூ	-15.1012
ಕ್ಯಾ	-15.1012
ದ್ದೇ	-15.1014
਼ਾ	-15.1014
▁ష్కి	-15.1015
ರ್ಕಾ	-15.1017
▁ಲ್ಫ	-15.1017
ਤੋ	-15.1018
▁ర్స్టా	-15.1022
ज़ै	-15.103
▁षाः	-15.104
▁ढ्य	-15.1047
▁ತ್ಕು	-15.1055
▁ದ್ಲು	-15.1057
▁र्द्धा	-15.1059
▁न्फ़	-15.106
▁मंे	-15.1063
ষি	-15.1065
▁क्त्वा	-15.1065
▁छौ	-15.1065
▁న్ది	-15.1068
క్తి	-15.1078
▁ల్వీ	-15.1079
▁స్స్వ	-15.1087
ದೋ	-15.1093
র্ম	-15.1105
स्तु	-15.1109
▁ಧ್ವಾ	-15.1112
नं	-15.1116
▁ణ్యు	-15.1118
▁त्वो	-15.112
ಣಾ	-15.1121
ਵਿੰ	-15.1126
ਭੀ	-15.1131
▁ఙ	-15.1136
ণা	-15.114
▁ಡ್ಃ	-15.1148
▁ಗ್ರೌ	-15.1154
ਮ੍	-15.1158
ਧੂ	-15.1164
ਛੱ	-15.1174
▁ಲ್ಪೆ	-15.118
ಟೊ	-15.1182
ਨੈ	-15.1188
्गा	-15.1201
स्या	-15.1202
్వి	-15.1204
৫	-15.1204
ज़ी	-15.1212
जों	-15.1215
▁য়োঃ	-15.1219
▁खाः	-15.1224
র্ণ	-15.1226
మ్యా	-15.1229
▁क्ष्या	-15.1243
ਛੇ	-15.1248
▁ক্লী	-15.1252
▁న్తు	-15.1256
▁ক্ট্র	-15.1258
ಶು	-15.1258
▁జ్డ్	-15.126
್ತು	-15.1265
▁र्जों	-15.1279
م	-15.128
▁জ়	-15.1292
్షా	-15.1297
ম্প	-15.1316
త్య	-15.1326
ಲೌ	-15.1328
▁ರ್ಧ್ವ	-15.1338
್ಸಿ	-15.1356
्हों	-15.1373
ত্য	-15.1387
ದೊ	-15.1398
▁ణ్ణు	-15.1404
▁ਢੈ	-15.1408
চু	-15.1408
▁জ্যৈ	-15.1409
ঠ	-15.1412
్కి	-15.143
ಷೆ	-15.1445
▁న్తా	-15.1446
▁टीः	-15.1447
थ्य	-15.1455
▁ర్ప్	-15.1466
షం	-15.1467
▁थ्स	-15.1481
▁గ్స్ట	-15.1483
▁స్క్ర	-15.1486
ਥਾਂ	-15.1494
▁ಗ್ಮಾ	-15.1495
ख़ि	-15.1496
▁డ్లా	-15.1496
ي	-15.1529
▁ন্ত্	-15.1531
▁ਲੀਂ	-15.1532
▁ল্ফ	-15.1544
▁ঞ্	-15.1551
్తీ	-15.1552
ਜੋਂ	-15.1554
னோ	-15.1555
न्यू	-15.1556
▁ಕ್ಲೆ	-15.1557
▁প্রু	-15.1559
ਹੂ	-15.1572
▁তেঁ	-15.1579
్టా	-15.1587
▁ষ্প্র	-15.1592
णों	-15.1593
స్ను	-15.1593
్వ	-15.1607
▁ళ్య	-15.1611
▁त्स्व	-15.1637
ਫ਼ੀ	-15.1637
ಶ್ರೀ	-15.1637
▁క్రైం	-15.1637
▁চ্চৈ	-15.1638
ਚੁ	-15.1645
▁खः	-15.1649
্প	-15.1655
▁ಗ್ಲೇ	-15.1657
్థా	-15.1658
▁बीः	-15.1677
▁त्त्वो	-15.1682
ఓ	-15.1682
਼ੀ	-15.1683
▁ರ್ದ್ರ	-15.1687
▁ద్నా	-15.1695
▁प्तो	-15.1696
▁ರ್ಫ್	-15.1704
▁ರ್ಹಾ	-15.1705
्दू	-15.1708
▁ಪ್ಷ	-15.1711
గ్ర	-15.1721
▁ত্থ	-15.1733
▁ಸ್ಕ್ಗ	-15.1734
▁र्टः	-15.174
स्कू	-15.1747
्क	-15.1748
ಥೆ	-15.1748
▁ल्फे	-15.1753
▁మ్లం	-15.1766
▁ర్లూ	-15.1768
र्दे	-15.1769
सां	-15.1773
▁न्डी	-15.1775
లౌ	-15.1778
్టు	-15.1779
▁ಮ್ಸ್ನ	-15.1787
▁ष्ट्रा	-15.1794
ট্রা	-15.1804
▁ర్పె	-15.1808
▁न्द्	-15.1816
स्क	-15.1816
ಫೆ	-15.1819
▁ष्टे	-15.1828
ेः	-15.1832
খি	-15.1835
▁ल्ख	-15.1835
▁ಸ್ಮೆ	-15.1835
▁ಖ್ತ	-15.1838
్హౌ	-15.1848
▁గెం	-15.185
பீ	-15.1855
▁न्क	-15.1856
▁র্চ্চ	-15.1864
গ্রা	-15.1867
द्य	-15.1871
ত্যা	-15.1878
▁ಥ್ರೋ	-15.1889
ಜ್	-15.1891
ਜ਼ਿੰ	-15.1894
▁ప్తూ	-15.1897
टों	-15.1899
▁ఫ్గ	-15.1903
न्	-15.1905
ష్	-15.191
ঙ্গ	-15.1911
ग्री	-15.1916
▁ల్ఫ	-15.1916
▁ವ್ರಿ	-15.1924
ਘਾ	-15.1947
▁প্পি	-15.1966
▁స్వై	-15.1967
্গি	-15.1972
प्ता	-15.1977
நு	-15.199
ಳಾ	-15.1991
्धों	-15.1993
▁ತ್ಗ	-15.1995
▁ड्यो	-15.1998
ਗੰ	-15.2009
৪	-15.2028
▁ష్టీ	-15.2037
▁ফেঁ	-15.2039
्विं	-15.2039
▁ఫూ	-15.2042
▁न्वा	-15.2045
ర్యా	-15.2048
ल्ले	-15.2062
ర్శ	-15.2064
▁চ্	-15.2072
▁స్ట్మె	-15.2075
▁न्क्ल	-15.2075
্যূ	-15.2078
्ष्या	-15.2083
▁ಸ್ಬ	-15.2083
ఫ	-15.209
▁డ్డె	-15.2092
గ్రౌ	-15.2095
▁ಬ್ಜ	-15.2103
ड़ि	-15.2105
▁ढ़ीं	-15.2112
▁र्स्क	-15.2125
▁ন্ড্রু	-15.2131
ಶ್	-15.2133
▁स्बो	-15.2137
্য্যো	-15.2139
ਜਿੰ	-15.214
ਠਾ	-15.2143
▁ಠ್ಠ	-15.2144
▁न्ट्स	-15.2151
्प्स	-15.216
ीः	-15.2173
ल्प	-15.2174
▁ల్వు	-15.2177
▁হৌ	-15.2185
क्श	-15.2188
▁ಟ್ಸ್ನ	-15.2192
▁त्स्या	-15.2193
▁ढ़ः	-15.2204
▁గ్ధు	-15.2214
डो	-15.2214
▁ర్ఖు	-15.2216
ट्रो	-15.222
▁जि़	-15.2221
▁टि्व	-15.2228
▁ल्श	-15.2235
स्ते	-15.2237
্তো	-15.2238
ಫೈ	-15.224
সো	-15.2246
▁ওঃ	-15.2251
▁র্দ্ধা	-15.2252
রূ	-15.2254
ರ್ಗ	-15.2256
▁గ్కి	-15.2259
யெ	-15.226
యొ	-15.2263
▁वॅ	-15.2265
టై	-15.2266
ಗ್ರ	-15.2275
▁ర్ట్న	-15.2283
டீ	-15.2285
ట్ఫో	-15.2292
ఫై	-15.2294
▁శ్ల	-15.2294
▁ন্য়	-15.2301
न्तु	-15.2306
ಕ್ಷಿ	-15.2308
್ಡೆ	-15.2321
▁న్ప్ల	-15.2328
▁ఫ్ట్వ	-15.2333
▁ಟ್ಲಾ	-15.2333
ಪ್	-15.2348
▁ಡ್ಜ	-15.2355
▁গ্না	-15.2356
▁ट्वे	-15.2365
দ্র	-15.2366
▁च्छृ	-15.238
▁फ़्रे	-15.2386
్పో	-15.2389
త్వ	-15.2393
দ্ধে	-15.2396
హో	-15.24
న్స్	-15.2404
গী	-15.241
▁काे	-15.2414
स्थ	-15.2418
▁क्भ्	-15.2419
▁யோா	-15.2422
▁ङ्गो	-15.2427
▁ण्	-15.2438
▁ఙ్	-15.2444
▁ಕ್ಡ್	-15.2449
ল্লা	-15.2453
्मो	-15.2461
நூ	-15.2469
षों	-15.247
्दी	-15.2471
ನ್ಯ	-15.2472
▁ಯ್ಯಿ	-15.2475
ఫ్లి	-15.248
▁ನ್ಸ್ಟ	-15.2484
▁ग्घ	-15.2484
ర్మ	-15.249
క్షా	-15.2491
▁दाः	-15.2493
ਝਾ	-15.2497
খু	-15.2498
ਫੇ	-15.25
ਠੇ	-15.2515
ರ್ಥಿ	-15.2519
▁ठः	-15.2521
▁ಸ್ಕ್ರಾ	-15.2526
प्रिं	-15.2534
স্তা	-15.2541
త్స	-15.2541
त्ये	-15.2546
हूं	-15.2557
ష్ట్ర	-15.2578
▁ದ್ದೊ	-15.258
ম্ব	-15.258
ರ್ಯಾ	-15.2582
म्मी	-15.2589
ಪೊ	-15.2603
్యుఁ	-15.2605
▁న్స్ల	-15.2609
▁ನ್ಲಿ	-15.2627
గొ	-15.2633
▁ध्वा	-15.2634
▁ప్పూ	-15.2636
▁ధౌ	-15.2641
▁క్స్ప	-15.2644
प्रै	-15.2647
र्ता	-15.2653
্ব	-15.2653
▁றாா	-15.2654
र्फ	-15.2657
▁न्ड्र	-15.2657
ತ್ವ	-15.2659
▁षं	-15.2667
▁म्ब्र	-15.2673
▁ग्मा	-15.2677
ಣ್ಣ	-15.2686
িঁ	-15.269
ಚಂ	-15.2693
▁स्थै	-15.2693
▁ళ్ళై	-15.2703
ర్వా	-15.2703
▁গ্লি	-15.2707
ర్త	-15.2726
▁ದ್ವೆ	-15.2729
দ্ধ	-15.2731
र्मि	-15.2732
्तिः	-15.2768
▁ರ್ನ್ಸ್	-15.2772
तू	-15.2775
▁न्स्की	-15.2778
್ನೋ	-15.2783
ದ್ದಿ	-15.2783
▁শ্চে	-15.2798
জ্ঞা	-15.2801
ಸ್ಥೆ	-15.282
▁র্ফ	-15.2824
▁ಗ್ಲು	-15.2826
स्का	-15.2827
त्ता	-15.2858
బూ	-15.2875
ದ್ಯಾ	-15.2879
=	-15.2885
▁र्मः	-15.2888
▁্থ	-15.2888
ర్ల	-15.289
्ते	-15.289
▁ర్భు	-15.2891
্পী	-15.2902
ವೃ	-15.2903
्शी	-15.2903
್ರು	-15.2915
▁ల్టె	-15.2917
▁ఢు	-15.2918
▁ಕ್ಟ್ನ	-15.2921
థః	-15.2936
▁ಶ್ಲ	-15.2937
▁ರ್ಟೈ	-15.294
▁ಲ್ಚಿ	-15.2941
▁ह्नों	-15.2942
ਿਾ	-15.2949
▁హ్ల	-15.295
ధు	-15.2953
▁ল্পো	-15.2955
▁న్ద్ర	-15.2957
ज़ा	-15.2959
▁ట్లి	-15.2964
্র	-15.2968
्ज़े	-15.2969
▁ख़्श	-15.2969
ర్లు	-15.2978
ਰੁੱ	-15.2983
▁লূ	-15.2991
ਜ਼ੋ	-15.2994
▁ಗ್ಯು	-15.2997
▁న్త్	-15.2999
▁श्क़	-15.3
▁ద్బ	-15.3009
ਵੋ	-15.3011
ల్లి	-15.3012
▁ధ్ధ	-15.3014
ద్	-15.3016
ధ్యం	-15.3016
▁ल्सा	-15.3017
▁ধ্যু	-15.3026
▁क्स्ट्र	-15.3029
▁ವ್ಗ	-15.3036
▁ల్ది	-15.3038
▁क्ख्	-15.3049
▁న్స్డ్	-15.305
▁ರ್ಬೆ	-15.307
▁స్ట్ల	-15.3077
▁జ్లి	-15.3101
ఖ్య	-15.3102
▁पाॅ	-15.3111
స్ప	-15.3118
▁நௌ	-15.3118
सौ	-15.3121
▁ಕ್ಫ್	-15.3128
ष्ठ	-15.3143
▁फ्स	-15.3148
▁क्न	-15.3155
ಖ್ಯ	-15.3172
ਮੁੰ	-15.3178
▁ಟ್ಟೊ	-15.3187
ಲ್ಲೆ	-15.3191
س	-15.3193
र्थि	-15.3198
▁न्टो	-15.321
ಪ್ರೆ	-15.3211
▁ख्तू	-15.3213
कौ	-15.3222
▁బ్ధా	-15.323
▁ಲ್ಚ	-15.3237
▁माॅ	-15.324
▁ट्र्स	-15.3246
ಐ	-15.3249
▁ਬੋਂ	-15.3259
▁क्सः	-15.326
ਤੰ	-15.3272
ಭೂ	-15.3272
▁ర్ఖా	-15.3288
యె	-15.3295
च्च	-15.3299
ষ্টি	-15.3305
ন্ধ	-15.3306
್ಡಿ	-15.332
▁ಲಾಃ	-15.3321
द्धा	-15.3334
▁ರ್ರಾ	-15.3335
▁ಹ್ಯು	-15.3346
▁व्स्क	-15.3362
▁ন্ধ্র	-15.3375
▁ర్న్స్	-15.3379
స్థ	-15.3391
▁म्बै	-15.3398
ಮ್	-15.3404
ప్	-15.3406
▁ర్వ్య	-15.3408
ಶೂ	-15.3409
▁జ్భ	-15.3414
▁డ్కొ	-15.3416
र्ति	-15.3428
नें	-15.3428
ಕ್ಕಿ	-15.3446
ಲಂ	-15.3456
ट्र	-15.3481
▁ಗ್ದ	-15.3481
▁ರ್ಣೇ	-15.3484
ಸೊ	-15.3485
स्पे	-15.3488
▁র্ঝ	-15.3499
੧	-15.3502
ਜ਼ਾਂ	-15.3506
▁ನ್ಕು	-15.3514
▁প্ল্য	-15.3528
▁্ণ	-15.3536
▁ಲುಂ	-15.354
▁ల్ఫా	-15.3549
▁ನ್ಸ್ಗ	-15.3551
ತ್ತೆ	-15.3554
▁தீா	-15.3563
హు	-15.3564
▁ಢ್ಯ	-15.357
▁णै	-15.3583
धु	-15.3587
ఛే	-15.3594
স্থি	-15.3595
▁ల్టో	-15.3597
गें	-15.3602
ਲੁ	-15.3604
वों	-15.3604
ఘ	-15.3606
స్త	-15.3607
▁வூா	-15.3609
▁ఝు	-15.3618
್ಟ್ರಾ	-15.3628
▁ರ್ಛ	-15.3635
▁स्यां	-15.3636
▁थीः	-15.3636
ತೊ	-15.3661
র্বা	-15.3668
▁র্যাং	-15.3674
▁ত্ত্য	-15.3677
್ಟಿ	-15.3685
్షీ	-15.3687
ಫ	-15.3704
▁ದ್ಬ	-15.3719
ਭੋ	-15.3722
్నే	-15.3731
▁ನ್ಸ್ಟೆ	-15.3732
▁ಡ್ಲ್ಯಾ	-15.3734
▁క్త్వా	-15.3737
▁బ్య	-15.3746
J	-15.3749
ਹੌ	-15.3751
▁డ్చే	-15.3752
హీ	-15.3754
ग्य	-15.3756
స్యా	-15.3759
ਡਾਂ	-15.3772
▁ರ್ಜೇ	-15.3775
ট্যা	-15.3776
ঠে	-15.3777
్ఛా	-15.3778
▁ರ್ಸ್ಟಾ	-15.3782
%	-15.3785
▁ज्ञि	-15.3789
▁न्डो	-15.3793
வொ	-15.3808
▁স্ট্	-15.3811
▁ర్ధ్వ	-15.384
্ণ	-15.3844
▁श्ल	-15.3848
ন্ট	-15.3848
▁క్డ్	-15.3856
▁क्षाः	-15.3864
স্য	-15.3867
तः	-15.388
▁क्खु	-15.3882
▁ఢ్య	-15.3885
▁ெெ	-15.3897
ى	-15.3899
্গু	-15.3909
ట్లా	-15.3926
▁ಡ್ಸ	-15.3932
হী	-15.3933
ਡੋ	-15.3944
త్తు	-15.3956
▁స్క్ల	-15.3958
యంః	-15.3958
▁त्क्ष	-15.3963
च्चों	-15.3971
्ल	-15.3974
়া	-15.3978
▁స్క్రా	-15.3982
ਗੈ	-15.3986
थो	-15.3996
▁च्वा	-15.3999
उं	-15.4006
▁ल्ज	-15.4014
▁स्वो	-15.402
▁ढ़ेः	-15.4027
क्रे	-15.4028
▁డ్బ్యా	-15.403
▁ಡ್ಬ್ಯಾ	-15.403
▁ज्ञः	-15.4031
ஹா	-15.4039
▁స్థై	-15.4046
ರ್ಣ	-15.4048
▁న్స్ట	-15.4054
▁ಗ್ಸ್ಗ	-15.406
స్వ	-15.4067
ब्रि	-15.4077
▁ರ್ತ್ಯ	-15.408
प्रि	-15.4083
స్ప్రె	-15.4084
▁टॅ	-15.409
ಜೊ	-15.409
र्चा	-15.4096
*	-15.4111
ರ್ಥ	-15.4113
▁ম্নি	-15.4121
▁జ్మ	-15.4129
▁न्ज़	-15.4134
▁ಗ್ಬ	-15.4137
ল্প	-15.4141
▁ञ्	-15.4146
▁ద్న	-15.4151
▁जाः	-15.4153
ক্রা	-15.416
র্ত	-15.4175
▁प्ते	-15.4176
▁ష్యే	-15.4206
್ತೂ	-15.4208
▁ర్ధ్య	-15.4211
ভো	-15.4216
▁ಕ್ಸ್ಪ	-15.4218
▁व्यः	-15.4224
ప్పా	-15.4233
ल्ड	-15.4238
್ದೀ	-15.424
▁న్ఫా	-15.4242
▁ಚ್ಯಾ	-15.4249
ಜ್ಞಾ	-15.4254
्शे	-15.4258
▁मॅ	-15.4276
▁ನ್ಶ	-15.4305
ఐ	-15.4307
ತ್ಯಾ	-15.4308
ದ್	-15.431
৮	-15.4318
▁ళై	-15.4321
▁र्ट्ज़	-15.4324
ஷா	-15.4324
▁ಕ್ರೀಂ	-15.4324
▁म्भु	-15.4331
▁స్లె	-15.4331
▁ಕ್ಸ್ಟ್	-15.4332
▁ఠే	-15.4336
▁त्यू	-15.4338
త్వా	-15.4339
▁हॅू	-15.4341
ন্দ্র	-15.4344
▁ಜ್ಮ	-15.4355
ਸੈਂ	-15.4365
னெ	-15.4369
స్తూ	-15.4377
्ध	-15.4381
▁ন্দ্যে	-15.4385
त्पा	-15.4389
▁ద్ధో	-15.4396
়	-15.4405
▁ਹੰੁ	-15.4412
टें	-15.442
యై	-15.442
▁క్ట్ర	-15.4423
▁ఙ్ఞ	-15.4426
त्मा	-15.4429
ఘృ	-15.4437
দো	-15.4438
▁స్మె	-15.4438
చ్చా	-15.4451
द्दे	-15.4457
खें	-15.4459
್ಲೆ	-15.4461
्ची	-15.4468
ಚ್ಚ	-15.4474
▁న్డి	-15.448
▁ట్నీ	-15.4486
ಸ್ಕ್ರೀ	-15.4489
হো	-15.449
শো	-15.4493
▁स्प्र	-15.4494
▁ಗ್ನಾ	-15.4496
్వో	-15.4504
್ವೈ	-15.4505
्मु	-15.4506
▁ণ্	-15.4507
স্	-15.4509
▁క్స్ల	-15.4517
▁ब्वा	-15.4518
▁భ్రు	-15.4524
फ्ता	-15.4526
▁ङ्गे	-15.4528
▁स्दी	-15.4533
সিং	-15.4533
▁ष्ठु	-15.4535
చో	-15.4535
म्प	-15.4538
त्सा	-15.4539
್ನೆ	-15.4549
▁ణ్వ	-15.4561
▁న్లే	-15.4565
▁స్త్వ	-15.4567
▁ಟ್ಟಿಃ	-15.4574
Y	-15.4583
ణి	-15.4585
▁ಲ್ಪ್	-15.4586
స్ట్	-15.4587
▁ਙੂ	-15.4605
ক্ষি	-15.4611
್ಗು	-15.4618
▁স্খ	-15.4624
ন্ত্রী	-15.4628
▁ర్శా	-15.4638
▁ਢੌ	-15.464
▁ట్స్మ	-15.4645
್ಮೇ	-15.4652
▁ज्जे	-15.466
ਖ਼ਾ	-15.466
▁তেঃ	-15.4665
ಜೋ	-15.4675
चं	-15.4681
৬	-15.4693
▁त्ज	-15.4695
३	-15.4699
৭	-15.4707
▁नुः	-15.4707
▁र्ग्य	-15.4708
▁త్య్రా	-15.4713
▁லௌ	-15.4721
র্ব	-15.4723
్షం	-15.4733
స్తోం	-15.4751
▁स्सो	-15.4752
च्चे	-15.4758
తః	-15.4761
▁य़	-15.4761
స్తే	-15.4762
धे	-15.4768
▁ణ్ను	-15.477
▁য়ৈ	-15.4771
▁త్నీ	-15.4786
▁ण्ह	-15.4787
▁স্ত্য	-15.4789
खं	-15.4792
गू	-15.4797
▁व्ये	-15.4811
लौ	-15.4812
శ్వ	-15.4817
▁త్రః	-15.4821
▁ర్త్య	-15.4825
్న	-15.4825
ಪೈ	-15.483
▁థః	-15.483
▁న్హ	-15.4832
▁স্যো	-15.4834
्सा	-15.484
ਮਿੰ	-15.4841
ोः	-15.4843
ట్రి	-15.4857
षी	-15.4857
▁ಞ	-15.4862
ಳ್ಳಿ	-15.4865
तें	-15.4891
▁ಖ್ಖ	-15.4893
फ़	-15.4902
▁ష్వా	-15.4906
▁గ్నా	-15.4909
▁క్త్ర	-15.4926
▁త్ర్యా	-15.4941
ಖೆ	-15.4947
ಲ್ಪ	-15.4955
ಕ್ಕಾ	-15.4959
ಸ್ತ	-15.4964
স্ট	-15.4966
▁జ్గా	-15.4972
्बो	-15.4973
▁ਞੀ	-15.4974
ష్ట	-15.4975
▁ళ్దా	-15.4979
▁క్మా	-15.4981
▁ನ್ಬಿ	-15.4985
▁प्वॉ	-15.4988
ਪਿੱ	-15.4995
▁ಡ್ಕೋ	-15.5006
▁द्धिः	-15.5009
▁र्कः	-15.5016
वॉ	-15.5021
ਜ਼ੇ	-15.5024
वीं	-15.5026
ण्ड	-15.5031
▁क्कू	-15.5032
थों	-15.5035
▁ర్ఘ్య	-15.5046
▁ష్ఫ	-15.5047
▁ಲ್ಸಾ	-15.5064
ਯੁ	-15.5066
ತ್ತೇ	-15.5068
ಥ್	-15.5078
▁ರ್ವೈ	-15.5091
▁न्हां	-15.5092
▁ಸ್ವೇ	-15.5097
्धी	-15.5104
ಭೆ	-15.5109
ర్ణ	-15.5112
ಲ್ಲೇ	-15.5124
▁ਡ਼ਿ	-15.5129
ಡ್ಡ	-15.5129
న్ను	-15.5144
▁ల్ఫి	-15.515
ద్యా	-15.5159
▁लेः	-15.5169
▁त्नो	-15.5175
చ్	-15.5178
▁र्क़	-15.518
▁त्मे	-15.518
స్థి	-15.5189
র্শ	-15.5193
త్రా	-15.5199
చ్చ	-15.5206
ನ್ನೆ	-15.5216
▁ಕ್ಟ್ಗ	-15.5216
▁त्स्न	-15.5221
త్తి	-15.5227
ষ্ঠা	-15.5232
দ্বা	-15.5238
द्यो	-15.5243
▁ल्पो	-15.5251
[	-15.526
▁र्व्व	-15.5262
্ট্রে	-15.5269
्ड्स	-15.527
स्ट्रे	-15.528
ஷி	-15.529
▁ತ್ಕ್ಷ	-15.5295
▁চ্ছৃ	-15.5297
गै	-15.5297
জো	-15.5298
ಗ್ರೆ	-15.5298
वां	-15.53
మాం	-15.5301
▁ब्दः	-15.5311
డై	-15.5312
▁খৈ	-15.5313
▁শ্রূ	-15.5316
द्रि	-15.5317
▁ದ್ಧ್	-15.5318
ರ್ಮ	-15.5323
▁फ़्फ़	-15.5326
▁র্জিং	-15.5327
र्वा	-15.5329
हॉ	-15.5342
್ಹಾ	-15.5343
▁ಸ್ಲ್ಯಾ	-15.5343
ज़ि	-15.5356
ತ್ಮ	-15.5356
ప్రీ	-15.5365
६	-15.5368
ঞি	-15.537
्लि	-15.5372
▁थ्र	-15.5375
▁ಡ್ವೆ	-15.5376
▁ಭ್ಯು	-15.5389
▁ಫ್ಲೇ	-15.539
ಣು	-15.539
య్య	-15.5394
▁ರ್ರೆ	-15.5408
హై	-15.5408
ஞா	-15.5412
ন্ত্র	-15.5419
विं	-15.5421
▁स्सू	-15.5424
▁র্চ্চা	-15.5428
స్య	-15.543
▁ರ್ಷ್	-15.5454
गौ	-15.5459
]	-15.5464
▁వ్ల	-15.5468
शं	-15.5475
ਚੌ	-15.5483
ಯೊ	-15.5488
ভী	-15.5495
్యై	-15.5502
▁న్గ	-15.5509
▁ಲ್ಗು	-15.5514
্কো	-15.5527
ಸ್ಥಿ	-15.5537
▁म्ड	-15.5554
▁ರ್ಕು	-15.5562
দ্ধা	-15.5569
स्सा	-15.5573
▁ज़्ब	-15.5578
▁ర్ల్స్	-15.5579
ಹೈ	-15.5589
ਬੈਂ	-15.5609
▁ర్క్ల	-15.5619
ణీ	-15.562
▁త్పి	-15.5622
ਤ੍	-15.5634
▁क़्क़	-15.5642
ಚೇ	-15.5657
▁কোঁ	-15.5658
ਐਂ	-15.5661
▁ष्ठो	-15.5662
न्म	-15.5662
यि	-15.5685
▁జ్కి	-15.57
ਨਿੱ	-15.571
▁ल्वो	-15.5711
দৃ	-15.5715
▁श्तो	-15.572
जिं	-15.5721
▁ಕ್ರ್ಯಾ	-15.5727
ಫ್ಲಿ	-15.5734
ట్టా	-15.5737
▁म्प्	-15.5756
ಗ್ಯ	-15.5756
ಗಃ	-15.5758
▁ణ్మ	-15.5763
▁द्दु	-15.5765
▁డ్పు	-15.5767
ঞ্জ	-15.578
ప్లా	-15.5784
्टि	-15.5785
ప్పి	-15.5785
▁ద్బా	-15.5787
ರೌ	-15.5788
स्त्र	-15.5796
దృ	-15.5804
म्	-15.5812
್ಯೆ	-15.5815
▁क्स्प्	-15.582
श्वा	-15.5822
र्ती	-15.5833
▁र्द्व	-15.5835
ड़ों	-15.5844
रिं	-15.5856
▁ఠు	-15.5857
▁ੋ	-15.5876
ಕ್ಕೂ	-15.5883
லெ	-15.5883
प्ला	-15.5883
श्च	-15.5883
▁గ్వ	-15.5893
म्म	-15.5898
শ্র	-15.5901
न्ध	-15.5902
ಸ್ತು	-15.5904
्युं	-15.5906
गृ	-15.5915
ಫ್	-15.5915
्भि	-15.5918
▁స్త్యు	-15.5921
ਰੋਂ	-15.5928
प्ले	-15.5932
▁ర్డ్ల	-15.5935
್ಕಿ	-15.5938
య్యా	-15.5954
वु	-15.5956
ਸ਼ੋ	-15.5958
ৰ	-15.597
ਭੁ	-15.598
▁ನ್ಸ್ಟ್ರ	-15.598
সূ	-15.5989
▁ಡ್ಗಿ	-15.599
सों	-15.599
ಸ್ಗೆ	-15.5994
▁క్మ	-15.5998
▁త్ల	-15.5998
▁ದ್ಕ	-15.6001
ల్యా	-15.6026
▁स्थो	-15.603
▁ಹ್ವ	-15.6031
▁న్ప్లే	-15.6032
▁ಘೇ	-15.6032
▁স্ল	-15.6035
▁ल्दो	-15.6045
लै	-15.6049
▁క్రౌ	-15.6051
▁ఘే	-15.6059
▁व्ड	-15.6078
▁ಡ್ತ	-15.6082
ि़	-15.6085
ಕ್ಷೆ	-15.6086
▁ಸ್ಡ್	-15.6088
▁న్ధ	-15.6101
▁र्सः	-15.6117
़ि	-15.6123
▁क्क्	-15.6124
ਪੈਂ	-15.6136
প্ত	-15.6138
▁त्क्र	-15.6141
ब्र	-15.6166
▁ఫ్లే	-15.6166
অ্যা	-15.6173
ద్య	-15.6193
म्मा	-15.6194
▁ग्भ	-15.6205
್ರೆ	-15.6207
▁ਸ਼਼	-15.6216
़ू	-15.622
▁ಯೆಃ	-15.6227
ಸ್ಯ	-15.6228
▁ಸ್ರೂ	-15.6239
ద్ధ	-15.6239
▁మ్భ	-15.6253
शां	-15.6262
প্যা	-15.6263
ठि	-15.6274
ਮਿੱ	-15.6275
▁ಸ್ಪ್ರಿ	-15.6279
्ज	-15.6284
्सों	-15.629
টিং	-15.6297
ஹ	-15.6304
▁స్ట్స్	-15.6309
ಟ್ಯಾ	-15.631
▁ಪ್ಶ	-15.6319
్యాః	-15.6319
ತ್ರೆ	-15.6319
స్క్రీ	-15.6322
▁ब्बो	-15.6322
▁্দ্ধা	-15.6323
క్ట	-15.6329
▁ళ్ళె	-15.6332
▁म्प्स	-15.6334
▁క్న	-15.6339
▁ন্যো	-15.6343
▁య్యొ	-15.6344
त्प	-15.6348
খ্যা	-15.6358
ਸੌ	-15.6364
▁व्यूः	-15.6368
▁ర్ప్ర	-15.6369
ఫ్	-15.637
थीं	-15.6373
▁ह्मी	-15.6378
్స్మె	-15.6387
▁శొ	-15.6387
▁ఘ్ను	-15.6388
▁ণৈ	-15.6389
স্থ	-15.6391
▁र्डा	-15.6407
▁क्फ्	-15.6408
▁ढ्ढ	-15.6419
ర్మా	-15.6419
▁ఠ్యా	-15.6424
▁ళె	-15.6425
ஞ	-15.6428
▁স্প্রি	-15.6442
▁ल्ड्रे	-15.6445
▁డ్బ	-15.6447
च्छी	-15.6452
▁ర్తై	-15.6452
४	-15.6454
▁দ্রী	-15.6457
ठे	-15.6462
್ಪಿ	-15.6469
▁న్స్ః	-15.6471
ঞা	-15.6471
▁न्त्रो	-15.6473
स्	-15.6477
▁ట్టై	-15.6481
▁చ్మె	-15.6482
ਥੋਂ	-15.6484
▁ನ್ಬ	-15.6495
▁ళాం	-15.6498
▁త్వో	-15.6503
ਫ਼ਾ	-15.6506
▁ग्ज़	-15.6509
▁ह्यौ	-15.6518
▁స్న	-15.6518
ெெ	-15.6529
▁ন্ট্র	-15.6534
प्री	-15.6535
▁న్ట	-15.655
्तौ	-15.6554
▁च्छो	-15.6558
▁प्यो	-15.6564
▁र्फे	-15.6565
▁र्शो	-15.6567
ஸி	-15.6568
▁न्याः	-15.6583
▁स्तः	-15.6588
छी	-15.6595
र्भ	-15.6606
షీ	-15.6616
ल्कि	-15.6618
ट्रै	-15.6647
▁ల్డ్స్	-15.6656
▁ষ্ণো	-15.6657
प्या	-15.6665
▁ਲ਼ੋ	-15.6673
▁গ্ধা	-15.6673
ಸ್ಟ್	-15.6677
ষ্টা	-15.6694
▁బ్రు	-15.6699
▁र्षे	-15.6725
▁త్థ	-15.673
ا	-15.6738
క్రా	-15.6741
्वो	-15.6745
▁ర్స్బ	-15.6748
స్టై	-15.6755
ರ್ಶ	-15.6762
ளோ	-15.6763
▁ष्ट्रो	-15.6764
▁ಲ್ಡ್ನ	-15.6769
▁ర్ఫ్	-15.6769
▁ట్లొ	-15.6777
▁డ్తా	-15.6786
ত্রা	-15.6788
▁र्सो	-15.6792
▁ಘೈ	-15.6793
्पे	-15.6794
কিং	-15.6796
़े	-15.68
బ్ర	-15.68
▁தூா	-15.6801
▁త్యై	-15.6802
ਸੁੱ	-15.6805
▁డ్లూ	-15.6805
ಠ	-15.6821
▁फ़्लै	-15.6829
ফো	-15.6833
र्न	-15.6838
▁ಫ್ಟ	-15.6848
▁ర్శ్	-15.6864
▁ಯ್ಲ	-15.6871
్ల	-15.6875
र्द	-15.6875
▁ರ್ಗೊ	-15.6887
▁र्पा	-15.6889
▁డ్బా	-15.6894
▁మ్ప	-15.6897
▁द्व्य	-15.6897
▁ನ್ಲೆ	-15.6899
ণ্ড	-15.6903
য়ী	-15.6912
స్ట	-15.6913
्णा	-15.6918
पॉ	-15.6924
म्मे	-15.6934
ਥੋ	-15.6937
▁ఛ్	-15.6945
▁క్పా	-15.6946
▁ల్తు	-15.6948
▁య్స్	-15.6953
ಓ	-15.6955
ಶೈ	-15.6965
ক্যা	-15.6978
ರ್ಮಾ	-15.6978
▁జ్జె	-15.6981
క్లో	-15.6984
చీ	-15.6987
▁డ్చా	-15.7
ల్సి	-15.7006
′	-15.7006
▁ळि	-15.7011
र्टि	-15.7025
५	-15.7047
▁ਙਾ	-15.7049
▁ফ্ফ	-15.7058
टै	-15.7059
ಶೆ	-15.7059
ನ್ನಾ	-15.7063
ணீ	-15.7067
ਹੰ	-15.7072
್ಫ್ರೆ	-15.7073
▁స్బ	-15.7078
ब्ध	-15.7091
▁భ్మ	-15.7125
ణు	-15.7137
▁ब्न	-15.7144
▁னூா	-15.7149
ವೂ	-15.7149
శీ	-15.7151
ರ್ತಿ	-15.7155
र्र	-15.7171
ದ್ಧಿ	-15.7175
਼ੱ	-15.7179
▁ల్వె	-15.7182
▁కుః	-15.7192
▁ত্মো	-15.7192
▁पॅ	-15.7193
▁క్స్ఫ	-15.72
स्कृ	-15.7205
ళ్లు	-15.7208
▁ರ್ನೊ	-15.7216
▁णैः	-15.7216
▁ఫ్రో	-15.7218
చ్చే	-15.7219
र्षों	-15.7221
্জা	-15.7224
▁র্ক্স	-15.7228
क्रा	-15.7247
▁ర్భూ	-15.7258
ल्ला	-15.7264
ਸ਼ੂ	-15.7264
ट्रि	-15.7265
▁र्ट्रे	-15.7269
ਖੰ	-15.7278
्छा	-15.7306
क्क	-15.7322
त्ती	-15.7323
్చు	-15.7327
▁న్యుఁ	-15.733
ಡೀ	-15.7333
श्रा	-15.7334
▁ளூா	-15.7344
ब्रा	-15.7346
▁न्त्व	-15.7347
▁గ్ద	-15.7349
ब्द	-15.7353
ట్రం	-15.7369
▁ण्यो	-15.7378
▁ల్ప్ర	-15.7382
क्री	-15.7386
ஸ	-15.7404
ಫ್ರಾ	-15.7409
चै	-15.7413
हं	-15.7413
್ನು	-15.7428
ंः	-15.7435
గ్గ	-15.7436
▁ರ್ಡಾ	-15.744
▁টং	-15.7455
మ్స్	-15.7471
▁न्यः	-15.7482
ঞ্চ	-15.7489
▁ण्टो	-15.7494
र्था	-15.7516
▁घौ	-15.7518
వ్వ	-15.7524
▁ত্প	-15.7527
▁త్సి	-15.7534
स्टॉ	-15.7553
ম্ম	-15.7557
▁म्ही	-15.756
ರ್ನಾ	-15.7563
ట్రీ	-15.7571
ట్యా	-15.7573
▁త్స్న	-15.7579
▁ष्पो	-15.7581
▁ಲ್ಮ್ಸ್	-15.7583
▁ण्ठि	-15.7583
्पि	-15.7594
শ্য	-15.7622
▁ల్ట్స్	-15.7622
ਫੁੱ	-15.7635
ಭ್ಯ	-15.7636
ণী	-15.7647
্তা	-15.7648
▁క్వై	-15.7652
▁ಫ್ರ್ಯಾ	-15.7657
দ্যা	-15.7658
▁খ্	-15.7659
▁तैः	-15.7663
▁म्ला	-15.7681
ಟ್ಟೆ	-15.7684
▁र्डः	-15.7685
▁र्पों	-15.7689
▁ছ্যা	-15.7689
ళి	-15.7689
్సు	-15.7697
▁ಫ್ಗ	-15.7701
ట్ను	-15.7702
▁प्तः	-15.7707
▁ప్ని	-15.7715
▁यांः	-15.7715
▁অ্য	-15.7729
▁त्तः	-15.7746
ম্পা	-15.775
▁ಷ್ಕ್ರ	-15.7757
ರ್ತ	-15.7768
▁त्स्क	-15.7781
డూ	-15.7787
्थी	-15.7789
▁शाः	-15.7792
ত্তি	-15.7796
▁ग्ड	-15.7796
ಸ್ತಾ	-15.7799
షో	-15.7801
्ताः	-15.7802
ढ	-15.7819
▁देः	-15.7824
স্প	-15.7826
਼ੰ	-15.7845
ద్ధి	-15.7849
त्नी	-15.7851
▁र्भो	-15.7853
ರ್ಭ	-15.7856
ర్స్	-15.7858
ಪ್ಪಿ	-15.7866
ਬਿੰ	-15.7878
▁ಟ್ಫ	-15.7901
్మ	-15.7906
▁ल्मि	-15.7912
ದೃ	-15.7914
स्टो	-15.7916
▁हींः	-15.793
থ্য	-15.7945
ஹி	-15.7958
▁क्त्र	-15.797
▁ಟ್ಸ್ಗ	-15.7973
ਪੌ	-15.7976
ट्रा	-15.7977
▁ನ್ಕ	-15.7985
▁ಕ್ತು	-15.7988
তঃ	-15.7988
్రు	-15.7994
▁ಗ್ಭ್ರ	-15.7997
ರ್ಟ್	-15.8
▁ష్ఠీ	-15.8005
ফূ	-15.8005
▁ষ্ক্র	-15.801
▁ನ್ಫೆ	-15.8013
▁ష్క్	-15.8015
ਟੂ	-15.8019
स्ती	-15.8022
▁क्ब्	-15.8022
್ಲ್ಯಾ	-15.8025
▁ष्ट्य	-15.8034
্শ	-15.8042
▁ल्सः	-15.8046
▁న్నొ	-15.8061
ਤੂੰ	-15.8069
▁ड्डो	-15.8072
్కో	-15.8082
ਿ੍	-15.809
धू	-15.8096
र्धा	-15.8098
্ত্রী	-15.8102
ਫ਼ਿ	-15.8105
▁ద్వ్య	-15.8107
▁ಯ್ಡ್ಗ	-15.8113
త్యే	-15.8119
त्का	-15.812
జం	-15.8125
▁तोः	-15.8126
త్మ	-15.8127
క్యా	-15.8131
▁ಬ್ರೀ	-15.8133
▁ਫਿ਼	-15.8136
▁న్టు	-15.8149
▁ಣ್ತ	-15.8157
▁ணீா	-15.8162
▁म्फि	-15.8172
ఫ్లో	-15.818
ಷ್ಟ್ರ	-15.818
ల్పె	-15.8182
#	-15.8185
▁श्छ	-15.8186
ర్ప	-15.8195
▁ల్నే	-15.8211
▁ख्यो	-15.8214
ವ್	-15.8219
ন্ড	-15.8227
्डा	-15.823
ಪೆ	-15.8248
▁ন্নো	-15.8254
ীঃ	-15.8257
న్లో	-15.826
▁ಸ್ಕ್ನ	-15.826
्तु	-15.8268
ਸੁੰ	-15.8287
▁ग्गे	-15.83
భో	-15.8306
నొ	-15.8309
▁ङ्ग्य	-15.8309
▁ర్మ్య	-15.8311
প্রি	-15.8313
್ಜೆ	-15.8315
म्र	-15.8324
ਘੰ	-15.8327
క్కి	-15.8336
ಯ್ಯ	-15.8376
ಡ್ವಿ	-15.8385
▁न्चि	-15.8394
ஸா	-15.8405
ಷ್ಯ	-15.8407
▁श्नि	-15.8407
शू	-15.841
్చా	-15.8413
ਨਿੰ	-15.8414
क्ष्य	-15.8423
▁చ్ఛు	-15.8429
▁ಡ್ದ	-15.8438
▁ढे़	-15.8445
▁ರ್ತ್ಡೇ	-15.8449
छि	-15.8454
ज्ञ	-15.8456
▁క్డ్యా	-15.8458
▁क्म्	-15.8471
চ্ছ	-15.8472
▁థ్వి	-15.8472
ত্রি	-15.848
X	-15.8485
▁ಬ್ಸ್ಕ್ರ	-15.8492
▁ಡ್ಸ್ನ	-15.8495
▁म्फ़	-15.8498
్స్ః	-15.8498
स्ट्री	-15.8498
▁তঁ	-15.85
बां	-15.8506
ত্যু	-15.8508
▁ట్స్టా	-15.8508
▁प्ना	-15.8523
್ತ	-15.8534
వ్	-15.8535
्भू	-15.8543
▁र्ल्	-15.8544
▁ಮ್ಹಾ	-15.8552
्ह	-15.8553
▁श्ट	-15.8556
ళ్లి	-15.856
▁ಸ್ಟ್ರೆ	-15.8562
▁ర్బె	-15.8563
▁ಲ್ರ	-15.8565
▁డ్స	-15.8575
ਗ਼	-15.8577
▁ঘ্যা	-15.8592
▁र्वै	-15.8594
▁तेंः	-15.8598
▁म्त	-15.8598
▁ढौ	-15.8606
ಬೂ	-15.8606
्छि	-15.861
क्सी	-15.861
▁र्यः	-15.8613
্ত	-15.8632
▁ళ్ళెం	-15.8646
▁ళ్తో	-15.8653
▁ನ್ಡ್	-15.8659
क्ता	-15.8675
▁न्त्या	-15.8683
▁ర్రే	-15.8683
▁ह्यु	-15.8693
ष्ण	-15.8695
▁ष्पे	-15.8714
ಸ್ತಿ	-15.8727
स्टि	-15.8735
▁तिं	-15.8735
ಸ್ಯೆ	-15.8736
▁ಖ್ನ	-15.874
▁ధుం	-15.8756
క్స్	-15.8758
ल्द	-15.8758
▁ಝೇ	-15.8772
ਪਾਂ	-15.8774
▁पाः	-15.8778
ਫੌ	-15.8796
ದ್ದೆ	-15.8807
ণি	-15.8809
धो	-15.8816
ళు	-15.8817
ಸೌ	-15.8818
ষ্ট্র	-15.8824
ಚ್	-15.8827
▁బ్లై	-15.8832
▁హ్మే	-15.8835
ಷ್ಟಿ	-15.8842
▁र्ब्	-15.8848
घु	-15.8852
▁ಣ್ಣೊ	-15.8855
▁ర్బు	-15.8861
ರ್ಮಿ	-15.8863
▁జ్న	-15.8875
▁र्ख़	-15.8886
चू	-15.8889
▁ష్ట్య	-15.889
ಸ್ಕ್ರ್ಯಾ	-15.8892
್ಬ್ಯಾ	-15.8896
▁ష్ర్ట	-15.8903
్కా	-15.8908
▁ಳ್ನ	-15.8914
▁వ్ఞ	-15.8916
त्स	-15.892
क्रू	-15.8931
రౌ	-15.8932
ಷಾ	-15.8933
▁ਨੂੂੰ	-15.8939
▁ರ್ಷೆ	-15.8946
য়ি	-15.895
द्रा	-15.8955
▁ರ್ಶ್	-15.8956
ಬ್	-15.8957
ನೈ	-15.8961
ర్తీ	-15.897
हृ	-15.8972
▁ल्पः	-15.8975
▁ಟ್ಲು	-15.8979
▁రుూ	-15.8987
శ్ర	-15.899
క్స్చే	-15.8998
హే	-15.8998
ਚੈ	-15.9
▁क़ो	-15.9001
র্তৃ	-15.9004
▁ర్బ్యా	-15.9012
ಲ್ಫ್ರೆ	-15.9014
ర్చు	-15.9014
▁ರ್ಬ್ಯಾ	-15.9018
्ठा	-15.9028
ਧੁ	-15.9031
▁ग्गो	-15.904
▁క్ట్ల	-15.904
नां	-15.9045
▁ಟ್ಜ	-15.9045
ಟಂ	-15.9048
▁স্থু	-15.9055
श्न	-15.9064
छु	-15.9065
্তি	-15.9065
▁ಲ್ಟೆ	-15.9073
্ষ	-15.908
▁फः	-15.9086
▁ಲೇಂ	-15.9088
্ভ	-15.9089
▁त्राः	-15.9095
▁ಟ್ರೀ	-15.9097
क्रो	-15.9101
క్షి	-15.9112
▁ह्री	-15.9115
ह्म	-15.9119
▁द्यौ	-15.9119
ತ್ನ	-15.912
ಛಾ	-15.9124
్ఫీ	-15.9139
ష్టం	-15.9155
਼ਿ	-15.9168
▁ಕ್ಮ	-15.917
▁మ్లి	-15.9171
▁ರ್ಟಾ	-15.9172
▁ಫ್ಟ್ನ	-15.9175
್ಗ	-15.9175
ਭੁੱ	-15.918
▁ವ್ರಾ	-15.9183
▁ల్ప్లా	-15.9184
গ্রে	-15.9191
्श	-15.9212
ळो	-15.9213
म्भ	-15.9214
▁వ్మె	-15.9227
চো	-15.9229
ম্ভ	-15.9231
र्सि	-15.9236
గె	-15.9246
▁स्बि	-15.9252
▁ट्वा	-15.9257
▁ప్ఘ	-15.9261
▁ಲ್ತು	-15.9266
্গা	-15.9269
▁ಥ್ರ	-15.9281
ਬਾਂ	-15.929
య్	-15.9303
▁ರ್ತೇ	-15.9329
स्त्री	-15.9338
▁ण्ये	-15.9344
▁न्फ्	-15.9361
▁ल्ज़	-15.938
▁ತ್ರೂ	-15.938
स्ट्रा	-15.9381
র্	-15.9388
▁বঁ	-15.9397
స్టు	-15.9407
्टे	-15.9418
▁ಗ್ತ	-15.9421
▁ಜ್ಪೆ	-15.9428
▁ಲ್ಹ	-15.9429
्हे	-15.944
▁ष्ट्या	-15.9444
▁ल्ट्र	-15.9444
੨	-15.9445
▁ల్హో	-15.945
ళా	-15.9457
ल्यू	-15.9468
▁ಪ್ಚ	-15.9468
ঘো	-15.9469
▁ద్భి	-15.9472
▁னாா	-15.9473
्ष	-15.9477
श्यो	-15.948
▁ట్క	-15.9484
▁র্ত্রা	-15.9497
८	-15.9503
▁న్స్మ	-15.9508
ਜੱ	-15.9514
▁য়্য	-15.9515
▁బ్స	-15.9521
దె	-15.9523
स्टी	-15.9525
▁హ్యే	-15.9527
లాః	-15.9528
ಲ್ಯ	-15.9534
ਤੈ	-15.9535
র্তা	-15.9536
পী	-15.9542
र्जी	-15.9547
డ్రి	-15.9559
▁न्तिः	-15.9576
▁ಲ್ಬ್	-15.9577
▁श्र्व	-15.9578
▁श्यः	-15.9582
फैं	-15.9591
▁ల్టై	-15.9599
▁డ్తు	-15.9608
▁ಕ್ಮಾ	-15.961
ளூ	-15.9615
್ಥ್	-15.9642
శే	-15.966
দ্ধি	-15.9661
্ঠা	-15.9661
్ర	-15.9672
▁ర్ఫి	-15.9672
▁ಕ್ತಿಃ	-15.9678
▁ర్ణ్య	-15.9682
▁ঠ্যা	-15.9684
্রূ	-15.969
ਖੂ	-15.969
▁ర్ట్ల	-15.9695
▁ड़ाः	-15.9698
च्छे	-15.9703
ड्रा	-15.9723
द्वि	-15.9724
డ్డా	-15.9736
▁దంః	-15.974
७	-15.9742
్స్ట్రా	-15.9748
▁ಠ್ಮ	-15.9751
▁గ్ధా	-15.9756
క్సి	-15.9758
ర్పా	-15.9768
▁ಲ್ನಿ	-15.9778
▁थ्	-15.9782
न्स	-15.9782
শ্বা	-15.9787
▁म्हू	-15.9799
শ্চি	-15.9802
▁ण्टु	-15.9809
▁బ్ధు	-15.9822
▁ಟ್ಫ್ಲ	-15.9823
▁ద్గ్ర	-15.9827
▁ರ್ಚ್ಗ	-15.9836
ನ್ನಿ	-15.9838
ಶ್ರ	-15.985
যি	-15.9851
▁तीः	-15.9863
క్బె	-15.9866
▁ಬ್ಮ	-15.9876
▁ণ্ম	-15.988
্ঘা	-15.9881
గ్రె	-15.9887
▁మ్సు	-15.9887
ర్భ	-15.989
ट्रॉ	-15.9901
দূ	-15.991
्को	-15.9913
क्लि	-15.992
ঘু	-15.9921
ন্তা	-15.9924
ஜோ	-15.9926
▁র্ম্প	-15.9927
म्हा	-15.9929
ష్టి	-15.993
ಪ್ರಿ	-15.9939
▁त्के	-15.9944
▁্ব্বি	-15.9956
త్తం	-15.9967
ಲೊ	-15.9971
▁ష్ష	-15.9976
ల్లు	-15.9981
ਟੈਂ	-15.9982
బ్	-15.9991
శ్	-15.9997
▁ल्ही	-16.0003
ಠಾ	-16.0008
জ্ঞ	-16.002
ঝা	-16.0027
स्मा	-16.0038
▁ల్డ్ర	-16.004
▁ರ್ಪ್ರಿ	-16.0041
▁స్ప్రి	-16.0052
`	-16.0057
త్యం	-16.0065
ल्य	-16.0067
ज्यो	-16.0071
▁ङ्के	-16.0085
ত্ম	-16.0087
▁డ్సె	-16.009
▁ల్హ	-16.0096
▁र्षः	-16.0097
स्को	-16.01
▁మ్క	-16.0116
▁त्थो	-16.0116
ಸ್ಟಿ	-16.012
▁మ్బె	-16.0121
धों	-16.0124
▁ণ্ব	-16.0125
ন্	-16.0126
లొ	-16.0131
ర్థి	-16.0142
+	-16.0145
ष्क	-16.015
ईं	-16.0155
ਰੌ	-16.0158
স্যা	-16.016
▁ಗ್ಸ್ಟ	-16.0166
নৈ	-16.0175
ষ্য	-16.0176
▁্য	-16.0177
▁र्म्य	-16.0178
ఆం	-16.0178
ದ್ರೆ	-16.0187
▁ಕ್ಶ	-16.0189
प्प	-16.019
ਡੈ	-16.0199
న్య	-16.0211
▁त्वः	-16.0211
ਧੰ	-16.0213
▁త్రొ	-16.0221
▁ड़ीः	-16.0221
్పి	-16.0225
▁ರ್ಡೊ	-16.0235
▁ल्फ्रे	-16.0238
्लै	-16.0243
पों	-16.0243
▁స్ది	-16.0245
్లొ	-16.026
▁ర్వ్యా	-16.0264
▁पीः	-16.0265
্ডু	-16.0268
ट्टी	-16.0274
▁స్సో	-16.0276
ಮ್ಮೆ	-16.0279
▁্ব্বো	-16.0281
▁ಶ್ಕ	-16.0283
ర్చి	-16.03
म्स	-16.0306
▁ব্য়	-16.0307
णु	-16.0313
यें	-16.0315
್ಲ	-16.0319
्खी	-16.0324
খো	-16.0331
ਗੋਂ	-16.0336
▁র্ফি	-16.0348
▁ਨੰੂ	-16.035
బ్రా	-16.0352
▁ష్ల	-16.0362
▁మ్వ	-16.0369
ట్స్	-16.0385
▁ल्बे	-16.04
ਖ਼ਿ	-16.0404
▁ಡ್ವೇ	-16.0417
్తే	-16.0424
ನ್ನೇ	-16.0443
डें	-16.0448
▁ढ़ू	-16.045
▁ತ್ತಾಾ	-16.0452
ஜூ	-16.0452
▁గ్త్	-16.0454
▁ರ್ಕೊ	-16.0458
▁ణ్డ	-16.0459
▁श्श	-16.0461
వొ	-16.0462
▁ঘ্	-16.0464
स्ति	-16.0478
▁న్గు	-16.0483
ప్రి	-16.0485
బొ	-16.0492
ర్గా	-16.0494
ডো	-16.0497
్ఛే	-16.0499
▁ਸਿਾਿ	-16.0507
▁ಲ್ಡೊ	-16.0507
▁স্থৈ	-16.0507
▁ಡ್ಗಾ	-16.0512
▁ख़्	-16.052
র্ক	-16.0529
▁ರ್ಸ್ಬ	-16.0529
▁থ্র	-16.0531
్ఫె	-16.0532
ట్ర	-16.0535
্য্য	-16.0541
र्मी	-16.055
▁त्ज़	-16.0556
▁క్త్య	-16.0567
క్వా	-16.0569
్క	-16.0572
▁ర్బ్స్	-16.0584
▁ರ್ಪ್ಸ್	-16.0586
್ಚಾ	-16.059
्डे	-16.0593
তৈ	-16.0597
▁క్ఫ్	-16.0598
্ক	-16.0611
्सू	-16.0612
▁্শ	-16.0617
▁స్ట్తో	-16.0619
ಞ	-16.0627
ছো	-16.0638
ন্স	-16.0638
ನ್ಸ್	-16.064
क्	-16.0645
್ರ್ಯಾ	-16.0646
ਢਾ	-16.0668
ల్స్	-16.068
ಘೋ	-16.0686
शै	-16.0692
ऋ	-16.0694
ङ्ग	-16.0696
▁ल्यं	-16.0697
্ত্ত	-16.07
్దా	-16.0704
▁ण्टि	-16.0704
▁गे्र	-16.0705
ಸ್ಜೆ	-16.072
▁স্যাঁ	-16.0726
ಯ್ಕೆ	-16.073
ర్థ	-16.0735
▁ಯ್ನ್	-16.0736
्डी	-16.0738
▁ਤੋੰ	-16.0739
▁ಡ್ಬ	-16.0743
न्ना	-16.0745
▁र्झ	-16.075
ಪ್ಯಾ	-16.0754
మ్మె	-16.0758
▁र्फि	-16.0759
्मे	-16.0763
স্ক	-16.0765
్యంః	-16.0769
ర్డు	-16.077
▁नॅ	-16.0777
▁ন্দঃ	-16.079
▁త్త్య	-16.0804
▁న్స్క్	-16.0813
র্ষ	-16.0815
ಕ್ಸ್	-16.0825
ನೊ	-16.0827
्ब	-16.0828
ঙ্ক	-16.0829
क्षी	-16.0832
র্কে	-16.0833
ਸ਼ੈ	-16.0835
ब्रे	-16.0839
ਕੈਂ	-16.0845
▁ठै	-16.0847
స్టి	-16.0867
▁ర్మ్స్	-16.0871
తాం	-16.0871
ਘੋ	-16.0882
్స్టై	-16.089
ਜ਼ੁ	-16.0892
▁সঁ	-16.0898
▁त्त्य	-16.0899
▁च्चै	-16.0909
▁ರ್ಬ್	-16.091
ಸ್ತೆ	-16.0921
▁ತ್ಖ	-16.0931
್ಕು	-16.0934
্ছি	-16.0935
▁ಗ್ಡ	-16.095
▁ಫ್ತ	-16.0972
▁ద్య్ర	-16.0973
শ্রী	-16.0986
▁ಡ್ವೊ	-16.0991
త్రు	-16.0999
ಸ್ಯಾ	-16.1001
▁ਹੈੈ	-16.1005
ट्यू	-16.101
స్కి	-16.1015
▁ಜ್ನಿ	-16.1015
▁ত্ক্ষ	-16.1017
ಹ್ಯಾ	-16.1026
▁त्यः	-16.1027
ಸ್ಸಿ	-16.1028
జ్ఞా	-16.1041
▁థ్ర	-16.1041
▁द्यां	-16.1041
್ಕ	-16.1043
रौ	-16.1055
চী	-16.1056
न्दी	-16.1067
▁न्सो	-16.1094
চ্ছি	-16.1103
▁ख्भ्	-16.1104
▁ख्ब्	-16.1105
न्ति	-16.1105
▁ड्यु	-16.1112
▁ল্স	-16.1118
▁ತ್ಃ	-16.1119
్మె	-16.1121
▁ల్గె	-16.1126
್ಮೈ	-16.1129
▁వ్వీ	-16.1137
▁ರ್ಬ್ಸ್	-16.1149
▁ಕ್ಸ್ಚ	-16.1161
▁ఘై	-16.1167
▁గ్డ	-16.1168
▁न्चे	-16.1184
▁ल्बो	-16.1185
▁स्क्ल	-16.1193
ರ್ಧ	-16.1196
ಬ್ರ	-16.1205
९	-16.1213
ర్యం	-16.1238
▁స్థే	-16.1241
▁ర్కై	-16.1253
▁हाे	-16.1254
্ম	-16.1256
▁छाः	-16.1273
▁ञ्छ	-16.1297
फ्री	-16.1303
ళ్ళ	-16.1307
ঝ	-16.1308
న్నీ	-16.1317
▁ণ্ড্র	-16.1318
▁व्वि	-16.1321
ర్టు	-16.1342
ঙ্গা	-16.1372
ముఁ	-16.1389
ల్ప	-16.1389
▁मीः	-16.1394
ਸ਼ੱ	-16.1398
স্তু	-16.1401
సృ	-16.1403
▁থ্ব	-16.1413
▁র্য্য্য	-16.1415
फ्रा	-16.1418
्नू	-16.1422
র্ট	-16.1423
▁क़्श	-16.1424
೦	-16.1424
్మూ	-16.1428
র্মী	-16.1428
স্টে	-16.1442
▁ద్ర్య	-16.1443
▁ग्ज्ञ	-16.1445
▁क्सै	-16.1461
▁స్ప్ర	-16.1472
ಭೇ	-16.1474
▁ತ್ಸ್ಯ	-16.1488
▁न्स्टि	-16.1511
▁న్రీ	-16.1513
र्वे	-16.1531
▁ನ್ಸ್ಕ್	-16.1534
▁ट्ख	-16.1545
ಕ್ರೋ	-16.1562
▁মেঃ	-16.1571
್ತೋ	-16.1581
ਠਾਂ	-16.1582
▁ರ್ಹೆ	-16.1593
▁ಷ್ಕ್	-16.161
▁ಮ್ಕಾ	-16.162
▁ಫ್ಸ್	-16.1629
▁ಡ್ಜ್ನ	-16.163
▁टाः	-16.1635
▁ಡ್ಜ್ಗ	-16.1642
డ్డ	-16.1656
▁ষ্ঠ্য	-16.1662
▁ప్డ్	-16.1664
స్సు	-16.1665
च्चा	-16.1674
ರ್ಜಿ	-16.1681
▁సంః	-16.1687
▁றோா	-16.1687
▁ಪ್ನಿ	-16.1691
▁ಡ್ಹ್ಯಾ	-16.1721
▁ఖ్న	-16.1721
দ্য	-16.1725
ஜே	-16.1738
్కిం	-16.1744
ಟೂ	-16.1745
▁त्तेः	-16.175
▁র্ত্র	-16.1752
▁ख़्ती	-16.1762
್ಡ್	-16.1763
▁ज्यौ	-16.1772
▁ಶ್ಶಾ	-16.1773
ర్మి	-16.1775
▁ರ್ಕ್ರಾ	-16.1775
▁ण्ड्य	-16.1776
క్యు	-16.1779
భ్య	-16.1787
▁ಯ್ಡ	-16.1805
▁स्ट्	-16.1807
ক্স	-16.182
त्यु	-16.1824
▁ಸ್ಸೋ	-16.1832
ద్దు	-16.1837
ন্ধু	-16.1838
▁র্দ্ব	-16.1839
ప్యా	-16.1839
భ్యు	-16.1845
▁ब्यु	-16.1849
వ్ర	-16.1855
▁हेंः	-16.1861
ರ್ನ	-16.1865
ত্যে	-16.1868
ణ్	-16.187
▁न्त्र्य	-16.1871
ਨੀਂ	-16.1875
▁ఛ్ఛ	-16.1879
మ్ము	-16.1882
ಮಾಂ	-16.1892
నౌ	-16.1897
ਛੀ	-16.1902
च्छ	-16.1908
▁त्यै	-16.1911
র্ড	-16.1917
ਮੂੰ	-16.1918
য়ু	-16.1931
▁धाः	-16.194
లుః	-16.1945
್ಣ	-16.1953
पौ	-16.1963
क्ला	-16.1969
▁ब्धा	-16.1969
న్లు	-16.1971
▁ಟ್ನೊ	-16.1976
▁న్త్యా	-16.1977
ਝੀ	-16.1984
ಥೈ	-16.1987
ష్య	-16.1996
▁ಟ್ಲ್	-16.2002
डू	-16.2009
ਕਿੱ	-16.2032
▁ख़ो	-16.2032
▁మైఁ	-16.2075
੩	-16.2079
ధీ	-16.208
▁ಸ್ಗಿ	-16.2098
्पा	-16.21
ತಃ	-16.2111
हौ	-16.2113
ਭੱ	-16.2113
ರ್ಡ್	-16.2123
யொ	-16.2126
स्म	-16.2126
ত্তা	-16.2135
ஜீ	-16.2145
▁র্দ্য	-16.2147
र्ना	-16.2151
ಪ್ಪು	-16.2164
ರ್ಸ್	-16.2174
ಖ್ಯೆ	-16.2181
ತ್ನಿ	-16.2185
र्ध	-16.2192
థం	-16.2194
ల్గొ	-16.2197
▁ತ್ಪ್ರ	-16.222
्फे	-16.2228
ব্র	-16.223
्गि	-16.2233
▁ಫ್ಜ	-16.2237
व्र	-16.2238
ష్ణ	-16.2242
ਢੇ	-16.2242
▁न्न्	-16.2251
णे	-16.2256
্ণা	-16.2256
▁ರ್ಮ್ಸ್	-16.2271
ਭੈ	-16.2281
▁त्र्या	-16.2284
▁మ్సా	-16.2288
ಷ್ಟೇ	-16.2292
▁प्ट्स	-16.2303
▁ఫ్ట్స్	-16.2311
्थः	-16.2317
दुः	-16.2335
▁ర్ష్య	-16.2352
▁ख्म्	-16.2355
్టె	-16.2359
▁ष्च	-16.2361
ढ़े	-16.2365
▁ক্শ	-16.2372
झु	-16.2376
್ವ	-16.2377
బ్బం	-16.2378
▁ఠ్	-16.2379
▁ವ್ರೆ	-16.2379
▁অ্য়া	-16.238
▁ল্ভ	-16.238
▁ਞੁ	-16.238
▁श्ग	-16.2382
ಳೇ	-16.2384
▁र्च्छ	-16.239
्गी	-16.2392
ন্তি	-16.2395
▁ಕ್ಸ್ಟ	-16.2396
ব্দ	-16.2401
త్ప	-16.2405
▁ह्ण	-16.2408
ਲੌ	-16.2412
సౌ	-16.2412
▁ಬ್ಲು	-16.2414
ब्यू	-16.2415
ಷ್ಮಿ	-16.2424
र्जा	-16.2428
▁ఞ	-16.2436
ష్యా	-16.244
డ్లో	-16.244
▁ಯ್ನ	-16.2441
▁శ్యే	-16.2443
▁न्धः	-16.2449
ढा	-16.2452
ব্বে	-16.2453
র্ঘ	-16.2455
▁ರ್ಣೆ	-16.2455
র্জ	-16.2461
ल्ल	-16.2472
ल्ट	-16.2473
್ಮಾ	-16.2476
ಚ್ಚಾ	-16.2481
ర్పు	-16.2481
ర్చ	-16.249
▁ಸ್ಲೆ	-16.2492
्फा	-16.2496
ন্দা	-16.2497
▁स्फ़	-16.2502
ఫ్యా	-16.2503
ਫ਼ੈ	-16.2516
▁ट्ठो	-16.2518
யீ	-16.2521
ಭೀ	-16.2523
్షు	-16.2524
▁ಸ್ಖ	-16.2528
ಧು	-16.2535
▁স্হ	-16.2543
▁ख्याः	-16.2549
▁ध्याः	-16.255
ਛਿ	-16.2557
శ్వా	-16.2559
त्त्व	-16.2564
▁त्ः	-16.2565
ల్ని	-16.2571
్నై	-16.258
ਧੋ	-16.2588
দ্দ	-16.2592
▁फ्थ	-16.2596
दं	-16.2597
▁फ़्लि	-16.2601
्ट्रि	-16.2603
గాం	-16.2618
्थि	-16.2621
▁ন্ত্রো	-16.2626
র্মা	-16.2627
ਸ਼ੰ	-16.2635
▁డ్మ	-16.2646
फ्लू	-16.2655
ూఁ	-16.2658
भ्र	-16.2662
्ज़	-16.2662
ल्दी	-16.2671
షె	-16.2671
▁न्शी	-16.2673
ड्स	-16.268
ਊਂ	-16.268
గ్య	-16.2683
্কি	-16.2686
ঢ	-16.2691
ল্য	-16.2692
ಡೂ	-16.2697
క్లా	-16.2701
▁্চ্চ	-16.2704
▁फ्टा	-16.2705
ద్రా	-16.2712
థు	-16.2722
▁চঁ	-16.2726
ಕ್ರಾ	-16.2729
टु	-16.273
र्नि	-16.2734
▁दीः	-16.274
ਘੇ	-16.274
్ధా	-16.274
ਜ਼ੂ	-16.2742
▁ನ್ಸ್ಫ	-16.2743
फं	-16.2757
ರ್ಪ	-16.2758
्चि	-16.276
్దూ	-16.2771
श्कि	-16.2783
স্যু	-16.2784
క్తు	-16.2787
ಣ್ಣು	-16.2787
য্য	-16.2795
ಸ್ತ್ರ	-16.281
स्की	-16.2812
বাঁ	-16.282
క్షు	-16.2822
▁ನ್ಫಾ	-16.2824
భై	-16.2825
▁ट्या	-16.2827
றீ	-16.2839
▁ब्से	-16.284
▁ಕ್ಸ್ಕ್ಲ	-16.2848
▁नेंः	-16.2856
▁ಗ್ಮೆ	-16.2857
ग्स	-16.2857
ಜೈ	-16.2858
▁ಲ್ಝ	-16.2861
▁ల్బె	-16.2864
స్ట్రా	-16.2867
್ಛ	-16.287
్భ	-16.2888
▁क़्ल	-16.2889
▁ಸ್ರೊ	-16.2892
▁ಸ್ಪ್ಲಿ	-16.2903
▁ল্ডি	-16.2915
దాం	-16.2926
ಲ್ಲು	-16.2927
▁টিঃ	-16.2947
क्टि	-16.2949
ঝে	-16.295
▁ర్డ్లు	-16.2958
▁స్కొ	-16.2969
़ां	-16.2969
श्वि	-16.2982
ద్రం	-16.2985
▁స్ర్క	-16.2994
▁न्छ	-16.3004
▁रॅ	-16.3005
গ্য	-16.3019
ಧ್ಯಾ	-16.3024
ਹੈਂ	-16.3026
▁స్డ	-16.3034
▁र्खो	-16.3042
▁म्नो	-16.3044
▁ನ್ಫ್ಲ	-16.3049
ਠੰ	-16.305
ಞ್ಚ	-16.3051
క్రో	-16.3063
హ్మ	-16.3074
హ్యా	-16.3075
▁र्चो	-16.3077
ভ্রা	-16.3079
▁ಪ್ಸ್ಗ	-16.3085
▁స్ద	-16.3089
ಸ್ನ	-16.3091
ಠಿ	-16.3094
ন্তে	-16.3104
▁র্দূ	-16.3108
प्स	-16.3112
▁ರ್ಗ್ನ	-16.3112
ਲ਼	-16.3121
▁ತ್ತ್	-16.3124
▁ष्टाः	-16.3128
త్యు	-16.3128
▁ವ್ಕ	-16.3136
क़	-16.3136
▁ಭೃ	-16.3144
▁ರ್ಜ್ನ	-16.3145
▁ण्डः	-16.3152
ரொ	-16.3158
శో	-16.3158
ಶ್ಯ	-16.316
್ಪಾ	-16.3163
న్ల	-16.317
▁ష్ఠ్య	-16.3186
ल्क	-16.3187
ਝੇ	-16.3193
र्वि	-16.3207
▁ल्भ	-16.3208
▁र्चः	-16.3213
क्टू	-16.3217
ర్ట్	-16.3222
ర్శి	-16.3236
▁న్స్ప	-16.3238
▁మ్డ్	-16.3248
ప్స్	-16.3248
▁ರ್ಟ್ಕ	-16.3264
স্তি	-16.3268
ర్గ	-16.3277
छू	-16.3277
▁ल्प्य	-16.3278
క్రీ	-16.3278
्डो	-16.3279
క్త	-16.3282
ਨੂ	-16.3283
চ্চ	-16.3291
క్లి	-16.3311
▁ల్లొ	-16.3313
नः	-16.3334
্ষু	-16.334
ग्लै	-16.3353
ख़	-16.3372
ਡਿੰ	-16.3372
▁জ্ঞি	-16.3382
ਗੁੰ	-16.3385
ప్లై	-16.3387
ਛੁ	-16.339
▁గ్భా	-16.3398
লিং	-16.3399
▁ఢ్యు	-16.3404
▁प्स्य	-16.3405
प्ति	-16.3408
ర్లో	-16.3409
▁न्तौ	-16.3413
▁नेः	-16.3413
ন্দু	-16.3432
్ప	-16.3434
దై	-16.3441
▁ಷ್ರ	-16.3444
థ్యం	-16.3452
ర్థు	-16.3455
्थ्य	-16.3462
▁म्द	-16.3462
फ्ट	-16.3472
भ्या	-16.3483
ర్తా	-16.3485
ঐ	-16.3492
স্থ্য	-16.3496
ర్కొ	-16.3501
▁ब्ध्य	-16.351
ಷ್ಠ	-16.3534
▁स्टां	-16.354
▁ట్బ	-16.3545
▁ष्णी	-16.3563
್ದ	-16.3567
ढ़ी	-16.3569
ஜை	-16.3571
▁শ্ত	-16.3614
্ব্ব	-16.3622
▁रेः	-16.3625
ਖਿੱ	-16.3626
়ি	-16.3627
▁ट्यो	-16.3635
জ্য	-16.3645
▁ట్మ	-16.3663
ಹೂ	-16.3676
সাং	-16.3678
▁ন্ন্য	-16.3695
ಹ್ಮ	-16.3701
ಖಿ	-16.3715
▁ಕ್ಷ್	-16.3715
র্তি	-16.3716
ಷೀ	-16.372
చొ	-16.3728
জ্যে	-16.3733
னீ	-16.3734
ন্না	-16.3741
स्से	-16.3747
క్తం	-16.3756
्भा	-16.3756
బ్రి	-16.3757
▁ఘ్య	-16.3764
্ম্ম	-16.3771
్తా	-16.3775
ಸ್ಟ	-16.3776
्थाः	-16.3776
੪	-16.3777
ಕ್ಯು	-16.3798
्ग	-16.3811
੫	-16.3812
▁ರ್ಕೂ	-16.3821
▁ಟ್ಸ್ಕ	-16.3827
र्यों	-16.3839
•	-16.3847
ಮೌ	-16.3847
न्त्र	-16.3853
▁क्तु	-16.3856
▁फ्तो	-16.3856
ணெ	-16.3864
ಟೌ	-16.3866
ن	-16.387
▁ರ್ಸ್ಟ	-16.3876
▁న్స్జ	-16.3885
▁ನ್ಪ	-16.3891
▁థ్స్	-16.3898
▁দ্যূ	-16.3903
▁फ़्ज़	-16.3907
ట్రే	-16.3909
▁न्फै	-16.393
क्ल	-16.3936
▁क्स्च	-16.3937
▁क्वो	-16.3945
▁మ్రి	-16.3947
ষ্ঠ	-16.395
स्पि	-16.3959
়ো	-16.3961
्स्टे	-16.3963
▁ర్త్యా	-16.3965
্চি	-16.3966
▁స్స్	-16.3974
ಣ್ಯ	-16.3975
ஹ்	-16.3986
▁येंः	-16.3994
డ్డు	-16.3996
▁द्धाः	-16.4
యః	-16.4002
ष्टा	-16.4004
▁త్స్నా	-16.4009
स्ला	-16.4011
್ಟೆ	-16.4016
়ে	-16.402
▁र्ीीे	-16.4025
ರುಃ	-16.4032
ద్యు	-16.4038
ম্প্র	-16.4041
ల్లీ	-16.4042
ಥ್ಯ	-16.4042
▁र्छ	-16.4046
▁ಲ್ಡ್ಸ್	-16.4065
স্ত্রী	-16.4068
ਟੁ	-16.4069
▁ల్బ్	-16.4076
ಘೊ	-16.4078
▁ण्ढ	-16.4078
ಯ್	-16.408
▁ల్భ	-16.4083
▁శ్శే	-16.4088
▁ಕ್ಬೆ	-16.4089
▁ख्यः	-16.4092
▁మ్డ	-16.4094
▁ম্প্	-16.4095
▁দ্যি	-16.4102
ट्वि	-16.4105
ਢੀ	-16.4108
▁त्फ़	-16.4112
▁చ్యా	-16.4114
▁योंः	-16.4119
भ्य	-16.4126
▁व्याः	-16.4133
▁न्फ़्रे	-16.4147
▁ರ್ವ್ಯ	-16.415
▁ష్ర	-16.4151
▁ज्ब	-16.4151
ಸ್ಕಿ	-16.4164
ষু	-16.417
ల్యే	-16.4171
ರ್ಕ	-16.4172
▁ত্ত্	-16.4172
▁ੇੁ	-16.4178
▁ड्ढो	-16.4179
▁ध्न	-16.418
▁্চ্ছ	-16.4181
ਫ਼ੌ	-16.4183
್ಗೊ	-16.4191
ஹெ	-16.4203
▁క్త్	-16.4203
যৎ	-16.4212
ਝੂ	-16.4215
▁ಸ್ಸ್	-16.4223
భే	-16.4229
्कि	-16.4229
ন্ম	-16.4252
▁त्कि	-16.4254
▁न्द्य	-16.4259
▁ਛੌ	-16.4268
▁ತ್ತೆಃ	-16.427
्ण	-16.427
ನಾಂ	-16.4276
పాం	-16.4276
▁क्जा	-16.428
▁ట్టుః	-16.428
ಡೊ	-16.4281
▁ನ್ಧ	-16.429
▁झ्या	-16.4294
ಛ	-16.4302
್ಸೋ	-16.4319
প্তা	-16.4321
ਣੂ	-16.4331
▁ళెం	-16.4334
र्ट्स	-16.4356
▁ष्कि	-16.4357
▁ద్ల	-16.4358
्खा	-16.4359
▁స్రూ	-16.436
్బి	-16.4367
फ़ो	-16.4373
டூ	-16.4376
▁द्रः	-16.438
▁द्रं	-16.4388
&	-16.4389
स्लि	-16.4409
▁मिः	-16.4417
్దు	-16.4427
▁ਮਂੈ	-16.4438
▁ਞੇ	-16.4439
▁క్స్లె	-16.4443
▁द्स	-16.4445
▁ల్క్య	-16.4446
▁ಫ್ಸ	-16.4454
▁ड्ज	-16.448
Z	-16.4488
▁ಮ್ಡಿ	-16.4494
▁ध्दा	-16.4501
फ़ा	-16.4502
ಳ್ಳೆ	-16.4506
्मै	-16.4509
ತ್ಸ	-16.4517
మ్మా	-16.4518
్గో	-16.4533
▁द्ध्य	-16.4542
▁ద్యై	-16.4543
ਦੰ	-16.4553
ఠ	-16.456
▁र्थ्या	-16.4566
ਡੂ	-16.4568
▁న్ఫ్	-16.4572
▁ಕ್ನೊ	-16.4574
್ತೆ	-16.4576
्छ	-16.4583
▁ট্স	-16.4589
్త్ర	-16.4601
▁ರ್ಕ್ಸ	-16.4602
▁ರ್ಡ್ಸ್ನ	-16.4624
খ্য	-16.4625
▁স্প্র	-16.4625
র্তী	-16.4632
▁ह्ना	-16.4641
▁ರ್ಟ್ಮ	-16.4642
নঃ	-16.4643
▁ন্ক	-16.4645
ಕ್ರೀ	-16.4645
न्व	-16.465
यः	-16.4656
స్త్ర	-16.4662
வூ	-16.4671
▁ङ्को	-16.4675
डु	-16.4683
▁वीः	-16.4684
ख़ा	-16.4692
▁গ্ন্যু	-16.4696
ಟ್ರ	-16.47
▁క్స్టె	-16.4703
▁क्ये	-16.4708
▁ಕ್ಸ್ಟೆ	-16.471
▁न्कि	-16.4713
▁வோா	-16.4714
▁భాః	-16.4716
್ಸಾ	-16.472
▁ल्फ़ी	-16.4721
▁ल्कः	-16.4727
▁ಗ್ಶಿ	-16.4734
ষ্ণ	-16.4737
▁चेंः	-16.4747
▁ನ್ಡ	-16.475
▁प्सः	-16.4755
▁टै्र	-16.4765
▁र्ष्ण	-16.4768
▁ण्ड्र	-16.477
్ఫ	-16.4771
▁ಮ್ಬ	-16.4789
్ట్రీ	-16.4794
▁ನ್ಲ್ಯಾ	-16.4796
ক্লা	-16.4796
▁डा़	-16.4796
▁గ్భ	-16.4799
▁डॅ	-16.4804
▁ರ್ಡ್ಸ	-16.4806
▁ధ్ధి	-16.4809
ಗ್ಗ	-16.481
ক্তা	-16.4818
झू	-16.482
ಕ್ವಾ	-16.4821
త్తా	-16.4827
▁ध्यो	-16.4831
▁ষ্ণী	-16.4833
ಸ್ಪಿ	-16.4839
ಗ್ಲಾ	-16.4847
▁ಟ್ಜ್	-16.4848
ಢ್ಯ	-16.4851
ಸ್ಮಾ	-16.4853
క్ట్	-16.4858
▁నె్న	-16.4873
▁ಮ್ಹ	-16.4875
బ్బు	-16.4877
▁మ్రు	-16.4878
্দা	-16.4884
డొ	-16.4895
▁ब्ल्य	-16.4896
▁ळ्	-16.4899
▁ళ్వ	-16.4916
್ಗಃ	-16.4918
ధ్ర	-16.4922
म्न	-16.4927
ञे	-16.4932
्लु	-16.4944
و	-16.4946
▁ರ್ಮೈ	-16.4948
ঝি	-16.4956
▁ಹ್ರೀ	-16.4957
জ্জা	-16.4962
ర్ష	-16.4967
▁এ্য	-16.4977
▁న్ష్	-16.4988
▁क्ष्म्य	-16.499
▁ಫ್ಲ್	-16.5015
▁ణ్యో	-16.5023
र्प	-16.5033
▁व्द	-16.5034
▁త్మ్యా	-16.5035
▁होः	-16.5043
▁ರ್ನ್ನ	-16.5044
দ্	-16.5048
గ్గు	-16.5051
ಸ್ವಿ	-16.5061
▁ल्फो	-16.5067
▁ल्वौ	-16.5079
▁णिः	-16.5091
ज्ज	-16.5097
▁प्ठ	-16.51
ट्रीः	-16.5101
▁న్డ	-16.5103
▁र्वः	-16.5105
▁ளாா	-16.5108
▁ಟ್ಪ	-16.5114
ठो	-16.512
్తాం	-16.5133
ಶಂ	-16.5142
ਛੁੱ	-16.5149
▁న్బె	-16.5166
▁न्यै	-16.5172
ஷே	-16.5172
్మం	-16.5178
ಡ್ಡಿ	-16.5185
▁ধ্যি	-16.5196
ಶ್ನೆ	-16.5198
▁ग्मे	-16.5198
ग्नि	-16.5224
ర్గం	-16.5232
সৃ	-16.524
బ్లా	-16.5244
ಟ್ನ	-16.526
్టి	-16.5271
्स्टा	-16.5279
▁ప్చ	-16.5292
फ़े	-16.5294
ಖ್ಯಾ	-16.5311
▁స్థ్య	-16.532
▁ಹ್ಹ	-16.5325
▁ष्णे	-16.5335
्सु	-16.5336
▁ಹ್ರ	-16.5347
▁ஊா	-16.5348
म्य	-16.5365
▁ತ್ಯಿ	-16.5368
▁त्स्	-16.5372
স্ত্র	-16.5404
▁ప్ట్స్	-16.5406
స్కీ	-16.5409
ন্যে	-16.5415
▁ద్దై	-16.5418
ঙ্কা	-16.5424
ప్రె	-16.5424
म्मू	-16.543
ತ್ಸೆ	-16.5434
▁న్భ	-16.5436
ಚೀ	-16.5468
ప్లి	-16.5469
▁त्त्र	-16.5471
ব্রা	-16.5472
▁ಳ್ಮ	-16.5484
ऊं	-16.5486
▁క్ఫ	-16.5499
▁त्स्ये	-16.5508
్సా	-16.5512
ದ್ಯೋ	-16.5513
द्	-16.5517
▁च्छ्र	-16.5521
्यि	-16.5527
্সি	-16.5528
గ్స్	-16.5529
ಧೀ	-16.5533
बें	-16.5534
ಸ್ಕ	-16.5546
र्षि	-16.5548
र्थी	-16.5549
▁స్రు	-16.5555
▁ಗ್ರೈ	-16.5561
▁द्ग्र	-16.5561
▁ढ्यो	-16.5563
্ন	-16.5563
ద్ధం	-16.5563
ष्ठा	-16.557
फ्भ्	-16.557
भं	-16.5576
ರಃ	-16.558
▁ಣ್ನ	-16.5587
ड़ो	-16.559
్వూ	-16.5607
▁ರ್ಮ್ಯ	-16.5625
साः	-16.5629
▁జ్బె	-16.5632
श्म	-16.5633
బౌ	-16.5636
त्ते	-16.5653
▁ఫ్జ	-16.5658
▁थ्यः	-16.5659
▁ख्फ्	-16.5665
सॉ	-16.5673
ত্তে	-16.5675
ট্রি	-16.5675
దొ	-16.5677
▁গ্গ	-16.568
ಸ್ಸು	-16.5682
స్మె	-16.5688
▁ನ್ಸ್ಲಾ	-16.569
ಟ್ರೇ	-16.5691
▁యెః	-16.57
▁हूंः	-16.5703
ష్ట్రా	-16.5703
্ণি	-16.571
त्न	-16.5721
শ্চ	-16.5722
್ಛಾ	-16.5723
▁మ్హౌ	-16.5735
ట్టే	-16.5749
▁ष्टिः	-16.5759
पिं	-16.576
मिं	-16.576
▁ర్ప్లా	-16.5764
গ্রী	-16.577
▁చ్చై	-16.5779
್ಸ್ಟಾ	-16.5779
र्रा	-16.5782
▁फ्रु	-16.5784
ತ್ಪ	-16.5798
ర్కు	-16.5811
यौ	-16.5812
డ్రో	-16.5812
ল্ল	-16.582
▁ಕ್ಸ್ಃ	-16.582
్పా	-16.5826
ख्त	-16.5829
▁কঁ	-16.5829
्कू	-16.5835
्गे	-16.5836
▁द्ब	-16.5838
রং	-16.584
▁వ్యై	-16.5845
ਠਿ	-16.5848
्यै	-16.5853
▁ಸ್ಚ	-16.5861
ट्ट	-16.5862
▁ಡ್ರೂ	-16.5871
▁ರ್ಕ್ಯಾ	-16.5877
स्पी	-16.5877
▁బ్స్క్	-16.5878
೨	-16.5881
্ড	-16.5893
స్మా	-16.5899
चें	-16.5902
▁ष्को	-16.5905
য্যে	-16.5912
▁धेः	-16.5915
ಕ್ಕು	-16.5923
▁ಲ್ಗಿ	-16.5928
क्का	-16.5943
▁ರ್ಸ್ಕ್	-16.5944
घू	-16.5948
ಢ	-16.5954
ಪ್ತಿ	-16.5963
▁నె్వ	-16.597
▁ন্জ	-16.5979
▁ख्ख	-16.598
ढे	-16.5994
▁ज्मो	-16.6007
▁న్జె	-16.6011
్ట	-16.6014
ದ್ರಾ	-16.6018
మౌ	-16.6021
▁ಹ್ಲ	-16.6028
▁ण्ड़	-16.6031
್ಳೆ	-16.6033
्त्र	-16.6038
ಜ್ಞ	-16.6047
▁ಬ್ಲೈ	-16.6051
ध्व	-16.606
னொ	-16.6066
్స్కీ	-16.6067
ల్ఫ్రె	-16.607
వ్వు	-16.6071
▁స్త్వా	-16.609
▁గైం	-16.6096
್ಫೆ	-16.6115
ಸೃ	-16.6131
▁जॅ	-16.6132
▁ಕ್ಟ್ಸ್	-16.6132
্জ	-16.6132
▁ಗ್ಸ	-16.6147
ದ್ವಾ	-16.6151
▁ಛ್	-16.6153
ಸ್ಟೀ	-16.6155
▁र्व्या	-16.6159
▁ব্জ	-16.6171
ష్టా	-16.6173
ಪ್ಲಾ	-16.6176
▁ద్ధ్	-16.6178
డ్ల	-16.618
▁ಕ್ಸ್ಟಿ	-16.6183
্ভা	-16.6188
▁ట్ఫ	-16.6192
▁ఫ్రొ	-16.6196
▁क्ष्	-16.6198
▁ష్పి	-16.621
ವ್ರ	-16.621
್ಚಿ	-16.6216
▁वाॅ	-16.6217
ਖੱ	-16.6219
▁ವ್ಮೆ	-16.6221
ਢਾਂ	-16.6249
র্গ	-16.6253
ট্ট	-16.6254
ಬ್ಗ	-16.626
ষ্ঠি	-16.627
▁ন্ধ্	-16.6272
ন্ডে	-16.6276
▁ਢ਼	-16.628
స్ట్రీ	-16.6282
টী	-16.6291
ਗੌ	-16.6307
్సె	-16.631
▁వ్స్ట	-16.6316
দ্ব	-16.6319
▁தாா	-16.632
়্যা	-16.6324
▁ర్ద్	-16.6332
ಷ್	-16.6335
స్కా	-16.6339
ర్ధ	-16.6348
స్క	-16.6354
ন্দো	-16.637
್ಞ	-16.6378
▁హాః	-16.638
न्च	-16.6385
ಸ್ಕ್	-16.639
▁श्वो	-16.6395
▁డ్స్లా	-16.6395
ৌঁ	-16.6404
द्दी	-16.6421
▁न्हौ	-16.6433
▁ప్త్	-16.6445
▁క్స్క్ల	-16.645
सृ	-16.6452
ప్రో	-16.6455
ళ్ళు	-16.648
▁ஙு	-16.6486
सुं	-16.6487
▁ಯ್ರ	-16.6494
ధే	-16.6501
▁ಘ್	-16.6502
▁ఫ్ట్ల	-16.6504
▁ష్వి	-16.6509
▁ণ্টি	-16.6511
▁ర్త్యు	-16.652
▁ਞੈ	-16.6522
्लॅ	-16.6528
▁ಯ್ಸಿ	-16.653
▁ರ್ನ್ಗ	-16.6536
ಣ್ಣಿ	-16.6536
ग्ला	-16.6539
ಜೇ	-16.6542
గ్రీ	-16.6543
▁চ্ছ্র	-16.6544
▁ಲ್ಟ್ಗ	-16.6552
ಸ್ಮಿ	-16.6565
भौ	-16.6566
্টি	-16.6572
▁ಪ್ಕ	-16.6577
ಧೆ	-16.6578
▁র্ছ	-16.6585
ನೌ	-16.6586
జ్య	-16.6599
▁দ্যৈ	-16.6616
्थे	-16.6618
▁ष्याः	-16.6622
্মৈ	-16.6626
्फ़ी	-16.663
▁ಲ್ಡ್ರ	-16.6638
ನ್ಗ	-16.6644
್ಳಾ	-16.6645
শ্ন	-16.6647
र्जु	-16.6652
▁ట్ఫ్ల	-16.6652
ద్ది	-16.6661
श्ते	-16.6662
▁क्ष्यः	-16.667
घे	-16.6675
द्व	-16.6676
సొ	-16.6682
స్మి	-16.6682
▁ರ್ಝ	-16.6682
ঙ্গী	-16.6684
▁ಪ್ಗ್ಳ	-16.6693
▁व्ज	-16.6694
ਟੱ	-16.671
▁ష్రూ	-16.6714
ಟ್ಸ್	-16.6715
▁వ్ట్	-16.6724
਼ੋ	-16.673
र्षी	-16.6731
▁ঙ্কঃ	-16.6731
्हें	-16.6735
▁ತ್ರ್	-16.6743
▁న్త్య	-16.6747
ಊ	-16.675
ब्ब	-16.6754
▁ल्ते	-16.6756
్స్	-16.6757
্চ	-16.6764
फ़ी	-16.6764
द्द	-16.6766
▁स्तुः	-16.6775
▁ಸ್ಪ್	-16.6782
▁ಲ್ಮೋ	-16.6785
र्ल्ड	-16.6805
▁हिः	-16.6809
▁भोः	-16.6815
బ్బ	-16.6815
र्	-16.6816
▁खीः	-16.6833
▁ट्सः	-16.6848
▁థ్రో	-16.6849
ಟ್ಟಾ	-16.6854
দ্রে	-16.686
्रः	-16.686
ஹோ	-16.6862
ਟਿੱ	-16.6863
▁షౌ	-16.6864
ర్థం	-16.6872
গ্যা	-16.6874
च्छि	-16.6878
▁ಳ್ಗ	-16.6885
र्जि	-16.6893
ਫੁ	-16.6896
▁ক্চ	-16.6899
దః	-16.6903
▁ऊॅ	-16.6905
ష్క	-16.6907
స్పి	-16.6926
▁ल्दे	-16.6931
्क्ष	-16.6936
त्वों	-16.6939
न्दु	-16.6946
्घो	-16.6956
▁ஆா	-16.6957
▁ण्म	-16.6959
▁ಸ್ಕ್ಟ	-16.6964
▁न्स्	-16.6965
दै	-16.6975
্ত্রো	-16.6977
ஹீ	-16.6978
▁జ్ఝ	-16.698
ਘੁ	-16.6983
శ్న	-16.6985
ణ్య	-16.699
నుఁ	-16.6997
▁स्त्वा	-16.6998
ಗ್ಯಾ	-16.7002
▁ण्ट्र	-16.7009
थ्वी	-16.7014
ಸ್ಕೃ	-16.7022
ਨੱ	-16.7028
▁ग्धो	-16.7028
ಬೌ	-16.703
द्वी	-16.7042
ಬ್ರಿ	-16.7058
র্কি	-16.7065
ক্ষ্য	-16.7073
ఊ	-16.7075
▁क्क्त	-16.7076
▁च्ये	-16.7083
▁ম্ফো	-16.7084
▁ల్ద	-16.7085
▁ರ್ಮೊ	-16.709
हैंः	-16.7097
र्वो	-16.7098
▁ర్క్ర	-16.7099
ঙ্গি	-16.7111
क्य	-16.7119
েঃ	-16.7126
म्यू	-16.7127
ర్కె	-16.7132
▁హ్రె	-16.7139
▁হঁ	-16.714
▁फ्यो	-16.715
రేం	-16.7152
వ్వా	-16.7153
ಶ್ವಾ	-16.7153
▁ಲ್ಸ್ಟ	-16.7162
▁ఫ్న	-16.7168
্ফা	-16.7171
▁ह्न्	-16.7173
▁ল্সে	-16.7177
క్టా	-16.7178
ಸ್ನಾ	-16.7184
ইং	-16.7185
झौ	-16.7186
र्दि	-16.7189
ఢి	-16.7197
ರ್ಜ	-16.7203
▁ಥ್ವ	-16.7216
్భా	-16.7228
ণ্য	-16.7235
त्थ	-16.7246
▁ಸ್ನೊ	-16.7252
प्ट	-16.7257
▁द्मो	-16.7267
▁हीः	-16.7269
ण्य	-16.7269
னூ	-16.7275
ড়ী	-16.7275
्फि	-16.7283
ल्	-16.7291
▁স্তঃ	-16.7293
स्टें	-16.7298
▁ট্ফ	-16.7305
▁త్స్	-16.7318
▁ಕ್ಚು	-16.7324
ಚೂ	-16.733
ర్తు	-16.7331
সৌ	-16.7332
च्ची	-16.7338
▁ल्सो	-16.7339
▁డ్వె	-16.7339
्फ	-16.734
ಟ್ಗ	-16.7345
్దం	-16.7354
్త	-16.7356
▁सुः	-16.736
▁ಮ್ವ	-16.7366
र्घ	-16.7373
ಲ್ಕು	-16.7373
▁थ्व	-16.7382
क्यो	-16.7389
▁డ్నే	-16.7426
▁ಸ್ಪ್ಲ	-16.7427
ष्यः	-16.7429
ভ্যা	-16.7435
ट्ठा	-16.7449
ఠా	-16.7452
ब्दों	-16.7475
▁ರ್ಚ್ಯ	-16.7482
▁ఫ్ఫ	-16.7489
▁म्स्क	-16.7496
▁யூா	-16.7498
▁ರ್ಗ್ಮ	-16.7502
శ్చ	-16.7503
▁ಥ್ರಾ	-16.7516
র্স	-16.7517
▁ఛె	-16.7522
▁র্থ্যা	-16.7524
ਚੂ	-16.754
क्ष्म	-16.754
੬	-16.7541
হৃ	-16.755
▁ಲ್ವ್	-16.7559
▁ਰੇਿ	-16.7564
▁ద్లా	-16.7568
್ಸೀ	-16.7569
▁द्ब्र	-16.7572
್ಶೆ	-16.7572
▁ग्रौ	-16.7575
ব্রি	-16.7578
న్సి	-16.7586
ర్వే	-16.7598
▁রেঁ	-16.7599
्घा	-16.76
▁ಡ್ಸ್ಗ	-16.7605
▁ক্ত্য	-16.7609
జ్ఞ	-16.7612
್ಹ್	-16.7616
र्पि	-16.7619
_	-16.763
ਹੋਂ	-16.7633
त्वा	-16.765
▁ਣੰ	-16.7653
▁न्स्ट्र	-16.7657
ల్డ్	-16.766
్చ	-16.7668
▁ಡ್ಜಿ	-16.7686
▁ర్ష్మ	-16.7688
▁ಜ್ಗಾ	-16.7688
▁ಲ್ದಿ	-16.7698
▁ಹ್ಞೂ	-16.7703
▁ర్వ్డ్	-16.771
▁ಫ್ಟ್ಗ	-16.7711
▁ಲ್ತ	-16.7713
ప్తి	-16.7713
▁ख्ख्	-16.7718
▁ख्क्	-16.7719
▁ಕ್ಸ್ಪೆ	-16.7722
ेंः	-16.7722
ಗೃ	-16.7726
ರ್ಧಾ	-16.7726
ర్న	-16.773
পৌঁ	-16.7733
▁న్బౌ	-16.7734
▁ర్ట్క	-16.774
ಬ್ರಾ	-16.7744
ত্ত্ব	-16.7745
▁ದ್ರ್ರ	-16.7745
▁ਅਿਾ	-16.775
▁ड़ेंः	-16.7752
▁হ্ল	-16.7755
ফ্যা	-16.7766
▁జ్ఙ	-16.7774
क्च	-16.7784
হ্ম	-16.779
▁य्यो	-16.779
ग़ा	-16.779
क्रॉ	-16.7791
Q	-16.7793
्हो	-16.7797
▁ಗ್ಲ್ಯಾ	-16.7797
న్మ	-16.7804
▁ಸ್ಟ್ಸ್	-16.7806
▁ಗ್ಚೆ	-16.7808
▁ಣ್ರ	-16.7809
▁र्भः	-16.7822
్ఫ్రె	-16.7825
▁న్ధి	-16.7827
▁ರ್ದೊ	-16.783
▁ਤੋੋ	-16.7831
ক্ষু	-16.7831
ಪ್ತ	-16.7832
▁ಕ್ಲ್ಯಾ	-16.7833
ತ್ಪಾ	-16.7849
▁ಚ್ಡ	-16.785
ట్రె	-16.7853
▁ध्रा	-16.7859
फ्त	-16.7862
▁ಖ್ವಿ	-16.7863
ಣ್	-16.7871
▁र्धे	-16.7872
▁ಶ್ಶ	-16.788
ಸ್ಟ್ರಾ	-16.7884
ग्न	-16.7886
▁న్హే	-16.789
▁ष्ठ्य	-16.7893
্ঠি	-16.7895
▁ల్స్ః	-16.7898
▁ঞ্চো	-16.7902
ழே	-16.7903
▁ప్రు	-16.7905
▁फ्ज़	-16.7907
्दु	-16.7907
▁ज़्न	-16.7912
▁బ్మ	-16.7914
್ಸ್ಪಾ	-16.7914
▁ಗ್ಸ್ಃ	-16.7916
▁ల్సె	-16.7918
ಧ್ವ	-16.7926
తిః	-16.7928
ूः	-16.793
षो	-16.7931
▁व्ल	-16.794
▁ब्भ्	-16.7948
▁त्ताः	-16.7955
▁ಮ್ಪಾ	-16.796
▁ಯ್ಟ್	-16.7964
কৌ	-16.7966
ন্ধে	-16.7979
▁గ్దు	-16.7981
▁ర్స్ప	-16.7983
▁ಲ್ಹ್	-16.7997
ड्रो	-16.7999
ॅं	-16.8001
্ছে	-16.8003
द्दा	-16.8004
ম্মা	-16.8012
్ఛి	-16.8013
व्यू	-16.8024
▁ಸ್ಡ	-16.8031
ష్ణు	-16.8038
ధ్వ	-16.8039
▁वेः	-16.8045
▁राॅ	-16.8045
▁జ్క	-16.8049
क्रै	-16.8056
▁स्प्लै	-16.8063
▁श्वः	-16.8077
रः	-16.808
र्के	-16.8082
వాం	-16.8083
▁शॅ	-16.8084
ন্ডা	-16.8085
గ్యా	-16.8086
▁శ్ప	-16.8095
▁క్స్ట	-16.8098
्तेः	-16.8116
ರ್ಹ	-16.8121
ज़ो	-16.8128
డ్స్	-16.8132
ত্	-16.8133
▁ड्ढ़	-16.8136
ನಃ	-16.8136
র্জা	-16.8141
▁যৈ	-16.8141
ఛి	-16.8157
భీ	-16.8165
▁ग्मो	-16.8166
चां	-16.8172
ন্টি	-16.8173
ष्म	-16.8174
▁ತ್ತೆೆ	-16.8187
▁ల్త	-16.8192
గ్గి	-16.8197
ದ್ದೀ	-16.82
▁ড়ৎ	-16.8206
ਮੀਂ	-16.8231
▁ಷ್ಗ	-16.824
ধ্ব	-16.8242
▁ಳ್ಬ	-16.8243
▁ङो	-16.8243
ਈਂ	-16.8247
ম্বা	-16.8255
ಷ್ಯಾ	-16.8257
र्शि	-16.8276
▁स्प्ल	-16.8278
्द्रा	-16.8281
▁দ্ধ্য	-16.8286
స్నే	-16.8301
▁ಲ್ಸೆ	-16.8302
ఛ	-16.8302
ప్తం	-16.8307
ਠੋ	-16.8337
క్కిం	-16.8338
▁ಧ್ಧ	-16.8338
र्ब	-16.834
੯	-16.8344
न्दू	-16.8346
▁च्छ्व	-16.8351
వ్యూ	-16.8372
▁ధ్ధా	-16.8384
ম্	-16.8393
র্ভ	-16.8394
ग्रु	-16.84
▁क्ष्यो	-16.8401
▁ರ್ವೃ	-16.8412
▁स्यः	-16.8416
ਡੈਂ	-16.8438
▁ਪੁੁ	-16.8438
స్క్	-16.8448
ਥੱ	-16.8457
▁্গ	-16.8464
ತ್ಸಾ	-16.8466
বৎ	-16.8469
▁অঁ	-16.8472
್ಸ	-16.8487
ద్వి	-16.8492
र्भा	-16.8494
ر	-16.8496
ਿਂ	-16.8496
▁ణ్వు	-16.8505
्भ	-16.8507
▁వ్గ	-16.8507
గ్లో	-16.851
झि	-16.8518
थु	-16.8525
್ಕೀ	-16.8526
డ్లు	-16.8526
▁ಥ್ನ	-16.8537
ডু	-16.8545
ఖ్యం	-16.8546
ಖು	-16.8548
ক্য	-16.8557
ਜੌ	-16.8562
চৌ	-16.8567
▁న్వు	-16.8569
▁ಡ್ಪ	-16.8572
र्वी	-16.8575
श्या	-16.8576
▁ਰੋੋ	-16.8585
▁ರ್ಷೇ	-16.8587
্চৈ	-16.859
्हौ	-16.8598
▁మ్సి	-16.8611
್ಝಾ	-16.8628
▁ర్స్క్	-16.8641
▁ಪ್ಸಾ	-16.8646
्से	-16.8652
▁क्मे	-16.8658
तां	-16.8672
्सः	-16.8677
੦	-16.8679
स्क्री	-16.8683
ತ್ತೊ	-16.8686
▁स्त्	-16.8693
ब्लॉ	-16.8695
▁न्ब	-16.8725
ತ್ಯೆ	-16.8726
ब्लि	-16.8729
্ধ	-16.8729
య్యే	-16.873
ष्यों	-16.8733
▁ప్మ	-16.875
▁ಡ್ಸ್ಟ	-16.876
▁র্র	-16.8762
హృ	-16.8764
▁ప్త్య	-16.8768
▁स्फि	-16.877
ಚ್ಛ	-16.8779
▁ట్సి	-16.8785
▁ದ್ಘ	-16.8786
▁ಲ್ರಿ	-16.88
ड्रे	-16.8818
ಲ್ನ	-16.8823
ఱ	-16.8831
श्ले	-16.8845
ర్కా	-16.8845
ड्री	-16.8846
್ಷೆ	-16.8847
▁థ్రా	-16.886
ಕ್ಟ	-16.8875
स्पा	-16.8877
▁म्भ्रा	-16.8881
्त्रः	-16.8883
ಭ್ರ	-16.8889
ಭೋ	-16.8898
੭	-16.8908
▁त्स्थ	-16.8912
▁డ్త్	-16.8918
▁ರ್ಸ್ಟ್	-16.8933
್ಪ	-16.8933
▁చ్ప	-16.8934
ಳಂ	-16.8943
▁স্স্	-16.8946
▁ণ্ড্য	-16.8949
▁ढेंः	-16.8954
਼ੈ	-16.8954
▁न्ञ्ज	-16.8957
▁ರ್ಘ್ಯ	-16.896
▁थ्र्य	-16.8967
ভ্য	-16.8967
्रें	-16.897
▁प्सु	-16.8973
▁फ़्स	-16.8976
్ధి	-16.8998
ஜு	-16.8999
ਰੈੱ	-16.9
▁त्त्	-16.9004
ದ್ರು	-16.9006
▁ಪ್ಟ್ನ	-16.9008
ದ್ವಿ	-16.9015
ಲ್ಕ	-16.9017
ਫ਼ੇ	-16.9017
▁क्स्प	-16.9026
ल्कु	-16.9029
ರ್ಚೆ	-16.9034
षु	-16.9035
్కే	-16.9035
र्थों	-16.9036
▁ఖ్వీ	-16.9036
त्रु	-16.9043
▁ঙ্ম	-16.9049
ਝੋ	-16.9059
▁নেঃ	-16.9065
্ল	-16.9065
ర్క్	-16.9077
▁ట్త	-16.9078
▁ಡ್ತ್	-16.9088
▁గ్బ్	-16.9093
ज़े	-16.9099
▁য্	-16.9116
్మే	-16.9119
ਟੌ	-16.9119
క్టు	-16.912
▁ದ್ಲ	-16.912
▁ড্য	-16.913
▁क्स्	-16.9136
▁ರ್ಟ್ಸ್ನ	-16.9147
ధూ	-16.9155
▁न्द्वी	-16.916
ಡ್ನ	-16.9161
ర్టి	-16.9162
▁ಲ್ಘ	-16.9165
੮	-16.9168
চ্যা	-16.9169
್ಸ್	-16.9171
ष्णु	-16.9175
ಕ್ಲಿ	-16.918
▁ಲ್ಗೋ	-16.9183
ಝಾ	-16.9184
দ্রা	-16.9185
ర్డ్	-16.9202
ষী	-16.9207
্ট	-16.921
▁ಲ್ಲ್ಯಾ	-16.9227
▁ट्क	-16.9234
▁ర్ట్ఫ	-16.9237
▁స్ట్ః	-16.9238
▁ಶ್ಟ	-16.9238
▁্ভ	-16.9241
▁ವ್ನಿ	-16.9241
▁व्ज़	-16.9247
प्रौ	-16.9253
▁ಟ್ಕೋ	-16.9266
ग्ग	-16.9269
▁ರ್ಡ್ಪ್ರ	-16.9272
দৈ	-16.9272
ਫ੍	-16.9281
▁சாா	-16.9283
▁च्वॉ	-16.9285
▁డ్సే	-16.9288
्त्री	-16.9296
▁ವ್ಗಾ	-16.93
▁డ్చె	-16.9301
ఫ్రె	-16.9312
्स्ड	-16.9322
द्यु	-16.9325
ಲ್ಸ್	-16.9329
▁ల్ష	-16.9334
्चे	-16.9337
▁ठ्यो	-16.934
▁ਿ੍	-16.9356
ಕ್ಸಿ	-16.936
ক্ষী	-16.9369
▁वुं	-16.9376
್ಸ್ಟ್ರಾ	-16.938
्सो	-16.9385
▁न्क्स	-16.9391
▁न्ग्र	-16.9393
▁త్కే	-16.9399
ल्थ	-16.9403
▁ಸ್ಪ್ರ	-16.9406
्के	-16.9421
म्हें	-16.9425
ర్జు	-16.9427
್ಚ	-16.9428
ਛੋਂ	-16.9434
▁யாா	-16.9435
▁ర్యై	-16.9438
ಕ್ಷಾ	-16.944
ರ್ವಾ	-16.9447
▁ర్మై	-16.9449
ন্দ্রে	-16.9463
▁र्ज्य	-16.9473
▁ड़ेः	-16.9505
▁ರ್ಟ್ಲಿ	-16.9506
▁र्तः	-16.9512
ਝੌ	-16.9523
ਢਿ	-16.9525
র্টি	-16.9533
ল্লি	-16.9534
▁ਕ਼	-16.9534
ఠి	-16.9535
ಷ್ಟಾ	-16.9552
क्ष्मी	-16.9561
▁ಲ್ಜ	-16.9562
ನ್ನೊ	-16.9568
ب	-16.9573
ਝਿ	-16.9578
▁ङ्क्त	-16.9595
▁ವ್ಲೆ	-16.9601
▁ধ্য়	-16.9602
▁ল্ছ	-16.9604
यॉ	-16.9609
ಪ್ರೊ	-16.9612
ਧੱ	-16.9614
ಔ	-16.9614
చౌ	-16.9621
లెం	-16.9627
▁ম্স	-16.9635
್ರ್ಯ	-16.9639
▁ణ్ల	-16.9653
▁ण्ड्स	-16.9654
ল্পে	-16.9655
▁र्मै	-16.9659
▁न्जो	-16.9667
▁र्जो	-16.9671
೩	-16.9671
▁ಗ್ನೊ	-16.9672
द्रो	-16.9707
▁त्त्या	-16.9718
▁ಷ್ಚ	-16.9719
ಶ್ಚ	-16.9723
র্য্য	-16.9734
▁క్గ	-16.9735
▁ल्त्स	-16.9735
▁ಗ್ಲ್	-16.9742
ஹே	-16.9748
ਫੂ	-16.9759
▁మ్యో	-16.9766
▁ಟ್ಕೊ	-16.9766
▁ಸ್ಬೆ	-16.9773
ক্ট	-16.9797
ళ్లా	-16.98
್ಹ್ಯಾ	-16.9801
ద్రు	-16.9802
@	-16.9808
న్నో	-16.9811
ı	-16.9813
बौ	-16.9816
ದ್ಯು	-16.9828
▁గ్స్ల	-16.9839
ದ್ರಿ	-16.9842
क्षु	-16.9844
್ನಂ	-16.9849
्क्री	-16.9861
्नः	-16.9865
▁ನ್ತ	-16.9868
▁क्त्य	-16.987
▁ష్త్ర	-16.9878
গৃ	-16.9881
हैः	-16.9881
ঙ	-16.9892
న్యం	-16.9894
ళం	-16.9935
್ಟ್ರೇ	-16.9941
▁వ్లె	-16.9953
డెం	-16.996
চ্চি	-16.9974
స్ట్రే	-16.9977
క్రె	-16.998
▁কাৎ	-16.9982
▁ళ్క	-16.9989
్నాం	-17.0006
ढ़ें	-17.0017
्दः	-17.002
ट्टा	-17.0025
्टो	-17.0043
ర్షి	-17.0053
▁ಯ್ಗ	-17.0062
ಬ್ಬಿ	-17.007
ड्र	-17.0074
▁श्मो	-17.0076
క్య	-17.0083
ট্র	-17.0084
ন্থ	-17.0093
ల్పి	-17.0097
ತ್ರಾ	-17.0102
▁క్లాం	-17.0103
▁ర్డై	-17.0105
्त्या	-17.0107
ಸ್ಮ	-17.0109
ਣੋ	-17.0115
▁দ্ঘ	-17.0118
త్ని	-17.0121
खीं	-17.0126
্মো	-17.0127
দ্দা	-17.0132
न्ता	-17.0138
ಮ್ಮಿ	-17.0146
▁थ्रा	-17.0147
ਬੌ	-17.016
స్కో	-17.0161
स्कि	-17.0164
দৌ	-17.0174
▁গ্ব	-17.0175
্ভি	-17.0176
▁ञ्चो	-17.0185
ద్దే	-17.0195
್ಟ	-17.021
স্ম	-17.0211
স্টি	-17.0213
प्श	-17.0221
▁ਕੋੋ	-17.0223
యీ	-17.023
न्हो	-17.0231
ದುಃ	-17.0232
▁ಶ್ಗ	-17.0253
র্চ	-17.0263
▁ಮ್ಸಾ	-17.0269
मः	-17.0274
ब्दी	-17.0278
ಟ್ರು	-17.0285
ন্ডি	-17.0286
గై	-17.0297
शौ	-17.03
▁न्क्	-17.0302
టాం	-17.031
ক্কা	-17.0313
▁గ్ప	-17.0316
ஸு	-17.0335
জ্ব	-17.0339
क्के	-17.0342
▁ब्ह	-17.035
స్టె	-17.0352
ਦੈ	-17.0359
▁డ్స్మ	-17.036
র্বে	-17.0365
స్మ	-17.0368
▁క్త్వ	-17.0369
▁म्ज	-17.0379
ঁা	-17.038
▁ব্ল্	-17.038
़्फ़	-17.038
▁ದ್ಸ	-17.0381
र्ल	-17.0383
▁জ্ঞৈ	-17.0387
ਘੀ	-17.0388
▁न्ज्यू	-17.039
र्शा	-17.0403
▁ಷ್ಕಿ	-17.0404
্য়া	-17.0404
▁వ్ప	-17.0405
ಸ್ಕೋ	-17.0407
্হি	-17.0407
▁घः	-17.0415
▁మ్పి	-17.0423
▁ण्डौ	-17.0432
▁স্তৈ	-17.0439
খুঁ	-17.044
▁ర్గ్ర	-17.0446
▁స్ఫి	-17.0453
▁ర్స్కీ	-17.0453
▁গ্নো	-17.0454
్ట్యా	-17.0456
ఖ్యా	-17.0463
্দ	-17.0466
▁ಟ್ಠ	-17.0468
ਂੈ	-17.0473
झी	-17.0481
न्थ	-17.0483
్టై	-17.0488
్స్టా	-17.0497
র্ম্ম	-17.0505
ஹை	-17.0507
ద్యం	-17.0511
▁ಕ್ಬ್ಯಾ	-17.0511
ಚೈ	-17.0511
▁कोः	-17.0516
न्दि	-17.0517
▁శ్చీ	-17.0521
▁थींः	-17.0525
▁ನ್ಡಾ	-17.0528
▁स्र्प	-17.0529
▁ট্যো	-17.0535
▁स्त्रः	-17.0536
▁ಟ್ಬ್ಯಾ	-17.0544
▁ಮ್ಚ	-17.0567
▁चाः	-17.0579
▁छ्व	-17.058
▁घ्य	-17.0585
▁ಮ್ಜ	-17.0585
▁ಫ್ಸ್ಟ	-17.0592
▁ಸ್ಮ್	-17.0598
$	-17.0606
▁र्त्यो	-17.0606
फ्ते	-17.0607
▁ర్త్మ	-17.0618
▁म्ज़	-17.0622
র্ডে	-17.0633
▁త్న్యా	-17.0637
▁స్గో	-17.0639
स्मि	-17.064
ಫ್ಯಾ	-17.064
क्ली	-17.064
▁ऱ्	-17.0661
▁ದ್ಹ	-17.0673
▁णॉ	-17.0684
ਯਿ	-17.0686
स्ट्र	-17.0688
फ्ला	-17.0695
ರ್ಬ	-17.0696
ड्डा	-17.0696
ఘం	-17.0698
్ట్ః	-17.07
্ষা	-17.0707
▁ರ್ಣ್	-17.0715
▁స్ఖ	-17.072
ম্ভা	-17.0746
्बे	-17.0748
್ಷಾ	-17.0748
స్టీ	-17.0751
ತ್ಯು	-17.0751
್ಬೆ	-17.0758
్చి	-17.0762
▁డ్న్య	-17.0774
ਜੈਂ	-17.0776
▁म्भ्	-17.0779
▁ಯ್ತೆ	-17.078
ధో	-17.0782
খী	-17.0796
▁क़्	-17.08
ন্সি	-17.0805
▁త్స్వా	-17.0815
▁ಕ್ಪ	-17.0821
ಣೇ	-17.0836
▁ड़़	-17.0836
▁ಡ್ಮೆ	-17.0853
ಧ್ಯೆ	-17.0855
▁త్త్యు	-17.0877
क्वि	-17.0878
ணே	-17.088
ద్రి	-17.0888
ರ್ಟಿ	-17.0893
ಟ್ರೊ	-17.0894
সৈ	-17.0897
▁ర్స్ట్	-17.0902
ਣੌ	-17.0907
ఱు	-17.0915
ళ్ళి	-17.0919
ನ್ನೋ	-17.0923
్తు	-17.0928
ವೊ	-17.0937
▁VI	-17.0938
ब्या	-17.0947
्क्र	-17.0956
ಷ್ಟ್ಯ	-17.0958
व्यं	-17.0958
ਝੁ	-17.0974
র্থে	-17.0975
्षा	-17.0979
పౌ	-17.0981
▁ರ್ಪ್ರ	-17.0987
▁గ్రై	-17.0989
প্তি	-17.099
▁ట్స్క్	-17.0999
▁ಮಿಾ	-17.1001
ঠু	-17.1003
▁স্ক্	-17.1004
ফাঁ	-17.1005
▁म्मै	-17.1015
र्कि	-17.1039
ಷ್ಠಿ	-17.1047
শ্যা	-17.1047
▁ಬ್ಲ್	-17.1055
▁ड़ां	-17.1057
थू	-17.1067
क्ट्रि	-17.1075
র্দি	-17.1081
ల్లె	-17.1082
▁వ్కి	-17.1088
▁ಗ್ಸಾ	-17.1091
ఖే	-17.1098
घी	-17.1109
ঙা	-17.1111
ಳ್	-17.1114
ರ್ಥ್ಯ	-17.1123
▁ప్క	-17.1127
▁ಷ್ಫ	-17.1132
्दो	-17.1154
೫	-17.1178
▁क्ट्ठ	-17.1182
ਘਿ	-17.1183
ঞ্চা	-17.1199
ਓਂ	-17.1203
▁ల్ర	-17.1217
ర్కొం	-17.1219
బ్ద	-17.1233
মৌ	-17.1234
़ो	-17.1252
ਛੂ	-17.1258
णो	-17.126
ಸ್ಕಾ	-17.127
ಣೀ	-17.1276
▁क्रौ	-17.1276
्धा	-17.1282
्र्स	-17.1296
▁স্হ্য	-17.1304
ਰੇਂ	-17.1311
▁আা	-17.1315
ಬ್ಲಾ	-17.1319
ప్టె	-17.1326
म्बा	-17.1328
र्मों	-17.1329
ಷ್ಠಾ	-17.1333
र्गों	-17.1337
▁ట్మా	-17.1342
▁గ్ర్య	-17.1352
▁भॉ	-17.1353
▁स्टः	-17.1362
ರ್ಕ್	-17.1376
్డ	-17.138
ন্ধা	-17.1386
ع	-17.1386
▁ಯ್ಯೆ	-17.1399
র্ব্ব	-17.1405
భిః	-17.1408
▁ಗ್ಜಿ	-17.1409
फ्र	-17.1421
▁న్ఫ్ర	-17.1428
▁ల్క్యు	-17.1431
ಕ್ನ	-17.1435
్ధ	-17.144
ভৃ	-17.144
▁ल्ख़	-17.1441
ಶ್ಚಿ	-17.1452
▁త్య్ర్య	-17.1454
▁क्त्त	-17.1471
೯	-17.1473
ਘਾਂ	-17.1481
▁ट्न	-17.1482
दां	-17.1483
▁ಗ್ಧಾ	-17.1489
र्षा	-17.1491
ਫ਼ੋ	-17.1498
▁ख़े	-17.1499
▁स्थाः	-17.15
వ్రా	-17.1504
▁द्यं	-17.1505
▁फ्क्	-17.1509
క్ష్యం	-17.1515
▁बाः	-17.1521
్డ్	-17.1527
ष्प	-17.153
▁फ़्रै	-17.1533
▁স্স	-17.1538
ನ್ಮ	-17.1544
त्यो	-17.1552
▁य्	-17.1555
▁क़्स	-17.1558
▁न्त्	-17.1574
▁క్ష్	-17.1579
ಟ್ಯೂ	-17.1628
ম্য	-17.1636
▁ತ್ಸ್	-17.1636
श्रृ	-17.1643
▁న్క్ల	-17.1665
▁र्ीी	-17.1677
▁स्ख़	-17.1694
▁ర్ధ్	-17.1698
▁శ్వు	-17.1704
▁क्ल्प	-17.1709
পৌ	-17.1709
II	-17.1713
হ্যা	-17.1722
స్పా	-17.1725
నః	-17.1745
ঙে	-17.1745
్లం	-17.1746
ಝ	-17.175
▁త్ప్రు	-17.1764
▁षौ	-17.1765
क़ा	-17.1768
▁ರ್ಸ್ಮ	-17.1768
೪	-17.1771
▁ব্ধে	-17.1772
ষ্ক	-17.1777
ভ্র	-17.1777
▁న్ట్	-17.1778
▁ফেঁা	-17.178
▁ಗ್ಝ	-17.1783
ड़ें	-17.1784
ক্	-17.1784
್ಸು	-17.1798
▁ক্ঝ	-17.1803
▁ಲ್ಶ	-17.1804
চ্চা	-17.1807
▁ਰੁੂ	-17.1819
ರ್ನಿ	-17.1823
▁स्ज	-17.1823
स्रो	-17.183
ನ್ಸಿ	-17.1838
র্টে	-17.1845
र्मे	-17.1855
্ঠে	-17.187
శ్య	-17.1885
▁ঙ্ক্য	-17.1913
▁ఞ్	-17.1916
▁খ্র	-17.1917
ద్ధా	-17.1924
ర్టా	-17.1933
▁ধ্র	-17.1936
ਨੋਂ	-17.1939
▁प्फ	-17.1939
ग़	-17.1941
ట్వి	-17.1947
▁ಕ್ಫ	-17.1949
▁ಯ್ಟ	-17.1961
਼ੂ	-17.1962
দ্যু	-17.1975
▁ಷ್ಠ್	-17.1981
▁र्हा	-17.1995
▁ष्त	-17.1997
ರ್ಚ್	-17.2009
ర్క	-17.2009
न्हा	-17.2016
చ్ఛ	-17.2019
भिः	-17.2021
▁ळ्ळ	-17.2021
శ్లో	-17.2023
నెం	-17.2031
स्पो	-17.2034
▁स्कॅ	-17.2037
क्रां	-17.2043
ಲ್ಪಿ	-17.2044
▁র্র্নি	-17.2045
▁ವ್ಸ್ನ	-17.2047
▁ర్న్ల	-17.2047
▁ರ್ಲ್ಸ	-17.2047
▁ಚ್ರ್	-17.2048
▁চ্যূ	-17.2048
▁घ्नो	-17.2051
▁ర్ట్టై	-17.2052
▁ज़्क	-17.2055
్స్మి	-17.2057
▁ফ্য	-17.2058
হূ	-17.206
▁র্দ্	-17.2073
फ्लो	-17.2074
ब्ख्	-17.2079
ರೀಂ	-17.2086
ర్యు	-17.2094
▁హ్నే	-17.2103
ಝ್	-17.2104
ग्ध	-17.2105
ఱి	-17.2108
జ్డ్	-17.211
ಗ್ರಿ	-17.2111
్యె	-17.2114
▁स्कोः	-17.2124
▁బ్క	-17.2124
ణో	-17.2128
ಜ್ಯೋ	-17.2133
త్నం	-17.2146
ঠো	-17.2152
म्यु	-17.2157
ತ್ಯೇ	-17.2158
▁म्हो	-17.216
▁ರ್ಕ್ಸ್ನ	-17.2173
▁ರ್ಜ್ರ	-17.2174
ర్ను	-17.2179
ਝੱ	-17.2182
▁ಸ್ಕ್ಲ	-17.2184
▁ग्भ्रा	-17.2187
ঁৎ	-17.2187
▁జ్హ	-17.2191
ಗ್ನ	-17.2194
▁ಶ್ಡ್	-17.2201
▁ರ್ಟ್ವ	-17.2203
▁ರ್ಹು	-17.2205
प्ल	-17.2208
ನ್ವ	-17.2208
▁డ్స్ట	-17.221
▁ರ್ರು	-17.2212
্স	-17.2216
▁ఫ్ప	-17.2217
▁ನ್ಕ್ಲ	-17.2218
ಸ್ಪ್ಲಾ	-17.2221
▁ఖ్వ	-17.2222
চাঁ	-17.2229
▁क्छ	-17.2233
ర్ర	-17.2234
द्घा	-17.2239
▁ఖ్త	-17.2239
▁ষৈ	-17.224
▁নাে	-17.224
ప్ల	-17.2249
ब्ल	-17.2258
▁ಲ್ಟ್ನ	-17.2274
మ్మి	-17.2275
ब्भ्	-17.2279
▁ন্সঃ	-17.2279
▁ರ್ಣ್ಯ	-17.2281
స్ః	-17.2293
ఖి	-17.2293
▁ಸ್ಸ್ಟಾ	-17.2306
న్సీ	-17.2307
ষো	-17.2317
▁ನ್ಸ್ಬ	-17.2325
▁म्स्ट	-17.2332
ਦੇਂ	-17.2336
▁స్స్ప	-17.2336
ಕ್ಯ	-17.2345
ರ್ಗೆ	-17.2358
్ట్తో	-17.2373
ಸ್ಲಿ	-17.2385
ت	-17.2388
्वों	-17.2391
ন্ত্রি	-17.2405
স্ট্রে	-17.2409
ಭ್ಯಾ	-17.2409
▁र्ब्र	-17.2414
▁टीं	-17.2415
▁ಡ್ಲ್	-17.2422
ప్తు	-17.2431
घ्र	-17.244
న్కు	-17.2441
ণ্ঠ	-17.2443
▁क्स्प्ल	-17.2452
व्हा	-17.2454
ಚೋ	-17.2464
్టం	-17.2477
स्त्रि	-17.2477
▁ಲ್ಭ	-17.2479
▁ర్థ్వ	-17.2485
र्की	-17.2485
▁ವ್ರ್	-17.2498
ব্ব	-17.2502
▁మ్గ	-17.2507
▁వ్నె	-17.2508
फ़्लि	-17.2508
ख्स	-17.2513
▁ರ್ಸೀ	-17.2525
ర్జి	-17.2526
ಲಿಃ	-17.2526
ರ್ಚಿ	-17.2527
ಲ್ಡ್	-17.2528
್ಖಾ	-17.2549
▁ग़ो	-17.2558
▁ರ್ಡ್ರ	-17.2565
▁क्प	-17.2565
బృ	-17.2568
প্লে	-17.2574
র্ন	-17.2579
ঋ	-17.2582
ਸੋਂ	-17.2587
▁ರ್ಡ್ನಿ	-17.2597
▁ম্স্	-17.2602
▁ರ್ಯೊ	-17.2603
न्स्ट	-17.2607
్డో	-17.2608
▁ध्म	-17.2609
▁ఫ్య	-17.2613
ಗ್ನಿ	-17.2618
घृ	-17.262
ళ్యా	-17.2623
ब्लै	-17.2623
▁స్తొ	-17.2625
ಧ್ರ	-17.2627
డ్రు	-17.2641
త్వి	-17.2645
ಖೈ	-17.2646
▁న్చ	-17.266
ங	-17.2662
▁త్శ	-17.2665
▁ರ್ಧ್ವಾ	-17.2666
ಮ್ಮಾ	-17.2696
థ్	-17.27
▁খ্য়	-17.2705
్వె	-17.2714
ठीः	-17.2715
▁ಫ್ದ	-17.2721
ಡಂ	-17.2726
্লৈ	-17.2734
न्धी	-17.2742
▁వ్న	-17.275
▁র্য়	-17.2753
▁পিঃ	-17.2758
హూ	-17.2766
▁ತ್ಕೊ	-17.2775
▁ನ್ದ	-17.2786
్కొం	-17.2792
▁त्र्यो	-17.2794
्स्ट	-17.2798
▁న్హి	-17.28
್ರಿಂ	-17.2807
ಣ್ಣೆ	-17.2807
ಷ್ಕ	-17.2813
ಟ್ರ್ಯಾ	-17.2815
್ದೂ	-17.2818
ಷು	-17.2841
్కై	-17.2841
▁ढ्ड	-17.2854
▁ళ్త	-17.2856
▁ट्प	-17.2863
্রঃ	-17.2868
గ్రి	-17.2877
క్ష్మ	-17.2889
ग्वा	-17.2894
▁వ్స	-17.2894
ಪ್ಲಿ	-17.2894
್ನೂ	-17.2897
ढ़ो	-17.2901
क्वे	-17.2905
ਥੈ	-17.2907
▁ಪ್ಡ	-17.292
గ్గా	-17.2923
শ্যে	-17.2937
▁ਇਂ	-17.2937
▁म्प्य	-17.2941
ಕ್ಷ್ಮ	-17.2947
ర్భా	-17.2952
ಲ್ಗ	-17.2955
▁ग्ख	-17.2962
শূ	-17.2987
র্বো	-17.2988
್ಕ್ಯಾ	-17.2991
ਡੰ	-17.3008
▁బ్జ్	-17.301
▁ರ್ಕ್ಷ	-17.3016
▁ದ್ಶ	-17.3025
ధృ	-17.3034
ஸை	-17.3043
ತ್ವಾ	-17.3054
চৈ	-17.3066
క్షం	-17.307
ರ್ದಿ	-17.3079
র্প	-17.3087
হ্য	-17.3093
क्सि	-17.3094
೬	-17.3097
್ಷು	-17.3101
र्दा	-17.3101
్ళు	-17.3106
▁্	-17.3112
▁व्यै	-17.3114
▁ಫ್ಮ	-17.313
যৌ	-17.3131
▁ర్ద్వ	-17.3143
▁య్ల	-17.3149
గ్ని	-17.3157
প্রো	-17.3161
▁ड्वि	-17.3162
ম্পি	-17.3162
్బె	-17.3177
▁ಢ್	-17.3182
శ్రా	-17.3183
फ्रे	-17.3184
▁ನ್ತಾ	-17.3186
ರ್ಕಿ	-17.3186
ਡੌ	-17.3189
▁ಪ್ಡ್ರ	-17.319
▁ಚ್ಗಾ	-17.3193
ਖ਼ੂ	-17.3207
೮	-17.3208
ల్చి	-17.3214
న్నాం	-17.3217
▁भ्भ	-17.3241
్హా	-17.3249
ಬ್ದ	-17.3258
▁ओः	-17.3262
ब्जे	-17.3265
ष्ठि	-17.3269
ఫ్రై	-17.3269
ತ್ತೂ	-17.327
झो	-17.3275
ड्डी	-17.3283
ট্র্যা	-17.3284
್ಚೆ	-17.329
▁प्पै	-17.331
గ్రూ	-17.3331
▁ಪ್ಡ್	-17.3335
ಸ್ತ್ರೀ	-17.3345
್ಸ್ಟಿ	-17.3355
▁ਟੈ੍	-17.3358
र्गी	-17.3376
▁ಧ್ದ	-17.3381
▁ल्न	-17.3384
्छे	-17.3389
▁ओंः	-17.3391
▁ವ್ಸ್ಕ್	-17.3396
ಗ್ಗಿ	-17.3403
घि	-17.3403
▁గ్న్య	-17.3405
ఖై	-17.3408
ক্রো	-17.3414
्षे	-17.3415
್ಟೂ	-17.3425
▁ಹ್ಲ್	-17.3427
▁ত্বো	-17.3435
న్స	-17.344
▁ग्मु	-17.345
ಫ್ರೀ	-17.3453
ब्धि	-17.3456
▁न्फा	-17.3456
্ছ	-17.346
▁ज़्ल	-17.3508
শ্	-17.351
్గి	-17.3511
▁மூா	-17.3513
न्दा	-17.3521
ನ್ಸ	-17.3526
ಪೌ	-17.3531
▁త్లా	-17.3532
ల్పో	-17.3533
▁ট্ল	-17.3548
▁र्य़	-17.355
ధ్వా	-17.3552
्त्रि	-17.3555
▁ਜੂੰ	-17.3558
ত্রু	-17.357
▁थ्थ	-17.357
డ్ర	-17.3577
▁య్వ	-17.3582
स्ड	-17.3596
మ్య	-17.3599
ਰਿੱ	-17.3607
గ్లా	-17.3609
न्हे	-17.3613
డ్ను	-17.3615
बृ	-17.3617
▁त्र्त	-17.3618
ట్లే	-17.3619
ल्ह	-17.3624
▁ब्धे	-17.3625
स्सों	-17.3629
श्ता	-17.3631
ক্রী	-17.3639
▁ఫ్స	-17.3641
య్యి	-17.3649
▁घै	-17.3654
ರ್ಪಿ	-17.366
▁జ్ప	-17.368
▁ట్ష	-17.3683
्णो	-17.369
ರ್ಗಾ	-17.3698
নূ	-17.3705
▁ಮ್ಸ್ಗ	-17.3707
▁ਟੂਿ	-17.3713
र्दी	-17.3719
క్కా	-17.3725
ಟ್ವಿ	-17.3733
फ्ले	-17.3736
কূ	-17.3742
ড়ু	-17.3742
ತೈ	-17.3745
▁ಲ್ನೊ	-17.3764
ह्मा	-17.3764
ह्य	-17.3765
ঙ্খ	-17.3772
গৌ	-17.3779
জ্জ	-17.3786
खां	-17.3792
నాః	-17.3792
▁ল্ক্য	-17.3798
▁ಟ್ಟ್	-17.3798
▁య్న	-17.3803
భ్ర	-17.3808
್ಥ್ಯ	-17.3813
▁ನ್ಝ	-17.3813
>	-17.382
ट्रें	-17.3845
▁ಬ್ರ್ರ	-17.3848
प्	-17.3857
ক্ষো	-17.3861
▁স্প্য	-17.3878
क्सा	-17.3881
▁ক্স্	-17.3888
సుం	-17.3889
್ಧಾ	-17.3889
▁ಲ್ಕ್ಯ	-17.3891
▁బ్ల్	-17.3896
ఛు	-17.3908
ಷ್ಟೆ	-17.3917
स्स	-17.3918
▁ప్ఫ	-17.3919
দ্রি	-17.3933
▁र्च्य	-17.3937
▁ವಿಾ	-17.3951
▁ರ್ಜ್ಯ	-17.3955
▁ಯ್ಬ	-17.3958
▁னோா	-17.3965
▁ಖ್ತು	-17.3969
▁ధ్ద	-17.3975
▁మ్స్క్	-17.3981
▁ব্দ্য	-17.3991
▁స్ప్	-17.3995
ಕ್ಲಾ	-17.3995
▁घ्नी	-17.4005
▁ট্চ	-17.4008
ట్టం	-17.4009
స్కృ	-17.4013
ఝు	-17.4015
ಸ್ಪಾ	-17.4016
▁र्धो	-17.4017
್ಟ್	-17.4018
र्ण्र्ाा	-17.4019
▁ఞ్ఛ	-17.4019
್ಡೊ	-17.402
▁ళ్ఛ	-17.4021
▁व्र्व्य	-17.4021
▁ಹ್ಞಾ	-17.4022
கௌ	-17.4023
গ্ন	-17.4024
ర్జీ	-17.4032
▁ग्नेः	-17.4032
ग्रो	-17.4033
▁ञ्ञ	-17.4037
▁ర్క్ఫ్ర	-17.4039
ర్వ్బ్యా	-17.404
फ्लै	-17.404
প্	-17.4044
▁ಖ್ನೋ	-17.4046
▁पू्र्व	-17.4049
ফ্রি	-17.405
ज्ञों	-17.4052
▁ढे़ं	-17.4053
స్తి	-17.4056
▁ష్డ్	-17.4057
▁டாா	-17.4058
क्से	-17.4058
▁ঢ্যা	-17.406
థుం	-17.4069
▁న్ధః	-17.407
ಕ್ರೆ	-17.4081
▁స్ప్ల	-17.4082
▁స్స్మ	-17.4087
▁ಧ್ವೇ	-17.4093
র্ধ	-17.4095
▁ర్ఘృ	-17.4104
▁గ్థ	-17.4106
▁ర్క్రై	-17.4108
೭	-17.4109
ర్థా	-17.4109
▁ক্ষৈ	-17.4128
▁ల్డ్ల	-17.4129
ਨੈਂ	-17.4136
ಸ್ಗ	-17.4144
ತ್ರ್ಯ	-17.4144
র্ধা	-17.4146
▁వ్డ్	-17.4147
ಡ್ಯಾ	-17.4153
▁ష్యై	-17.4154
ಡ್ಯ	-17.4155
▁ঙ্গ্য	-17.4156
▁ಯ್ಲ್	-17.4156
▁య్గ	-17.4165
जौ	-17.4166
▁ग्सः	-17.4167
▁फ़्न	-17.4172
▁ग्स्ट	-17.4177
్చొ	-17.418
▁ಲ್ಖ	-17.4193
▁ವ್ಹ	-17.4195
▁ಪ್ಸ್ನ	-17.4198
▁ಣ್ಸ	-17.4202
▁प्ने	-17.4204
ब्जा	-17.4216
▁ঙ্ঘ্য	-17.422
▁స్ర్ట	-17.423
▁చి్చ	-17.4231
▁ರ್ವೊ	-17.4239
▁র্তীঃ	-17.4243
▁ಸ್ಕು	-17.4244
र्गा	-17.4245
ಲ್ವ	-17.4253
▁ಲ್ಟೈ	-17.4255
्तो	-17.4256
द्ग	-17.426
ণ্ডি	-17.427
▁क्यौ	-17.4272
▁వ్మ	-17.4273
▁ల్ఘ	-17.4274
▁ಸ್ಬೀ	-17.4276
▁ప్ట్ల	-17.4279
▁न्प्र	-17.4281
▁ब्व	-17.4289
দ্বে	-17.4295
್ಳು	-17.43
▁ङ्गै	-17.4306
ঢু	-17.4307
্ধা	-17.4311
▁ফঁ	-17.4311
▁ಟ್ಬ	-17.4314
ल्लीः	-17.4318
▁্ঘ্য	-17.432
నంః	-17.4323
ঞ্চি	-17.4338
▁బ్ధ్వ	-17.4339
ర్ధా	-17.4343
्त्वः	-17.4346
▁జ్ణ	-17.4351
ಸ್ಟ್ರೇ	-17.4353
र्यो	-17.4354
▁ట్రొ	-17.4355
వేం	-17.4362
▁व्भ	-17.4362
▁টৈ	-17.4362
▁ब्स्ट	-17.4374
▁ছ্	-17.4384
ਗ਼ੈ	-17.4387
▁্ম	-17.4388
▁घ्	-17.4399
▁ಚ್ಮ	-17.4405
▁ह्द	-17.4407
ঘে	-17.4414
ಕ್ತಾ	-17.4416
క్ల	-17.4421
▁ಜ್ಕ	-17.4435
ਖੋਂ	-17.4436
ಶ್ನಿ	-17.4436
▁ವ್ನ್	-17.4441
▁त्त्प	-17.4446
్తోం	-17.4448
▁र्ज्या	-17.4448
త్నా	-17.4451
▁র্ষো	-17.4456
▁త్కై	-17.4458
ক্সি	-17.4462
याः	-17.4463
ಕ್ಟ್	-17.4467
▁फ्ज	-17.4469
ರ್ಜೆ	-17.4472
म्मि	-17.4473
ಸ್ಪೆ	-17.4479
्पो	-17.4481
গাঁ	-17.4489
త్న	-17.449
ড্র	-17.4492
ర్జ	-17.4494
्णी	-17.4501
ਣੁ	-17.4511
ಫ್ರೇ	-17.4512
্সঃ	-17.452
▁ద్ప	-17.4521
▁ಖೌ	-17.4526
स्टिं	-17.4539
ਸ਼ੌ	-17.4541
▁ಕ್ಶ್ಮ	-17.4547
্ব্বা	-17.4548
ज़ू	-17.4556
್ನೈ	-17.4559
म्प्र	-17.4567
নিঃ	-17.4576
▁ಮ್ಚಾ	-17.459
▁బ్డ	-17.459
▁ಲ್ವೊ	-17.4605
র্বি	-17.4608
▁స్శా	-17.4611
▁ಮ್ಡ್	-17.4614
ಸ್ಟ್ರೈ	-17.463
न्दो	-17.4641
ಮ್ಯ	-17.4651
▁क्त्	-17.4651
ঢ়	-17.4653
▁త్క్ష	-17.4661
▁নুু	-17.4664
د	-17.4668
्टु	-17.4675
ద్దా	-17.4695
ర్ణా	-17.4697
ర్స	-17.4699
श्रु	-17.4712
ट्ठी	-17.4714
▁दाे	-17.4715
▁ವ್ಸ್ಕ	-17.4716
ల్వ	-17.473
ल्सि	-17.4736
त्मि	-17.4744
ণু	-17.4746
ग्लो	-17.4748
▁థ్ల	-17.475
गैं	-17.4761
श्त	-17.4765
র্থি	-17.4766
▁ಣ್ಯ್ರ	-17.4774
▁খ্ত	-17.4788
ಆ್ಯ	-17.4792
র্দ	-17.4796
र्बा	-17.4797
త్సా	-17.4805
ਏਂ	-17.4814
▁ভঁ	-17.4818
న్నె	-17.4818
▁ట్చ	-17.4821
್ನಿ	-17.4826
▁ज्द	-17.483
▁ग्न्य	-17.483
ಪ್ಪಾ	-17.4833
म्बे	-17.4842
▁ఙా	-17.4845
▁म्यै	-17.4849
ಸ್ಟ್ರಿ	-17.4856
ప్త	-17.4863
ಸ್ಟ್ಯಾ	-17.4871
্ডি	-17.4874
ప్పే	-17.488
▁ನ್ಜ	-17.4883
ত্বা	-17.4889
ष्णा	-17.4901
न्धि	-17.4904
णं	-17.4905
▁ಖ್ರ	-17.491
▁ರ್ಟ್ನಿ	-17.4915
▁స్స్టా	-17.492
ਯੇ	-17.4921
▁डेः	-17.4927
ब्रू	-17.4929
క్స్ట్రీ	-17.4937
ಹ್ವಾ	-17.4942
▁న్పె	-17.4953
ল্ড	-17.4956
త్రో	-17.4962
▁শ্ক	-17.4965
▁क्क़	-17.4972
▁గ్క	-17.4972
▁స్ర్త	-17.4974
మ్మే	-17.4975
్ట్	-17.4977
▁ల్జ	-17.4979
▁న్శ	-17.4988
ದ್ಭ	-17.4995
ಬ್ದಾ	-17.5011
▁ग्त्	-17.5015
নং	-17.5041
▁ತ್ಬಾ	-17.5047
▁గ్యే	-17.5052
গ্নি	-17.5058
ণ্ডা	-17.5059
ಋ	-17.5062
्टॉ	-17.5063
ರ್ಘ	-17.5072
ف	-17.508
शः	-17.5085
▁ವ್ಸ	-17.5098
▁హ్వే	-17.5111
▁ರ್್	-17.5117
▁लोः	-17.5123
జాం	-17.5125
ల్వే	-17.5127
ప్లో	-17.513
र्खि	-17.5131
▁हंी	-17.5136
▁ಡ್ಡ್	-17.5139
▁ਐੈ	-17.5146
ದ್ಧಾ	-17.5152
▁ब्ब्	-17.5153
ಜ್ಞೆ	-17.5155
நை	-17.516
ఫ్రి	-17.5177
न्ट	-17.5183
▁स्ताः	-17.5185
্ঞা	-17.5187
▁ಯ್ನಿ	-17.5191
్సో	-17.5198
ठ्य	-17.5198
ঞ্জি	-17.5199
శ్రే	-17.52
জ্জি	-17.5204
ర్హ	-17.5208
ணோ	-17.5213
ಗೈ	-17.5216
్వై	-17.5218
न्यु	-17.5221
ब्दु	-17.5222
ఫ్ర	-17.5229
ಸ್ಸ್ಟ್ಯಾ	-17.5233
थ्या	-17.5234
ల్లే	-17.5234
స్స	-17.5239
్పె	-17.524
ಕ್ಷ್ಯ	-17.5244
్ఖా	-17.5249
▁ನ್ಟ	-17.5261
ಠೆ	-17.5265
ಣೋ	-17.5267
ष्टी	-17.5269
ಸ್ಸ	-17.527
▁रूः	-17.5278
▁ಲ್ಪ್ಸ್	-17.5283
▁द्स्य	-17.5287
శ్యా	-17.5288
भृ	-17.5297
గ్యు	-17.5297
ఘో	-17.5301
्क्रा	-17.5309
ষ্মী	-17.531
्बि	-17.5312
▁ज्ज्ञ	-17.5327
ಧೂ	-17.5337
▁ক্ষ্ন	-17.5341
্দ্ধ	-17.5352
ब्लू	-17.5377
श्रि	-17.538
స్సా	-17.5387
থ্যে	-17.5388
▁ग्मी	-17.5391
·	-17.5398
్తి	-17.5404
तिः	-17.541
కిః	-17.5413
▁స్బె	-17.5423
▁ङ्खा	-17.5424
डै	-17.5424
ण्डि	-17.5427
్థం	-17.5428
ल्लि	-17.5438
కిఁ	-17.5446
▁ರ್ರ್	-17.5448
त्यं	-17.545
▁ਕੇਿ	-17.5454
▁র্গ্য	-17.5455
్షో	-17.5457
▁न्फ़्ल	-17.5459
▁ళ్కు	-17.5463
ష్కా	-17.5466
থ্যা	-17.5467
▁క్స్చ	-17.5474
ਢੁ	-17.5482
ल्फ	-17.5486
▁ధొ	-17.55
ੈੈ	-17.5511
▁ਥੱਿ	-17.5511
ಪ್ನ	-17.5521
▁య్మ	-17.5529
▁शीः	-17.5531
▁ணௌ	-17.5555
ਵੁ	-17.5566
▁స్చ	-17.557
प्ली	-17.5572
▁হ্রী	-17.5573
▁ङ्ख्य	-17.5577
▁వ్ద	-17.5577
్స్పా	-17.5578
▁న్తీ	-17.5593
్డి	-17.5609
ర్ని	-17.5614
ब्	-17.5628
ర్షా	-17.563
▁சீா	-17.5638
▁দঁ	-17.5639
স্পে	-17.5647
▁ಕ್ಸ್ಕ್	-17.566
ష్మి	-17.5674
ರ್ತಾ	-17.5676
▁ನ್ಮಿ	-17.5676
মাং	-17.5676
ञ्ज	-17.5676
ஷோ	-17.5691
▁ஙே	-17.5706
▁ನ್ಸ್ಕಾ	-17.5713
▁ష్ఠ్	-17.5719
▁న్క్	-17.5719
శ్చి	-17.572
स्वि	-17.5724
▁ध्न्य	-17.5724
ল্যে	-17.5731
▁వ్క	-17.5734
্ফো	-17.5735
▁బ్భ	-17.5757
ల్లం	-17.5759
র্ণি	-17.5772
ర్సు	-17.5773
র্জি	-17.5775
್ಡ	-17.5779
▁द्वो	-17.5789
ढी	-17.5793
ল্পী	-17.5798
ट्	-17.5804
శై	-17.5809
न्ही	-17.5824
▁म्ब्	-17.5826
▁ಸ್ಕ್ವ	-17.5835
ಧೋ	-17.5836
▁బ్జు	-17.5858
ಗ್ರೌ	-17.5862
लीः	-17.587
ಫ್ರೆ	-17.587
▁ఱ్ప	-17.5877
▁ख़्य	-17.588
्माः	-17.5897
▁ल्क़	-17.5916
श्वे	-17.5916
्झ	-17.5922
న్నే	-17.5923
్ట్ర	-17.5924
క్స	-17.5927
ड्ड	-17.5934
হ্	-17.5947
▁ఫ్టా	-17.5947
▁హ్వు	-17.5956
గఁ	-17.596
▁న్స్క	-17.5968
క్రే	-17.5973
ड्रि	-17.598
ಪ್ರೀಂ	-17.5989
్ష	-17.5989
्ठ	-17.6017
णः	-17.6018
म्पा	-17.6036
আঁ	-17.6061
ज्वा	-17.6073
▁క్జ	-17.6082
▁क़्क	-17.6085
ర్చా	-17.6086
्स्क	-17.6107
▁ಫ್ರೊ	-17.611
▁శ్చ్య	-17.6111
▁ర్మ్వ	-17.6116
র্মি	-17.613
र्णा	-17.6136
▁क्झ	-17.6143
ஹு	-17.6153
▁ర్జ్య	-17.616
ಕ್ಟಿ	-17.6166
न्ड	-17.6167
▁ಷ್ಡ	-17.6178
ర్కి	-17.6186
ত্ন	-17.6187
▁జ్రు	-17.6192
▁స్ట్ఫ	-17.6198
्धः	-17.6199
ತ್ಕಾ	-17.6203
ख्	-17.6204
▁ड्म	-17.6214
▁ష్న	-17.6217
न्मा	-17.6224
ঙ্গু	-17.6227
తఁ	-17.6229
క్లు	-17.6236
▁న్థ	-17.6249
್ಟ್ಯಾ	-17.6259
ర్సి	-17.6265
ರ್ಧೆ	-17.6269
▁ಷ್ಟ್ರಿ	-17.6272
▁శ్భ	-17.6272
▁న్స్టె	-17.6273
▁ల్ధ	-17.6278
ब्रो	-17.6283
▁త్త్	-17.6296
▁ड्र्	-17.6301
▁ద్ళ	-17.6308
▁क्ट्	-17.6309
్త్యా	-17.6319
▁ధ్మ	-17.6328
▁स्यौ	-17.633
র্দা	-17.6351
▁ಟ್ಮ	-17.6353
প্ল	-17.6353
క్షీ	-17.6355
▁थ्वो	-17.6365
ఘు	-17.6365
▁ర్చై	-17.6366
ల్య	-17.639
ర్పి	-17.6391
त्था	-17.6391
స్నా	-17.6395
ష్యు	-17.6397
ಕ್ರೈ	-17.6398
▁ర్చ్య	-17.6407
▁ಫ್ಫ	-17.642
ట్జ్	-17.6424
చ్చె	-17.6445
్బ్యా	-17.6445
्स्य	-17.6448
ব্ল	-17.6452
శ్ని	-17.6456
▁ਸਂੈ	-17.6458
▁ಪ್ರ್ಯಾ	-17.6467
▁ರ್ನ್ಟ	-17.6473
▁ज्रा	-17.6483
▁స్ఫె	-17.6496
▁ಫ್ಡ	-17.6502
▁स्म्य	-17.6518
▁फ्ऱ	-17.6519
▁र््ा	-17.6519
▁যু্ক্ত	-17.6521
त्रो	-17.6525
▁भ्फ्	-17.6532
▁স্ত্রৈ	-17.6533
▁ಷ್ಷ	-17.6533
▁ష్ఱ	-17.6533
್ಫ್ಯೂ	-17.6534
क्व	-17.6535
▁ಕ್ಡ್ಯಾ	-17.6538
▁వ్రె	-17.6542
▁శ్శృ	-17.6544
▁গ্দ	-17.6545
▁ర్స్ట్ర	-17.6547
▁ಯ್ಸ್ಗ	-17.6548
ರಿಃ	-17.6548
▁ನ್ಹ್	-17.6552
▁झेंः	-17.6554
णू	-17.6559
▁ष्ण्य	-17.656
▁ల్ప్స్	-17.6563
▁क्शि	-17.6569
ఞ	-17.6571
▁చ్మ	-17.6573
డ్యా	-17.6574
్మ్స్	-17.6576
ञ्च	-17.6577
▁ರ್ಲ್ಡ್ನ	-17.6579
▁ਿੋਿ	-17.6584
▁र्कीः	-17.6586
ರ್ಸಿ	-17.6587
स्तो	-17.6591
▁ত্তৈ	-17.6595
टौ	-17.6605
▁ম্যাং	-17.6613
প্লা	-17.6618
ష్ణా	-17.6623
▁క్హో	-17.6627
▁ನ್ಕಿ	-17.6631
▁ఖ్క	-17.6634
स्ट्रि	-17.6638
श्	-17.6639
▁ರ್ಚ್ಛ	-17.6639
మః	-17.6641
▁डूः	-17.6644
క్స్ప్యా	-17.6648
▁ద్య్ర్య	-17.6652
▁आः	-17.6656
▁స్సౌ	-17.6662
త్మా	-17.6662
▁ప్సో	-17.6666
▁र्ड्	-17.6667
▁థ్యు	-17.6675
ಹ್ಲಿ	-17.6686
ম্ন	-17.6689
ق	-17.6709
్బ	-17.6719
▁ल्टः	-17.6719
ধূ	-17.6721
ਛਾਂ	-17.6721
▁డ్మె	-17.6728
▁ಣ್ಗ	-17.6728
ಷ್ಣು	-17.6729
క్ష్మ్యా	-17.673
▁త్కౌ	-17.6738
లుం	-17.6743
್ಬೀ	-17.6744
▁न्ष्ठ	-17.6749
ఫ్లా	-17.6758
क्नो	-17.6761
ञा	-17.6765
▁ग्ग्र	-17.6766
्षि	-17.6771
▁ರ್ಜೈ	-17.6772
ब्ला	-17.6792
ಕ್ಸ	-17.6816
▁మ్స్వ	-17.6818
ਲ਼ੀ	-17.6826
ర్వీ	-17.6839
▁म्म्म्	-17.6842
▁ತ್ಫ	-17.6842
र्शी	-17.6848
्ट्र	-17.6853
బ్ల	-17.6856
ষ্	-17.6862
▁ಹ್ಮೇ	-17.6865
ਗੂੰ	-17.6876
ल्पि	-17.6879
ಕ್ಷ್ಮೀ	-17.6881
▁న్ద్వ	-17.6889
ಖ್	-17.6893
▁న్స్న	-17.69
▁హ్మూ	-17.6903
ਢੱ	-17.6907
ஷெ	-17.691
▁ల్ఖ	-17.6912
జౌ	-17.6915
▁ರ್ಶ್ಯ	-17.6919
ಜ್ಜೆ	-17.6932
▁ಢು	-17.6933
ك	-17.6943
▁ష్మె	-17.6946
ದ್ಘಾ	-17.6947
গ্ধ	-17.6947
ಕ್ಟೋ	-17.6951
▁ర్స్న	-17.6952
র্ণা	-17.6953
▁ఁ	-17.6956
▁ট্প	-17.6976
▁ష్చె	-17.6983
హ్వా	-17.6999
▁य़ो	-17.7003
ਢੋ	-17.7005
▁ರ್ವ್ನ	-17.7012
▁जोः	-17.7013
ਖੈ	-17.7014
ಬೃ	-17.7015
न्ह	-17.7022
ಜ್ಜ	-17.7032
ర్ఘ	-17.7033
রঃ	-17.7034
ढू	-17.7038
▁ర్హ్య	-17.7047
క్కో	-17.7051
ಘ್ರ	-17.7052
প্ন	-17.7062
▁ಲ್ಬ್ಯಾ	-17.7063
ಡ್ಗ	-17.7065
్థి	-17.7074
ಗ್ಸ್	-17.7091
್ತಿಃ	-17.7092
న్ః	-17.7097
క్ష్మీ	-17.7103
ুু	-17.7103
▁ਸੈੈ	-17.7112
ಯ್ತು	-17.7131
▁ತ್ಶ	-17.7134
బ్బా	-17.7138
▁ल्चि	-17.714
ణే	-17.7157
ಸ್ಟೆ	-17.7162
▁ਸੁ਼	-17.7183
▁ಶ್ಕ್	-17.7185
्ठी	-17.7203
▁स्क्य	-17.7218
▁क्थ	-17.7225
फ्फ	-17.7233
प्पा	-17.7236
స్యం	-17.7238
్ఘ	-17.7249
स्टै	-17.7267
ल्लू	-17.7272
्पॉ	-17.7275
▁డ్జా	-17.7281
लीं	-17.7281
र्क्स	-17.7284
ಡ್ಕ	-17.7287
▁দ্দ্ব	-17.7291
▁ಶ್ಮೆ	-17.7301
▁మ్జ్	-17.7301
్సే	-17.7302
▁ನ್ಡ್ರ	-17.7312
▁న్పా	-17.7314
▁দ্দ্য	-17.7315
▁जेंः	-17.7316
▁ਕੌੌ	-17.7328
ध्र	-17.733
ఢీ	-17.7341
प्रू	-17.7342
▁ब्क्	-17.7354
▁ಫ್ಜಾ	-17.7355
्क्	-17.7356
र्मो	-17.7371
ಳೋ	-17.7372
ర్పే	-17.7374
র্ভি	-17.738
ਡੁ	-17.7387
्चो	-17.7389
ताः	-17.7391
डं	-17.7402
स्के	-17.7408
▁ত্য়	-17.7415
ल्के	-17.7425
्फ़	-17.7435
ట్క్ల	-17.7435
ब्त	-17.7436
▁কঁা	-17.7436
▁स्त्र्य	-17.7438
ब्रु	-17.7441
্য্যা	-17.7442
▁न्त्स	-17.7446
▁గ్బ	-17.745
லொ	-17.7461
▁ರ್ಡ್ಯ	-17.7463
్న్యా	-17.7465
▁ष्णू	-17.747
▁య్ద	-17.7493
▁ಚ್ರ	-17.7494
ಶ್ಯಾ	-17.7497
▁प्स्ट	-17.7499
▁హ్మి	-17.7506
▁ట్హ	-17.7512
ক্লি	-17.7513
▁ரூா	-17.7529
▁र्ट्	-17.7533
▁న్రు	-17.7539
క్సె	-17.7542
ট্রী	-17.7551
▁ಪ್ಕೊ	-17.7551
▁ర్క్య	-17.7554
ల్గా	-17.7558
▁ಹ್ಟ	-17.7558
▁ಟ್ಣ	-17.7584
▁ష్లీ	-17.7602
ళ్	-17.7611
▁ह्नो	-17.7614
್ಸ್ನ	-17.7618
ਡ਼	-17.7619
़्क़	-17.7623
শ্নে	-17.7628
ग्या	-17.7639
र्त्ता	-17.7656
▁ਅੇ	-17.7656
తై	-17.766
▁బ్స్ట	-17.7661
స్లా	-17.767
న్స్టా	-17.7677
त्सु	-17.7677
▁द्ड्र	-17.7678
రః	-17.7701
▁ಜ್ರ್	-17.7703
्णु	-17.7715
▁ನ್ಟ್	-17.7717
క్కొ	-17.7728
▁लाे	-17.7732
থাৎ	-17.7749
क्ख	-17.775
▁ಟ್ಬೆ	-17.7758
▁న్న్య	-17.7759
श्रो	-17.7762
ష్మ	-17.7766
ಮ್ಮು	-17.7768
జ్యా	-17.7768
ಗ್ಲೆ	-17.7774
ಮ್ಸ್	-17.7774
▁ਊੂ	-17.7783
ఔ	-17.7785
▁ಟ್ಚ	-17.7787
ष्	-17.7787
శ్రు	-17.7794
ಛೇ	-17.7794
ఫ్ట్	-17.7808
ಗ್ರೂ	-17.7811
▁ल्फ़ो	-17.7825
▁ष्ष	-17.7833
▁ग्जे	-17.7841
्व्स	-17.7848
य्य	-17.7857
ಜ್ವ	-17.7861
్జు	-17.788
ష్ప	-17.7881
ಡ್ಮಾ	-17.7892
জ্যা	-17.7899
ट्टि	-17.7905
▁చ్వ	-17.7907
ज्व	-17.792
ಕ್ಸೆ	-17.7922
న్యు	-17.7922
र्गे	-17.7946
চূ	-17.7947
▁व्ब	-17.7966
ರ್ಚು	-17.798
▁శ్ఛ	-17.7985
ఖు	-17.7985
್ಶಾ	-17.7991
స్ట్రి	-17.7999
్స్ర్క	-17.8004
ట్రు	-17.8007
ष्मी	-17.8008
್ಗೋ	-17.8009
▁ల్ద్	-17.8012
ক্তে	-17.8028
क्लो	-17.8028
র্শে	-17.8029
स्ट्रो	-17.8038
ণ্ট	-17.8064
▁व्ध	-17.8064
्फ्	-17.8065
▁ಬ್ವ	-17.8071
క్ష్మి	-17.8075
▁ड्व	-17.808
▁ख्शे	-17.8083
▁வாா	-17.8092
್ಫ	-17.8093
▁ಳ್ಪ	-17.81
▁ಗ್ಡಾ	-17.8102
ಹ್	-17.8108
▁స్మ్	-17.8109
▁फ्ब्	-17.8114
द्म	-17.8119
্খ	-17.8123
ಕ್ಕೊ	-17.8132
़़	-17.8133
▁ত্স্	-17.8144
▁ನ್ಗಿ	-17.8147
▁र्क्य	-17.8147
ह्वा	-17.8148
ಹ್ನ	-17.8162
ष्मा	-17.8162
ಶ್ರು	-17.8163
▁త్న్య	-17.8166
▁फ्था	-17.8175
र्त्त	-17.8186
জ্বা	-17.8188
▁స్ము	-17.8191
र्चे	-17.8206
▁ন্ফ	-17.8206
▁వ్ని	-17.8212
▁ಥ್ರ್	-17.8218
▁ರ್ಷ್ಟ	-17.8219
र्ड्स	-17.8221
ಗ್ಲಿ	-17.8222
ರ್ಗಿ	-17.8223
▁ದ್ಮು	-17.8225
र्यु	-17.8228
ளீ	-17.8247
▁ಥ್ರೊ	-17.8253
్స్టి	-17.8253
न्वे	-17.8254
्तुः	-17.8285
ग्लि	-17.8312
ञ	-17.8318
▁ರ್ಕ್ರ	-17.8321
ద్వ	-17.8326
ल्ता	-17.8333
र्में	-17.8366
ల్చ	-17.8385
ষ্ম	-17.839
ರ್ಣಿ	-17.8403
न्ग	-17.8425
▁హ్మ్	-17.8433
న్నై	-17.8439
ক্ষ্যে	-17.8452
▁म्ब्य	-17.8454
▁স্ত্ব	-17.8457
క్రై	-17.8458
ज़ों	-17.8461
्ज़ो	-17.8469
জ্যো	-17.8477
्ऩ	-17.8478
▁্হ	-17.8479
ళ్లే	-17.8485
▁ప్స్ట	-17.8486
్ధః	-17.8487
्वः	-17.8492
ತ್ರು	-17.8501
▁ఙ్ఞు	-17.8505
ర్రె	-17.851
तीं	-17.8528
▁ణ్న	-17.8529
ਖੌ	-17.8543
ल्को	-17.8558
फ्लि	-17.8562
ళ్ళీ	-17.8563
ಘು	-17.8564
মৈ	-17.8582
ಜ್ಜಿ	-17.8588
ह्न	-17.8596
ਗਿੰ	-17.8601
ल्व	-17.8603
क्ट्स	-17.8611
క్కె	-17.8613
र्स्ट	-17.863
▁ట్స్క	-17.8633
స్ప్లా	-17.8634
्रीः	-17.8635
टः	-17.8639
▁क्प्ट	-17.8651
గ్ల	-17.8656
్గం	-17.866
ষ্ঠী	-17.8665
ಸ್ಸಾ	-17.8669
▁ಬ್ಸ್ಟ	-17.8672
▁ల్శ	-17.8678
▁ಷ್ಕೆ	-17.8685
▁ನ್ಲ	-17.8699
▁క్మే	-17.8711
্যিা	-17.8713
న్ష	-17.8715
फौ	-17.8716
▁స్క్వ	-17.8718
్ది	-17.8719
न्नि	-17.8727
ర్సీ	-17.8733
ट्रं	-17.8735
ಕ್ಗ	-17.874
▁ಷ್ನಿ	-17.8753
र्डि	-17.8754
స్ఫ	-17.8768
ব্	-17.878
▁బ్స్ట్ర	-17.879
ঝুঁ	-17.8802
ల్పు	-17.881
டா்	-17.8812
ण्डा	-17.8813
▁ग्लौ	-17.8817
ಫ್ರಿ	-17.8821
ర్బ	-17.8829
▁न्गे	-17.8832
್ಧ	-17.8834
▁ত্ক	-17.8849
▁ట్చి	-17.886
র্ভা	-17.8866
ड्या	-17.887
▁র্স্ক	-17.8882
▁ಭೊ	-17.8883
▁त्शे	-17.8886
▁ढ्	-17.8889
ন্ত্রা	-17.8897
స్త్రి	-17.8899
न्वि	-17.8919
స్తాం	-17.8923
°	-17.8924
▁జ్త	-17.8935
শ্রা	-17.8945
▁ನ್ತಿ	-17.8958
ङ	-17.8962
ಪ್ಲೆ	-17.8967
్ళ	-17.8969
ট্য	-17.9008
గః	-17.9015
স্ট্রি	-17.9021
ನ್ಮಾ	-17.9025
ম্রা	-17.9028
▁क्ज़ा	-17.9031
শৃ	-17.9037
స్గా	-17.9044
र्द्ध	-17.9047
▁ন্চ	-17.9055
్ము	-17.9056
ನ್ಗೆ	-17.9059
ఖ్	-17.9062
ਂਂ	-17.9064
▁প্ল্	-17.9066
यूं	-17.9089
ದಿಃ	-17.9091
ష్ఠ	-17.9091
त्वं	-17.9099
ஹூ	-17.9114
भै	-17.9114
▁ন্ন্	-17.912
▁ড়্যা	-17.9122
ద్ధు	-17.9135
▁ফূ	-17.9151
▁स्र्	-17.9153
▁ड्यां	-17.9155
कः	-17.9161
క్వి	-17.9164
▁ल्झ	-17.9169
డ్కు	-17.917
▁ঘোঁ	-17.9193
▁न्नां	-17.92
ರ್ನೆ	-17.9208
▁చ్డ	-17.9209
श्लो	-17.9215
ದ್ವ	-17.9215
▁ಪ್ಟ್ಗ	-17.9216
▁ট্স্	-17.9218
▁ক্ম	-17.9225
ख़ु	-17.923
▁র্ম্	-17.9233
ষ্টে	-17.9236
▁স্ম্য	-17.9245
ಮ್ರಾ	-17.9247
▁స్త్తో	-17.9248
ন্দ্রি	-17.9252
▁ੂ	-17.9259
▁वुः	-17.9264
▁ఢ్ల	-17.9271
್ಷ	-17.929
ज़ु	-17.93
స్రా	-17.9302
త్కా	-17.9307
्ख	-17.9308
▁கூா	-17.9309
ಪ್ಟ	-17.9312
ల్క	-17.9326
च्छु	-17.9329
ಫ್ಲಾ	-17.933
ल्का	-17.9331
ধো	-17.9335
ಲ್ಗೊ	-17.9343
ड्डे	-17.9344
▁ब्ड	-17.9346
డిః	-17.937
▁र्फ्य	-17.9372
ಡ್ಸ್	-17.9372
్చే	-17.9376
▁ర్డ్వ	-17.9382
ల్యు	-17.9391
ज्जा	-17.94
▁र्ध्	-17.9408
न्ने	-17.9414
ಷ್ಪ	-17.9424
ತಿಃ	-17.9426
న్వ	-17.9438
ద్వే	-17.9457
జ్జ	-17.9457
▁म्ट	-17.9458
▁ళ్చ	-17.9463
▁జ్సి	-17.9465
क्भ्	-17.9483
▁জ্য়	-17.9492
ব্বো	-17.9493
মৎ	-17.9497
▁న్బొ	-17.9499
स्प्ले	-17.9509
బ్రె	-17.951
ಮ್ಫ	-17.9512
भ्रा	-17.9514
ట్మె	-17.9523
▁ম্দ	-17.9523
ल्डि	-17.9524
▁ಪ್ನೊ	-17.9552
భ్రా	-17.9555
▁छ्या	-17.956
▁స్గి	-17.957
▁ల్ప్య	-17.957
▁ర్ట్స	-17.957
ర్నా	-17.9588
▁ర్క్ప్ల	-17.9597
ब्जी	-17.9617
▁द्व्र	-17.9624
खै	-17.9624
▁ర్డ్స	-17.9627
ల్కు	-17.9637
▁ল্ল্ম	-17.9643
ঙ্কি	-17.9645
త్క	-17.9645
म्बी	-17.9647
ट्टे	-17.9648
హ్య	-17.9654
▁ঙ্খ্য	-17.9656
▁ద్ధె	-17.966
▁श्को	-17.9663
स्वे	-17.9672
क़ी	-17.9681
▁ವ್ಸ್ಗ	-17.9684
பௌ	-17.9684
স্মি	-17.9696
नाः	-17.9699
ಕ್ಷ್ಮಿ	-17.9699
▁ష్ట్ర్ర	-17.97
▁ग्भ्र	-17.9725
्भ्	-17.9732
▁क्यांे	-17.9735
್ಠ	-17.9737
బొం	-17.974
▁ర్థ్ర	-17.9748
▁ద్థ	-17.9755
▁స్మ్య	-17.9769
▁झ्	-17.9769
स्पॉ	-17.9773
ঝু	-17.9774
ర్ట	-17.9776
▁మ్జ	-17.9781
▁বঁা	-17.9785
म्भ्	-17.9793
ಲ್ವೆ	-17.98
র্নি	-17.9801
▁ల్ప్రా	-17.9812
▁ಝ್ನ	-17.9813
▁ఫ్డ్	-17.9819
ஷை	-17.9827
▁ಸ್ಸೊ	-17.9827
प्य	-17.9833
▁ಯ್ಸ್ಟ	-17.9834
▁జ్ఞ్య	-17.9843
स्र	-17.9849
▁र्द्स्व	-17.9852
▁రె్తై	-17.9852
▁ढे़ंः	-17.9852
▁ಜ್ಝಿ	-17.9853
▁স্ন্যু	-17.9857
▁ণ্ট্	-17.986
ప్ష	-17.9862
▁ర్న్కీ	-17.9863
ళ్తు	-17.9866
▁भ्व	-17.9866
▁వ్ల్యా	-17.9872
▁ক্লৈ	-17.9873
▁మ్భీ	-17.9883
▁త్త్వు	-17.9886
▁ಸ್ಟ್ಫ	-17.9887
షై	-17.9887
▁ష్ణ్య	-17.9887
▁स्स्व	-17.9887
स्त्रो	-17.9888
থো	-17.989
▁హ్వో	-17.9896
▁స్స్ఫ	-17.9897
ন্ব	-17.9899
▁ಝ್ಗ	-17.9903
▁ర్జ్ల	-17.9904
▁ಚ್ವ	-17.9906
▁নু্ষ	-17.9909
▁మ్స్బా	-17.9912
স্মা	-17.9914
▁ಫ್ಟ್ಸ	-17.9916
▁డ్డ్ని	-17.9917
▁ध्यां	-17.9919
ੇੇੇ	-17.9926
బ్లి	-17.993
▁র্র্ব	-17.995
ಲ್ಬ	-17.995
▁ట్ఠ	-17.9959
▁ज्ञै	-17.9967
▁ষ্ঠ্যা	-17.9968
▁గ్స	-17.9968
ಕ್ಲೀ	-17.9986
झें	-17.9989
्छी	-17.9996
▁ह्नः	-17.9998
▁ర్జ్వ	-18.0002
▁ಕ್ಹ್ಮ	-18.0003
ব্ধ	-18.0008
▁జ్గ	-18.0017
▁చ్ఛృ	-18.002
▁ర్ధ్ర	-18.0025
▁र्षाः	-18.0032
▁স্প্রী	-18.0039
▁న్ఱ	-18.0045
ర్డ	-18.0047
▁र्ग़	-18.0048
▁ఫ్ష	-18.0051
▁ಗ್ರ್ರಾ	-18.0069
ಥೋ	-18.0072
వూ	-18.0079
ঞ্চে	-18.0082
▁ತ್ಮ್ಯ	-18.0082
ణాం	-18.0084
ੁੁੁ	-18.0086
▁ట్హో	-18.0092
▁ర్ప్య	-18.0095
▁ల్డ్మ	-18.0096
▁గ్దూ	-18.0098
▁দ্যৌ	-18.01
ర్టై	-18.0101
ట్టె	-18.0102
▁न्झ	-18.0104
▁క్డ	-18.011
▁ढ़ीः	-18.0116
न्फ्रे	-18.0116
▁ಢೋ	-18.0126
▁न्स्य	-18.013
ರ್ಲ	-18.0132
ಪ್ಟೆ	-18.0132
ರ್ದ	-18.0147
▁हॅं	-18.0156
হ্ন	-18.0156
▁ಡ್ಸ್ಕ	-18.0157
▁स्द	-18.0159
జొ	-18.0168
र्दू	-18.0172
▁জ্ড	-18.0175
ర్ధి	-18.0177
़ः	-18.018
▁ఖ్మ	-18.0182
▁క్బ్యా	-18.0183
త్కు	-18.0184
▁ಗ್ಬ್ಯಾ	-18.0188
▁ರ್ರ್ಸ್	-18.0195
থ্য়	-18.0208
▁ಯ್ತ್	-18.021
▁ক্যৈ	-18.0213
घ्न	-18.0215
గ్న	-18.0217
ಜ್ಯಾ	-18.0219
ಶ್ರಾ	-18.0227
▁ಪ್ಳ	-18.0228
▁ద్ధ్భ	-18.0232
ञो	-18.0238
▁ದ್ಕೊ	-18.0245
▁र्तेः	-18.0246
्तं	-18.0267
ग्जा	-18.0268
स्सी	-18.027
ತ್ರೋ	-18.0274
▁अौ	-18.0278
್ಪೆ	-18.0283
▁फ़्फ	-18.0289
▁స్త్రై	-18.0301
▁ರ್ಡ್ವ	-18.0313
র্গা	-18.0333
ण्डे	-18.0336
ন্মে	-18.0345
ದೌ	-18.0349
▁గ్హ	-18.0357
ষ্প	-18.0364
रैः	-18.0367
▁प्रो़	-18.0377
▁ಶ್ಬ	-18.0381
▁त्माः	-18.0389
▁আ্য	-18.0392
▁न्गू	-18.0399
্জি	-18.0406
క్వ	-18.0412
ट्व	-18.0416
सः	-18.0438
சௌ	-18.044
డ్తో	-18.0444
▁ಗ್ಝಾ	-18.0446
▁ड़ु	-18.045
▁థ్స	-18.0453
▁ರ್ಟ್ಬ್ಲ	-18.0457
▁ಗ್ಬ್ರ	-18.0458
▁र्त्र	-18.0463
▁శ్క	-18.0467
স্কো	-18.0469
স্কঃ	-18.0493
್ಥಾ	-18.0498
▁্ব	-18.0504
▁ರ್ಟ್ಬ್ರ	-18.0506
లేం	-18.0515
म्भा	-18.0524
धं	-18.0532
ਭੌ	-18.0532
▁याॅ	-18.0535
▁ల్స్ట	-18.0537
▁ন্যৈ	-18.0543
ट्रू	-18.0548
র্ত্ত	-18.0561
म्या	-18.0561
क्टे	-18.0566
▁న్స్టై	-18.057
যাং	-18.0574
▁చ్క	-18.0577
హ్న	-18.0581
ದ್ದೂ	-18.0587
ರ್ನ್	-18.0595
ढो	-18.0596
ವ್ಯೂ	-18.0597
▁ऩ्हो	-18.0609
▁দ্স	-18.0616
▁ಗ್ಭ	-18.0629
್ಯೇ	-18.064
వౌ	-18.0641
ल्ब	-18.0645
▁ರ್್ಗ	-18.0652
র্ধ্ব	-18.0656
▁గ్వ్య	-18.066
▁म्है	-18.0669
্শ্ব	-18.0672
ర్వి	-18.0682
ਜ਼ੈ	-18.0692
చ్యు	-18.0693
▁स्प्ला	-18.0694
ন্ধি	-18.0695
»	-18.0695
ణ్యా	-18.0698
द्भा	-18.0712
▁ਹ੍	-18.0721
▁ग्घो	-18.0725
▁ಗ್ಮ	-18.0735
▁ಛ್ಛ	-18.0735
▁ట్బ్యా	-18.0739
ਥੁ	-18.0745
▁भ्क्	-18.0749
▁ਗ਼ੈੈ	-18.0752
वः	-18.0754
ಷ್ಣಾ	-18.0755
ద్భ	-18.0757
{	-18.0758
ಷ್ಮ	-18.0762
▁ರ್ದ್	-18.0763
▁మ్హా	-18.0779
▁స్స్యు	-18.0788
র্সি	-18.0797
▁ణ్ప	-18.0805
▁ರ್ಭ್ಯ	-18.0808
ర్వు	-18.0816
ఢ	-18.0816
▁క్స్పా	-18.0823
▁స్ర్	-18.083
▁క్హ్య	-18.0845
ष्पा	-18.0849
ರ್ಡ	-18.0851
्घ	-18.0851
ಡ್ಡೆ	-18.0851
▁త్బ	-18.0853
ಬ್ಲೆ	-18.0873
ప్ట్	-18.0885
ণ্যে	-18.0889
ర్ద	-18.0893
জ্জ্ব	-18.0893
▁ल्ट्	-18.0897
▁म्कि	-18.0902
▁ਮੁੁ	-18.0908
▁ల్భ్య	-18.0922
ನ್ಸ್ನ	-18.0961
▁ಣ್ಕ	-18.0964
ర్చే	-18.0967
द्घ	-18.0971
మ్రా	-18.0979
ফ্ল	-18.0982
త్కే	-18.0988
్మ్	-18.1009
ರ್ಜ್	-18.1011
▁্দ্	-18.1011
▁ನ್ಕೊ	-18.1013
▁ਕੌੰ	-18.1013
భౌ	-18.1021
▁డ్హా	-18.1026
▁য়ঁ	-18.1035
ফ্রা	-18.1036
र्व्य	-18.1042
क़्त	-18.1054
▁ಶ್ಚು	-18.1063
ಫ್ಟ್	-18.1067
ద్దాం	-18.1072
्क्स	-18.1074
▁ర్స్టె	-18.1076
য্যা	-18.1086
ట్నం	-18.1095
ధః	-18.1095
▁ల్ల్యా	-18.11
థీ	-18.11
▁డ్ద	-18.1101
ಪ್ಗ	-18.1106
▁న్ద్య	-18.112
}	-18.1126
র্ব্বে	-18.113
থু	-18.1131
▁స్ట్మ	-18.1149
▁ন্ড্	-18.1157
ర్వం	-18.1159
▁ಲ್ಕ್ಯಾ	-18.116
న్వా	-18.118
▁காா	-18.1182
న్తో	-18.119
्दौ	-18.119
ā	-18.1208
▁ಜ್ಷ	-18.1208
್ಸೇ	-18.1212
ನ್ನೈ	-18.1217
लाॅ	-18.1223
▁స్ట్ట్య	-18.123
क्यु	-18.1231
▁ल्म्	-18.1236
శృ	-18.127
ద్రో	-18.1272
్వు	-18.1282
▁ಟ್ಮಿ	-18.1284
▁ನ್ಕ್ವ	-18.1302
त्रे	-18.1303
ঢে	-18.1307
ಸ್ಯು	-18.1307
▁झः	-18.1311
ಧೇ	-18.1317
त्क	-18.1317
▁र्स्	-18.132
ಕ್ಲ	-18.1328
ల్ను	-18.1346
ज्ज्व	-18.1377
క్ష్యా	-18.1393
्टः	-18.1395
స్జె	-18.1396
र्नी	-18.1397
స్తం	-18.1409
▁ನ್ಗ್	-18.1418
নৃ	-18.1422
క్సా	-18.1422
▁ః	-18.1425
তাঃ	-18.1426
▁घ्घ	-18.1429
జ్ఞు	-18.1429
▁స్క్యా	-18.144
ष्या	-18.1455
క్ష్య	-18.1463
▁ష్ఠ్యా	-18.1471
म्पि	-18.1484
▁নু্য	-18.1508
▁र्षां	-18.1528
య్యె	-18.1535
ಳುಃ	-18.1538
▁क्ज़े	-18.1543
▁ట్బ్య	-18.1546
▁వ్బ	-18.1555
ಹ್ಯ	-18.1557
ಬ್ರ್ಯಾ	-18.156
▁ण्ग	-18.1569
ಮ್ನ	-18.1571
▁ಕ್ಳ	-18.1585
క్టి	-18.1621
▁న్ర	-18.1642
क्ट्री	-18.1646
್ಸೊ	-18.1647
स्ट्रॉ	-18.1665
▁ರ್ಕ್ಲಿ	-18.167
▁స్భ	-18.1677
गॉ	-18.1702
▁ನ್ಚಾ	-18.1705
₹	-18.1713
ర్ది	-18.1717
र्पो	-18.1724
మ్లో	-18.1727
ন্দ্	-18.173
▁ग्थ	-18.1733
▁ಲ್ಷ್	-18.1741
ఠం	-18.1741
ਗ਼ਾ	-18.1763
ষ্ণু	-18.1765
▁च्छ्य	-18.1768
त्वि	-18.1769
ग्ने	-18.1773
ರ್ಚ	-18.1774
~	-18.1782
ట్సి	-18.18
▁ళృ	-18.1809
शृ	-18.1813
▁ढ़़	-18.1813
టుః	-18.1813
র্টা	-18.1819
▁ज्नि	-18.1819
్క్యు	-18.1822
ল্ট	-18.1826
ల్చు	-18.1843
▁खेः	-18.1845
్మై	-18.1849
ಟ್ರೆ	-18.185
▁न्हं	-18.1856
ಮ್ಮೇ	-18.186
▁న్త్వ	-18.1882
स्ये	-18.1894
▁স্ট্র্য	-18.1895
▁फ्फे	-18.1903
ಖೇ	-18.1915
ज्म	-18.192
▁ணூா	-18.1922
▁ನ್ನ್	-18.1928
స్లు	-18.1932
ஷீ	-18.1934
స్ల	-18.1957
ज़ें	-18.1966
न्त्री	-18.1978
▁ಪ್ಮ	-18.1982
▁జ్జ్వా	-18.1988
▁গ্র্য	-18.1997
र्चि	-18.1997
నృ	-18.2031
▁ठ्या	-18.2036
న్సు	-18.2036
ద్దం	-18.2041
व्व	-18.2047
బ్దా	-18.2076
স্টো	-18.208
▁फ़्ग	-18.2081
▁ష్బ	-18.2088
ర్వ్యూ	-18.2088
दूं	-18.2088
▁স্স্স	-18.2098
खेंः	-18.2103
ಸ್ಲಾ	-18.2112
ಷ್ಟೋ	-18.2112
▁ब्भ	-18.2136
ధై	-18.214
ਥੀਂ	-18.2149
ర్తె	-18.2164
ఖీ	-18.2173
▁బ్ల్యా	-18.2174
্ঠ	-18.2175
జ్వ	-18.2176
ಬ್ಬು	-18.2183
▁ಹ್ನಾ	-18.2199
्द्र	-18.2224
▁య్యీ	-18.2242
మ్మం	-18.2246
▁ಕ್ಸ್ಪಾ	-18.2251
म्बि	-18.2262
్ఠా	-18.2271
खौ	-18.2285
▁न्फ़्र	-18.2294
▁आंे	-18.2295
ੇ੍	-18.2305
▁ग्भ्य	-18.2317
▁য্হ	-18.2319
▁म्फ्	-18.2323
ूॅ	-18.2323
▁ಗ್ಟ್ಸ	-18.2337
্ত্র	-18.2339
ಕ್ಸಾ	-18.2355
▁ন্ট্	-18.2363
ठु	-18.2368
▁త్వు	-18.2372
▁ক্ষ্	-18.2372
्खो	-18.2376
▁ದ್ಬಾ	-18.2391
न्ती	-18.2394
ಡ್ಡು	-18.2399
▁क्ब	-18.2406
్డా	-18.241
স্র	-18.2453
्त्व	-18.2458
▁ಸ್ಧ	-18.2461
स्कु	-18.2465
ಲ್ಸಿ	-18.2467
দ্মা	-18.2471
్దాం	-18.2476
ಲ್ವಿ	-18.2481
▁చ్ఛ్వ	-18.2485
▁स्थ्	-18.2493
▁జ్కా	-18.2501
ण्ट	-18.2508
ਰੀਂ	-18.2517
ਣੈ	-18.2519
▁మ్మ్	-18.2522
▁ह्ल	-18.2531
▁क्ष्मो	-18.2548
ణ్యం	-18.2569
▁क्ष्णा	-18.2579
డ్రె	-18.2579
▁ల్డ్రి	-18.2581
▁ನ್ಜೊ	-18.2584
▁न्श्य	-18.2586
▁ಸ್ವ್	-18.2593
ಡ್ರ	-18.261
ग्द	-18.2613
↑	-18.2614
▁ट्ल	-18.2615
...	-18.2615
▁द्भ्रा	-18.2623
త్రే	-18.2639
ದೆಃ	-18.2639
ಗ್ತಿ	-18.2646
ರ್ತು	-18.2687
प्टि	-18.2708
త్తే	-18.2709
ಠ್ಯ	-18.2728
ज्ञे	-18.2735
▁ಯ್ಮೆ	-18.274
फ़ै	-18.2741
ब्रॉ	-18.2756
్భూ	-18.2777
ூா	-18.2779
स्फ	-18.2781
ಪ್ಲ	-18.2782
॒	-18.2785
ল্	-18.2787
▁थ्ा	-18.2791
ర్ట్స్	-18.2792
ಳೊ	-18.2794
▁స్ఠ	-18.2797
ರ್ಣಾ	-18.2804
ਨੌਂ	-18.2809
ಲ್ವಾ	-18.2814
স্ফো	-18.2817
স্কি	-18.282
▁ట్స్న	-18.2827
వ్వి	-18.2866
డేం	-18.288
्प्लि	-18.2882
ुॅ	-18.2882
▁త్ప్ర్ప	-18.2894
▁ర్ఫ్ల	-18.2895
ఫ్లే	-18.2896
▁स्स्य	-18.2904
్క్రా	-18.2905
ರ್ಯೋ	-18.2912
▁ಬ್ನಿ	-18.2934
▁ತ್ರ್ರ	-18.2944
ರ್ಟ್ಫ	-18.2944
थै	-18.2947
్రః	-18.295
ਛੰ	-18.2957
క్నా	-18.2965
ಯ್ಡ್	-18.2966
ಥೀ	-18.297
ಸ್ಕ್ಯಾ	-18.2973
र्से	-18.2991
ন্মা	-18.3006
শ্চা	-18.3025
व्	-18.3029
▁ಟ್ವೊ	-18.3047
క్రం	-18.3062
ెః	-18.307
హ్	-18.3074
ಮಃ	-18.3082
▁্প	-18.3084
▁न्ड्	-18.3102
ज्ड	-18.3107
ರ್ವಿ	-18.3111
বাৎ	-18.3124
▁ನ್ಸ್ಟ್	-18.3135
▁র্ত্	-18.3139
ज्जि	-18.3142
డ్రే	-18.3143
ఫ్రే	-18.315
ಗ್ಗು	-18.3152
ಣ್ಣಾ	-18.3159
▁న్ధు	-18.3168
▁ತ್ಸಿ	-18.3175
▁र्ष्य	-18.3185
▁ಗ್ರ್ರ	-18.323
ल्पा	-18.3235
ल्टा	-18.3236
▁ब्ल्	-18.3236
ಚ್ಚೆ	-18.3238
श्तों	-18.3243
प्न	-18.3259
ব্বি	-18.3262
র্ষা	-18.3267
ब्ज	-18.3286
స్వి	-18.3301
द्भ	-18.3305
्रैः	-18.3314
श्मा	-18.3326
▁జ్లా	-18.3327
[...]
